{
  "version": "1.0",
  "truncation": null,
  "padding": null,
  "added_tokens": [
    {
      "id": 0,
      "content": "<|endoftext|>",
      "single_word": false,
      "lstrip": false,
      "rstrip": false,
      "normalized": false,
      "special": true
    },
    {
      "id": 1,
      "content": "<|pad|>",
      "single_word": false,
      "lstrip": false,
      "rstrip": false,
      "normalized": false,
      "special": true
    },
    {
      "id": 2,
      "content": "<|unk|>",
      "single_word": false,
      "lstrip": false,
      "rstrip": false,
      "normalized": false,
      "special": true
    }
  ],
  "normalizer": null,
  "pre_tokenizer": {
    "type": "ByteLevel",
    "add_prefix_space": false,
    "trim_offsets": true,
    "use_regex": true
  },
  "post_processor": {
    "type": "ByteLevel",
    "add_prefix_space": true,
    "trim_offsets": false,
    "use_regex": true
  },
  "decoder": {
    "type": "ByteLevel",
    "add_prefix_space": true,
    "trim_offsets": true,
    "use_regex": true
  },
  "model": {
    "type": "BPE",
    "dropout": null,
    "unk_token": "<|unk|>",
    "continuing_subword_prefix": null,
    "end_of_word_suffix": null,
    "fuse_unk": false,
    "byte_fallback": false,
    "ignore_merges": false,
    "vocab": {
      "<|endoftext|>": 0,
      "<|pad|>": 1,
      "<|unk|>": 2,
      "!": 3,
      "\"": 4,
      "#": 5,
      "$": 6,
      "%": 7,
      "&": 8,
      "'": 9,
      "(": 10,
      ")": 11,
      "*": 12,
      "+": 13,
      ",": 14,
      "-": 15,
      ".": 16,
      "/": 17,
      "0": 18,
      "1": 19,
      "2": 20,
      "3": 21,
      "4": 22,
      "5": 23,
      "6": 24,
      "7": 25,
      "8": 26,
      "9": 27,
      ":": 28,
      ";": 29,
      "<": 30,
      "=": 31,
      ">": 32,
      "?": 33,
      "@": 34,
      "A": 35,
      "B": 36,
      "C": 37,
      "D": 38,
      "E": 39,
      "F": 40,
      "G": 41,
      "H": 42,
      "I": 43,
      "J": 44,
      "K": 45,
      "L": 46,
      "M": 47,
      "N": 48,
      "O": 49,
      "P": 50,
      "Q": 51,
      "R": 52,
      "S": 53,
      "T": 54,
      "U": 55,
      "V": 56,
      "W": 57,
      "X": 58,
      "Y": 59,
      "Z": 60,
      "[": 61,
      "\\": 62,
      "]": 63,
      "^": 64,
      "_": 65,
      "`": 66,
      "a": 67,
      "b": 68,
      "c": 69,
      "d": 70,
      "e": 71,
      "f": 72,
      "g": 73,
      "h": 74,
      "i": 75,
      "j": 76,
      "k": 77,
      "l": 78,
      "m": 79,
      "n": 80,
      "o": 81,
      "p": 82,
      "q": 83,
      "r": 84,
      "s": 85,
      "t": 86,
      "u": 87,
      "v": 88,
      "w": 89,
      "x": 90,
      "y": 91,
      "z": 92,
      "{": 93,
      "|": 94,
      "}": 95,
      "~": 96,
      "¡": 97,
      "¢": 98,
      "£": 99,
      "¤": 100,
      "¥": 101,
      "¦": 102,
      "§": 103,
      "¨": 104,
      "©": 105,
      "ª": 106,
      "«": 107,
      "¬": 108,
      "®": 109,
      "¯": 110,
      "°": 111,
      "±": 112,
      "²": 113,
      "³": 114,
      "´": 115,
      "µ": 116,
      "¶": 117,
      "·": 118,
      "¸": 119,
      "¹": 120,
      "º": 121,
      "»": 122,
      "¼": 123,
      "½": 124,
      "¾": 125,
      "¿": 126,
      "À": 127,
      "Á": 128,
      "Â": 129,
      "Ã": 130,
      "Ä": 131,
      "Å": 132,
      "Æ": 133,
      "Ç": 134,
      "È": 135,
      "É": 136,
      "Ê": 137,
      "Ë": 138,
      "Ì": 139,
      "Í": 140,
      "Î": 141,
      "Ï": 142,
      "Ð": 143,
      "Ñ": 144,
      "Ò": 145,
      "Ó": 146,
      "Ô": 147,
      "Õ": 148,
      "Ö": 149,
      "×": 150,
      "Ø": 151,
      "Ù": 152,
      "Ú": 153,
      "Û": 154,
      "Ü": 155,
      "Ý": 156,
      "Þ": 157,
      "ß": 158,
      "à": 159,
      "á": 160,
      "â": 161,
      "ã": 162,
      "ä": 163,
      "å": 164,
      "æ": 165,
      "ç": 166,
      "è": 167,
      "é": 168,
      "ê": 169,
      "ë": 170,
      "ì": 171,
      "í": 172,
      "î": 173,
      "ï": 174,
      "ð": 175,
      "ñ": 176,
      "ò": 177,
      "ó": 178,
      "ô": 179,
      "õ": 180,
      "ö": 181,
      "÷": 182,
      "ø": 183,
      "ù": 184,
      "ú": 185,
      "û": 186,
      "ü": 187,
      "ý": 188,
      "þ": 189,
      "ÿ": 190,
      "Ā": 191,
      "ā": 192,
      "Ă": 193,
      "ă": 194,
      "Ą": 195,
      "ą": 196,
      "Ć": 197,
      "ć": 198,
      "Ĉ": 199,
      "ĉ": 200,
      "Ċ": 201,
      "ċ": 202,
      "Č": 203,
      "č": 204,
      "Ď": 205,
      "ď": 206,
      "Đ": 207,
      "đ": 208,
      "Ē": 209,
      "ē": 210,
      "Ĕ": 211,
      "ĕ": 212,
      "Ė": 213,
      "ė": 214,
      "Ę": 215,
      "ę": 216,
      "Ě": 217,
      "ě": 218,
      "Ĝ": 219,
      "ĝ": 220,
      "Ğ": 221,
      "ğ": 222,
      "Ġ": 223,
      "ġ": 224,
      "Ģ": 225,
      "ģ": 226,
      "Ĥ": 227,
      "ĥ": 228,
      "Ħ": 229,
      "ħ": 230,
      "Ĩ": 231,
      "ĩ": 232,
      "Ī": 233,
      "ī": 234,
      "Ĭ": 235,
      "ĭ": 236,
      "Į": 237,
      "į": 238,
      "İ": 239,
      "ı": 240,
      "Ĳ": 241,
      "ĳ": 242,
      "Ĵ": 243,
      "ĵ": 244,
      "Ķ": 245,
      "ķ": 246,
      "ĸ": 247,
      "Ĺ": 248,
      "ĺ": 249,
      "Ļ": 250,
      "ļ": 251,
      "Ľ": 252,
      "ľ": 253,
      "Ŀ": 254,
      "ŀ": 255,
      "Ł": 256,
      "ł": 257,
      "Ń": 258,
      "Ø§": 259,
      "ÛĮ": 260,
      "ĠØ": 261,
      "ĠÙ": 262,
      "Ú©": 263,
      "Ø±": 264,
      "ÙĪ": 265,
      "ĠÚ©": 266,
      "ÙĨ": 267,
      "ÛĴ": 268,
      "Ûģ": 269,
      "Ø§Ø": 270,
      "ÙĦ": 271,
      "Ùħ": 272,
      "ĠÙħ": 273,
      "ĠØ§": 274,
      "Úº": 275,
      "Øª": 276,
      "Ø¯": 277,
      "Ø³": 278,
      "ĠÛģ": 279,
      "ÛĮÚº": 280,
      "ĠØ³": 281,
      "Ú¾": 282,
      "ĠØ¨": 283,
      "Ø¨": 284,
      "ÙĪØ±": 285,
      "Ú¯": 286,
      "ÛĶ": 287,
      "ĠÚ©ÛĮ": 288,
      "ĠÚ©ÛĴ": 289,
      "Ø§ÙĨ": 290,
      "ĠÙ¾": 291,
      "Ù¹": 292,
      "ĠÙĨ": 293,
      "ĠØª": 294,
      "ĠØ§Ø": 295,
      "Ø§Ø±": 296,
      "ĠÙħÛĮÚº": 297,
      "ĠØ¬": 298,
      "ÙĤ": 299,
      "Ùģ": 300,
      "Ø¹": 301,
      "ĠØ¯": 302,
      "ĠÙĪ": 303,
      "Ø´": 304,
      "ĠÛģÛĴ": 305,
      "Ø§Ø¦": 306,
      "Ø±ÛĮ": 307,
      "ØĮ": 308,
      "ĠØ§ÙĪØ±": 309,
      "Ø§ÙĦ": 310,
      "Ø²": 311,
      "Ø¬": 312,
      "ĠØ±": 313,
      "Ø§Ùħ": 314,
      "ÚĪ": 315,
      "Ù¾": 316,
      "ĠÚ¯": 317,
      "ĠØ§Ø³": 318,
      "ÚĨ": 319,
      "ÙĪÚº": 320,
      "ĠØ§ÛĮ": 321,
      "ĠØ³ÛĴ": 322,
      "ĠÙĦ": 323,
      "Ø§Øª": 324,
      "Ø¦": 325,
      "ĠÚ©Ø±": 326,
      "ĠÚ©Ø§": 327,
      "ÛĮÙĨ": 328,
      "ØŃ": 329,
      "ÛĮØ§": 330,
      "ĠØ¹": 331,
      "ĠØ¢": 332,
      "ĠÚ©ÙĪ": 333,
      "ĠØ´": 334,
      "ĠÙĨÛĴ": 335,
      "ĠÙ¾Ø±": 336,
      "Ø§Ø¯": 337,
      "ĠÙģ": 338,
      "ĠØ§ÙĨ": 339,
      "ÙĦÛĮ": 340,
      "ĠÛģÙĪ": 341,
      "ĠØ®": 342,
      "ĠØŃ": 343,
      "Øµ": 344,
      "Ø§Ø¨": 345,
      "ĠØªÚ¾": 346,
      "ĠÚ©Ûģ": 347,
      "ĠØ§ÛĮÚ©": 348,
      "Ġ1": 349,
      "ÙħÛĮ": 350,
      "ĠÙĤ": 351,
      "ÙĨÛĴ": 352,
      "ÙĦØ§": 353,
      "Ø§Ø³": 354,
      "Ø®": 355,
      "ÛĮØ±": 356,
      "Ø·": 357,
      "Ø§Ûģ": 358,
      "ÙĪÙĨ": 359,
      "Ú¾ÛĮ": 360,
      "ĠÚĨ": 361,
      "ĠÛĮ": 362,
      "ĠÛģÛĮÚº": 363,
      "Ø§Ú©": 364,
      "ĠØ§ÙĦ": 365,
      "Ø³Øª": 366,
      "Ø§Ø¦ÛĮ": 367,
      "Úĳ": 368,
      "Ù¹ÛĮ": 369,
      "ÙĨØ¯": 370,
      "ĠÙĦÛĮ": 371,
      "Ø¦ÛĴ": 372,
      "Ġ2": 373,
      "Ø¦ÛĮ": 374,
      "ÙĨÛĮ": 375,
      "ĠÙ¹": 376,
      "ÙĪÙĦ": 377,
      "Ø¡": 378,
      "Ø³ÛĮ": 379,
      "ĠÚĪ": 380,
      "ØªÛĮ": 381,
      "ĠÚ©ÛĮØ§": 382,
      "ĠØµ": 383,
      "ĠØ·": 384,
      "ĠØ²": 385,
      "Ù¹Ø±": 386,
      "Ġ(": 387,
      "ÙĨÚ¯": 388,
      "ĠØ¬ÙĪ": 389,
      "ÛĮØ¯": 390,
      "Ø§Ø²": 391,
      "Ø¸": 392,
      "ÛĮÙĦ": 393,
      "Ø´ÙĨ": 394,
      "Ø§ÙĨÛĮ": 395,
      "Ø§Ø±ÛĮ": 396,
      "Ø§ÙĤ": 397,
      "ĠØ¨Ú¾ÛĮ": 398,
      "ÛĮÙħ": 399,
      "ÙħÙĦ": 400,
      "ĠØªÚ¾Ø§": 401,
      "Ø±ÙĪ": 402,
      "ĠØ§Ù¾": 403,
      "ĠØ¨ÙĨ": 404,
      "ĠÙĨÛģ": 405,
      "ĠØ³ÛĮ": 406,
      "ĠÛĮÛģ": 407,
      "ÛĮØª": 408,
      "ÙĪÙħ": 409,
      "ĠÛĶ": 410,
      "ĠØĮ": 411,
      "ÛĮØ³": 412,
      "âĢ": 413,
      "Ġ19": 414,
      "ĠÙĦÛĮÛĴ": 415,
      "Ø§Ø¦ÛĴ": 416,
      "ĠØ±Ûģ": 417,
      "Ġ20": 418,
      "ÙĪØ¨": 419,
      "ØªÛĴ": 420,
      "Ø¶": 421,
      "Ø³ØªØ§ÙĨ": 422,
      "ÙĪØ¯": 423,
      "ĠÙĪÛģ": 424,
      "Ø±Ø¯": 425,
      "ĠØ¯ÛĮ": 426,
      "ØªØ§": 427,
      "ÙĦÙħ": 428,
      "ĠÚ¯ÛĮØ§": 429,
      "Øº": 430,
      "Ø§Ø¤": 431,
      "ĠØ§Ùģ": 432,
      "ÙĪÛĮ": 433,
      "ĠØ¬ÙĨ": 434,
      "Ú©ÛĮ": 435,
      "Ø¹Ø¯": 436,
      "ĠÙĪØ§ÙĦ": 437,
      "ĠÙħÙĦ": 438,
      "ĠÙħÛĮ": 439,
      "ĠÙħØ´": 440,
      "ÙĦÛģ": 441,
      "ĠÙħÙĨ": 442,
      "Ø§Ùģ": 443,
      "Ø¨Ø±": 444,
      "Ø¨Ø§Ø¯": 445,
      "ĠØ§Ùħ": 446,
      "Ú©Ú¾": 447,
      "ĠÙ¾ÛĮ": 448,
      "ĠØ¬Ø³": 449,
      "ÙĦÛĴ": 450,
      "ĠØªØ¹": 451,
      "ÙĪØ³": 452,
      "Ø§ÙħÛĮ": 453,
      "Ø§Ø¹": 454,
      "ĠÙĨÛģÛĮÚº": 455,
      "ÙĨØ§": 456,
      "ĠÙħØŃ": 457,
      "ĠØ±ÙĪ": 458,
      "ÙĪØ¬": 459,
      "Ø§ØªÚ¾": 460,
      "ĠÙħØª": 461,
      "Ø§ÙĤØ¹": 462,
      "ĠØªÚ¾ÛĴ": 463,
      "Ø«": 464,
      "ĠØ¨Ú¾": 465,
      "ĠÙĪØ§ÙĤØ¹": 466,
      "Ø±Ø¨": 467,
      "Ø¯Ûģ": 468,
      "ÙħØ¯": 469,
      "ĠÙ¾Ø§Ú©": 470,
      "ĠÙ¾Ûģ": 471,
      "ĠØ¨ÛĮ": 472,
      "ÛģØ±": 473,
      "ĠØ¢Ø¨Ø§Ø¯": 474,
      "Ø§Ø¬": 475,
      "Ú©Ù¹": 476,
      "Ú¯Ø±": 477,
      "ÙĦØ§ÙĤ": 478,
      "ĠØ±ÛĮ": 479,
      "ĠØ¨Ø±": 480,
      "ĠÙħÙĤ": 481,
      "ĠÚ©Ø±ÙĨÛĴ": 482,
      "Ø±Ú©": 483,
      "ĠÙħØ¹": 484,
      "ĠÙģØ±": 485,
      "Ø±Ùģ": 486,
      "ÙĪØ±ÛĮ": 487,
      "ĠØ¨Ø¹Ø¯": 488,
      "Ø§Úº": 489,
      "ĠØ§Ø¯": 490,
      "Ú©Ø±": 491,
      "Ø¬Ùħ": 492,
      "ÙĨÙ¹": 493,
      "Ø§ÙĨÛĴ": 494,
      "Ø±Ø§Ø¯": 495,
      "Ø§ÙĨÛģ": 496,
      "Ø§Ø³Øª": 497,
      "ĠÚ©ÛģØ§": 498,
      "ĠÙħØ³": 499,
      "ÙĪØ¹": 500,
      "Ø¯ÛĮ": 501,
      "Ú©ÙĨ": 502,
      "ĠØ§Ø¨": 503,
      "Ø°": 504,
      "ÙĦÙĪ": 505,
      "Ú©Ø§": 506,
      "Ø§Øµ": 507,
      "ĠØ¯Ø±": 508,
      "ĠØ³Ø§ØªÚ¾": 509,
      "ĠØªÙĪ": 510,
      "ÙħØ±": 511,
      "ĠØ¯ÛĮØ§": 512,
      "ĠØŃÚ©": 513,
      "ĠØªÚ©": 514,
      "Ø¢": 515,
      "Ø§ØŃ": 516,
      "Ú©Ûģ": 517,
      "ÙħØ§ÙĦ": 518,
      "Ø³Ù¹": 519,
      "Ø§Ø±Øª": 520,
      "ÙĦÙĤ": 521,
      "ÚĪÛĮ": 522,
      "ĠÙ¾Ø§Ú©Ø³ØªØ§ÙĨ": 523,
      "ĠÛģÙĪØ¦ÛĴ": 524,
      "ĠØ¬Ø§Øª": 525,
      "ÚĳÛĮ": 526,
      "ĠØ§ÙģØ±Ø§Ø¯": 527,
      "ÙĤÛĮ": 528,
      "ĠØº": 529,
      "ĠØ§Ø¹": 530,
      "ĠÙħÙĪ": 531,
      "ĠØ¯ÙĪØ±": 532,
      "ĠÚ©Ú¾": 533,
      "ĠØ§ÙĨÚ¾": 534,
      "ĠÚ©Ùħ": 535,
      "ĠØ·ÙĪØ±": 536,
      "ĠÚ©Ø§Ø±": 537,
      "ĠØ°": 538,
      "ĠØ§Ù¾ÙĨÛĴ": 539,
      "Ø¨ÛĮ": 540,
      "Ùı": 541,
      "Ú¯ÛĮ": 542,
      "Ø²ÛĮ": 543,
      "ĠØªÚ¾ÛĮ": 544,
      "Ø¯Ø±": 545,
      "ĠØ¨Ûģ": 546,
      "ĠÙĨØ§Ùħ": 547,
      "ĠÚĪÛĮ": 548,
      "Ø±ÛĮÙĨ": 549,
      "00": 550,
      "ĠÙħØ´Øª": 551,
      "Ø§Ø¤ÙĨ": 552,
      "Ø²ÛĮØ±": 553,
      "Ġ3": 554,
      "ĠÛģÛĮ": 555,
      "ĠØ§Ø³Ù¹ÛĮ": 556,
      "ĠØ³Ø±": 557,
      "Ġ201": 558,
      "Ø§ÛĮ": 559,
      "Ùĩ": 560,
      "ÙĲ": 561,
      "Ø§Ø´": 562,
      "ĠÙģÛĮ": 563,
      "ĠØªØŃ": 564,
      "ÙĦØ§Ùģ": 565,
      "ÙĪÙĦÛĮ": 566,
      "Ø§ÙĦÛĮ": 567,
      "Ø¨Ûģ": 568,
      "ĠÙħØ·": 569,
      "ĠØ¢Ø¨Ø§Ø¯ÛĮ": 570,
      "ĠØ³Ú©": 571,
      "ĠÙħØ¬Ùħ": 572,
      "ĠØ®Ø§ÙĨ": 573,
      "ĠÙĨÛĮ": 574,
      "Ø§ÙħÙĦ": 575,
      "ÙĪÙ¹": 576,
      "ĠØ¶": 577,
      "ĠÙħØ¬ÙħÙĪØ¹": 578,
      "ĠØ¨ÙĦ": 579,
      "Ø§Ø±Ûģ": 580,
      "ĠØ³Ø§ÙĦ": 581,
      "ĠØ¬Ø¨": 582,
      "ÙĦØ§Ùħ": 583,
      "Ú¾Ø±": 584,
      "Ø§ÛĮØ§": 585,
      "Ø¯Ùħ": 586,
      "ĠÙ¹ÛĮ": 587,
      "ÙĤØª": 588,
      "Ø¬Ûģ": 589,
      "Ø§Ù¾": 590,
      "ÙĪÙħØª": 591,
      "ĠØ§ÙĨØª": 592,
      "Ø§Ø¨ÙĤ": 593,
      "ÚĨÚ¾": 594,
      "Ø®Øª": 595,
      "ĠÙħØ´ØªÙħÙĦ": 596,
      "ĠÙħØ¬ÙħÙĪØ¹ÛĮ": 597,
      "ĠØ³Ø¨": 598,
      "ĠÚ¯Ø¦ÛĮ": 599,
      "ĠØªØ±": 600,
      "ĠØ³Ùħ": 601,
      "ĠÚ©Ø±Ú©Ù¹": 602,
      "ĠÚ¯Ø¦ÛĴ": 603,
      "ĠØ¯ÙĪ": 604,
      "ĠØ¹ÙĦØ§ÙĤ": 605,
      "ĠÙģÙĦÙħ": 606,
      "ĠØ§ÙħØ±ÛĮ": 607,
      "Ø±Ùħ": 608,
      "ÙĨØ³": 609,
      "ÛĮØ§Ø¯": 610,
      "ĠØ§Ù¾ÙĨÛĮ": 611,
      "ĠÙħØªØŃ": 612,
      "ÛĮÙĨÚĪ": 613,
      "Ø§Ø¯ÛĮ": 614,
      "ĠÛĮØ§": 615,
      "ĠâĢ": 616,
      "ÙĪÛģ": 617,
      "ĠØ³ÙĨ": 618,
      "ĠØ§Ø³Øª": 619,
      "ĠØ³ÙĪ": 620,
      "ĠØ§Ø³Ù¹ÛĮØ´ÙĨ": 621,
      "ĠØªØ¹ÙĦÙĤ": 622,
      "ĠÚ©Ø±ØªÛĴ": 623,
      "ÙģÛĮ": 624,
      "Ú©ÙĦ": 625,
      "ĠØ®ÙĦØ§Ùģ": 626,
      "ĠÙĨØ¸": 627,
      "Ø´Øª": 628,
      "ĠÙħØªØŃØ¯Ûģ": 629,
      "ĠÛģÙĪØ§": 630,
      "Ø§ØµÙĦ": 631,
      "ĠØ´Ø§ÙħÙĦ": 632,
      "ĠØ¬Ø§ÙĨ": 633,
      "ĠØ§ÛĮØ³": 634,
      "Ú©Ø³": 635,
      "Ø¨Ø¯": 636,
      "ÙĦÛĮÙħ": 637,
      "ĠÚ©ÙĦ": 638,
      "Ġ\"": 639,
      "ĠØ¨ÛģØª": 640,
      "ÙħÛģ": 641,
      "ÙĪÙĨÛĮ": 642,
      "ĠÛģÙĪÙĨÛĴ": 643,
      "Ù°": 644,
      "ĠÙĪØ§ÙĦÛĴ": 645,
      "ĠØ®ÙĪ": 646,
      "ÛĮÙĨÛĮ": 647,
      "ĠÙĨÙħ": 648,
      "Ø±ØŃ": 649,
      "Ø±Ø¯ÙĪ": 650,
      "ĠØ§ØŃ": 651,
      "ĠØŃÚ©ÙĪÙħØª": 652,
      "ĠØ±ÛģÛĴ": 653,
      "ĠØ§ÙĨÚ¾ÙĪÚº": 654,
      "Ø±Ø§ÙĨ": 655,
      "Ø§Ø±ÛĴ": 656,
      "ĠØ¬Ø§ØªØ§": 657,
      "ĠØ§Ø³ÛĴ": 658,
      "ĠÙĪÛĮ": 659,
      "Ø´ÛĮ": 660,
      "ĠØ±Ú©Ú¾": 661,
      "Ø±ÛĮØ¨": 662,
      "an": 663,
      "ĠØ¯ÙĨ": 664,
      "ÙĨØ¬": 665,
      "20": 666,
      "ĠÙħØŃÙħØ¯": 667,
      "ĠØ´ÛģØ±": 668,
      "ĠØ§Ûģ": 669,
      "ĠØ§Ø®": 670,
      "Ġ4": 671,
      "ĠÙĦÙĪ": 672,
      "ĠØŃØ§ØµÙĦ": 673,
      "Ø§Ø¶": 674,
      "ĠÙħÙĦÚ©": 675,
      "ĠÚĨÚ¾": 676,
      "Ø§Ø¦ÙĨ": 677,
      "Ø¦Ø±": 678,
      "ĠÚ¯Ø§": 679,
      "ĠØ²ÛĮØ§Ø¯": 680,
      "ĠØªÙĤ": 681,
      "ĠÙĪØ²ÛĮØ±": 682,
      "ĠØ±ÛĮØ§Ø³Øª": 683,
      "Ú©Ø§Ø±": 684,
      "Ø±Øª": 685,
      "Ø§Ø®": 686,
      "ĠØ¹ÙĦÛĮ": 687,
      "ĠØ¢Ù¾": 688,
      "ĠÙħØµ": 689,
      "Ø§Ø¦Ø±": 690,
      "ĠØ§ÙĪ": 691,
      "ĠÛģÙħ": 692,
      "ÙĪØ¬ÙĪØ¯": 693,
      "ĠÙĨÙĪ": 694,
      "on": 695,
      "ÙħÛĮØ±": 696,
      "ÚĨÛĮ": 697,
      "ĠØ¯Ûģ": 698,
      "Ø¯Ø§Ø±": 699,
      "ĠØ²ÛĮØ§Ø¯Ûģ": 700,
      "ÙĨØ¯ÛĮ": 701,
      "ĠÚ©Ú¾ÛĮ": 702,
      "in": 703,
      "Ġ5": 704,
      "Ú©Øª": 705,
      "Ø§Ø¦ÙĦ": 706,
      "ĠØ¨Úĳ": 707,
      "ÙĦØ³": 708,
      "ÙĪØª": 709,
      "Ø§Ø¡": 710,
      "Ø§ÛĮØª": 711,
      "19": 712,
      "Ú©ÛĴ": 713,
      "ĠÙħØ·Ø§Ø¨ÙĤ": 714,
      "ÙĪØ±Ù¹": 715,
      "Ø§ØªÛĮ": 716,
      "ĠØ§ÙĦÙĦÛģ": 717,
      "ÙĪØ§ÙħÛĮ": 718,
      "ĠØ¬Ø§Ø¦ÛĴ": 719,
      "er": 720,
      "Ø±Ûģ": 721,
      "ĠÚ©Ø§Ùħ": 722,
      "Ù¾ÛĮ": 723,
      "ØªÙħ": 724,
      "ĠÚ©ÙħÛĮ": 725,
      "ĠÚ©ÛĮÙĦ": 726,
      "ĠØ¨ÛĮÙĨ": 727,
      "ĠØªÙħ": 728,
      "Ġ200": 729,
      "Ġ18": 730,
      "Ú©ÙĪ": 731,
      "Ø§Ø¦ÛĮÚº": 732,
      "ĠÙĪÙĤØª": 733,
      "ĠÙ¾Ø§Ø±": 734,
      "ĠÙĤØ¨": 735,
      "ÙģØª": 736,
      "ÙĨÚĪ": 737,
      "ĠÛģÙĪØ¦ÛĮ": 738,
      "ĠÚ©ÛĮÙĦØ¦ÛĴ": 739,
      "ĠÙĦÛĮÚ©ÙĨ": 740,
      "ĠØ®Ø¯Ùħ": 741,
      "ĠÚ¯ÛĮ": 742,
      "ÙĪØ§Ø±": 743,
      "ĠÙħØ§Ø±": 744,
      "ÛĮØ§Úº": 745,
      "ÙģØ±": 746,
      "ĠØ¢Ø¦ÛĮ": 747,
      "ÙĪØ§ÙĦ": 748,
      "Ø§ÛģÙħ": 749,
      "ÛĮÛģ": 750,
      "ÙĦØ¹": 751,
      "ĠÙ¹ÛĮÙħ": 752,
      "ĠØ§Ø¯Ø§Ú©": 753,
      "Ø±ÛĴ": 754,
      "ĠÙ¾ÛĮØ¯": 755,
      "ĠØ¯ÙĪØ³": 756,
      "ĠÙ¾ÛģÙĦÛĴ": 757,
      "Ø§ÙĨÛģÙĪÚº": 758,
      "ĠÙĪØ§ÙĦÛĮ": 759,
      "Ø±ÛĮÚ©": 760,
      "ÙħØ§ÙĨ": 761,
      "ĠÙ¾ÛĮØ´": 762,
      "ÙĪØ±Øª": 763,
      "ÙħØ¨": 764,
      "Ø§Ø¤ÙĨÙ¹ÛĮ": 765,
      "ÙĨØ¯Ø±": 766,
      "ĠØ¢Ùģ": 767,
      "Ġ6": 768,
      "ĠÚ©ÙĪØ¦ÛĮ": 769,
      "ĠÙħÛĮÚĨ": 770,
      "Ø§ÙĨØ§": 771,
      "ĠÚ©Ø§Ø¤ÙĨÙ¹ÛĮ": 772,
      "Ø³ÙĨ": 773,
      "ĠØ´Ûģ": 774,
      "Ø¸Ùħ": 775,
      "ĠÙħÙĪØ¬ÙĪØ¯": 776,
      "ĠÙħÛģ": 777,
      "Ù¹Ú¾": 778,
      "ĠÚ¯ÛĴ": 779,
      "ĠØŃØµ": 780,
      "Ø±ÛĮÙģ": 781,
      "Ø¨Ø§ÙĨ": 782,
      "Ø±ÛĮÙĦ": 783,
      "ĠÙ¾ÙĪ": 784,
      "ĠÚ©Ø³ÛĮ": 785,
      "ĠÙħØ¯": 786,
      "ĠØ´Ø§Ûģ": 787,
      "ĠØ¬Ùħ": 788,
      "ĠØ¹Ø¨Ø¯": 789,
      "ĠØ¨Ú¾Ø§Ø±Øª": 790,
      "ÙĪÙħÛĮ": 791,
      "Ú¯Ø§": 792,
      "ĠÚ©Øª": 793,
      "ĠØ§Ø¬": 794,
      "ĠØ¢Ø±": 795,
      "ĠØ§ÛĴ": 796,
      "ĠØ§Ø³ØªØ¹": 797,
      "ÙĪØ§ÙĨ": 798,
      "ĠØ¬Ø§": 799,
      "ĠØ¯ÙĪØ±Ø§ÙĨ": 800,
      "Ø±ÙĦ": 801,
      "ĠØ§ÙħØ±ÛĮÚ©Ø§": 802,
      "ĠØ¬ÙĨÚ¯": 803,
      "ÙĪØ§": 804,
      "ĠÙģÛĮØµ": 805,
      "Ø³Ùħ": 806,
      "ÙĨØ²": 807,
      "âĢĺ": 808,
      "Ø§Ø¦Ùħ": 809,
      "ĠÙĦÛĮØ§": 810,
      "ÛģØ§Ø¦ÛĴ": 811,
      "Ùĭ": 812,
      "ĠÙħØ²": 813,
      "ĠÙģÙĪØ¬": 814,
      "ĠÙĦÙĪÚ¯": 815,
      "Ġ199": 816,
      "ĠS": 817,
      "ĠÚĨÛĮ": 818,
      "ĠØ¨Ø§Ø±": 819,
      "ĠØ³Ø·": 820,
      "ĠØ®Ø·": 821,
      "Ø§Ø³ÛĮ": 822,
      "ĠÙĤØ±": 823,
      "ĠÙħØ®Øª": 824,
      "ĠØ´Ùħ": 825,
      "ÙĤÛģ": 826,
      "ĠØ³Ø·ØŃ": 827,
      "Ø±Ø§": 828,
      "ĠØ±ÙĪØ²": 829,
      "at": 830,
      "ÙĪØ±Ø³": 831,
      "ÙĦÙģ": 832,
      "ĠØ¬Ûģ": 833,
      "Ø§ÛģØ±": 834,
      "ĠØ±ÛĮØ§Ø³ØªÛģØ§Ø¦ÛĴ": 835,
      "ÛĮØ³Ù¹": 836,
      "ar": 837,
      "ĠÚ©Ú¾ÙĦØ§": 838,
      "Ø§Ø¤Úº": 839,
      "Ġ7": 840,
      "Ø®Øµ": 841,
      "ĠØ±ÙĤ": 842,
      "Ø¹Ûģ": 843,
      "ĠØ¬ÛĮ": 844,
      "Ø©": 845,
      "ĠØ§Øª": 846,
      "ĠÚ©Ú¾ÙĦØ§ÚĳÛĮ": 847,
      "ÙħÙĨ": 848,
      "ĠØ´Ø±ÙĪ": 849,
      "ĠÙ¾ÛĮØ¯Ø§": 850,
      "Ø§ÙĪØ±": 851,
      "Ø§Ø¹Øª": 852,
      "ĠØ§ÙĨÚ¯": 853,
      "ĠØ¨ØŃ": 854,
      "ĠÚ©Ø±ØªØ§": 855,
      "st": 856,
      "ĠØ¨ÚĨ": 857,
      "ĠØ«": 858,
      "ĠØ³ÛĮÙĨ": 859,
      "ĠÙħØ³ÙĦÙħ": 860,
      "ĠØ¨Ø§ÙĦ": 861,
      "ĠØ§Ø³ØªØ¹ÙħØ§ÙĦ": 862,
      "ĠØ¬Ø§Ø±ÛĮ": 863,
      "ÙĪØ²": 864,
      "ĠØ´Ø±ÙĪØ¹": 865,
      "ÙħÛĮÙ¹Ø±": 866,
      "ĠØ¹ÙħÙĦ": 867,
      "ĠØ¨Ø§": 868,
      "ØºÛĮØ±": 869,
      "ĠØ±ÛģØ§": 870,
      "ĠØªÛĮ": 871,
      "ĠØ·Ø±Ùģ": 872,
      "Ġ8": 873,
      "ĠØ¹Ø§Ùħ": 874,
      "ĠØ¹ÙħØ±": 875,
      "or": 876,
      "ĠÙĪØ¬Ûģ": 877,
      "Ø§Ø±ÛĮØ®": 878,
      "ÙĨØ¬Ø§Ø¨": 879,
      "Ø±Ø²": 880,
      "ĠØ§ÙĤ": 881,
      "ĠØ¯ÙĨÛĮØ§": 882,
      "ĠÚ©Ø´": 883,
      "ĠÙħÛĮÙ¹Ø±": 884,
      "ĠÙħÚ©": 885,
      "ĠØ´ÛĮ": 886,
      "Ġ15": 887,
      "ÙĦÙĪÙħÛĮÙ¹Ø±": 888,
      "ØªÚ¾": 889,
      "ĠÛģØ±": 890,
      "ÙĪØ§Ùħ": 891,
      "ÙĪØ±ÙĨ": 892,
      "ĠÙħØ¬": 893,
      "en": 894,
      "ĠØµÙĪØ¨": 895,
      "ÙĪÙĦÛĮØ³": 896,
      "ĠØªÙħØ§Ùħ": 897,
      "ÙĨÚĨ": 898,
      "ĠØ¶ÙĦØ¹": 899,
      "ĠÚ¯Ø±": 900,
      "ÛĮÙĨÛĴ": 901,
      "ĠÙģØ§Ø±": 902,
      "ÚĨÛģ": 903,
      "Ø¬ÛĮ": 904,
      "ĠÚĨØ§Ûģ": 905,
      "Ġ-": 906,
      "ĠØ·Ø±ØŃ": 907,
      "Ù¹ÙĨ": 908,
      "Ø§Ú©Ûģ": 909,
      "ÙĦØ·": 910,
      "ĠÚ©ÙħÙ¾": 911,
      "Ø§ÚĨÛĮ": 912,
      "ĠØªÙĨ": 913,
      "ĠØ¨ÙĨÛĮ": 914,
      "Ø§Ø¦Ø´": 915,
      "al": 916,
      "ĠØ¨Ø§Øª": 917,
      "ĠÙĦØ¦ÛĴ": 918,
      "ĠØ§ÛĮÙħ": 919,
      "ĠØ§ÙĨÚ¾ÛĮÚº": 920,
      "Ø³ÛĮÙĨ": 921,
      "ĠØ¨Ø§Ø²": 922,
      "ĠØŃÙħÙĦ": 923,
      "ĠÛģÙĪØªØ§": 924,
      "ĠÚ©Ø±ÙĨØ§": 925,
      "ÙħÛĮÙĨ": 926,
      "ĠÙħØ°": 927,
      "ĠÚ©Ù¾": 928,
      "ĠÚ©ØªØ§Ø¨": 929,
      "Ùİ": 930,
      "Ø§Ø±ÙĪÚº": 931,
      "ĠØªÙĤØ±ÛĮØ¨": 932,
      "ĠÙħÙĤØ§Ùħ": 933,
      "ÙħØª": 934,
      "ĠÙĨÙĤ": 935,
      "Ø±Ø¨ÛĮ": 936,
      "ĠØºÛĮØ±": 937,
      "ĠÚ©ÚĨÚ¾": 938,
      "ĠÛģØ¯": 939,
      "ĠØ²ÛĮØ±": 940,
      "ÙĪØµ": 941,
      "ÙĪÛĴ": 942,
      "ĠÙĦÚ¯": 943,
      "Ø¯ÛĮÙĨ": 944,
      "Ġ9": 945,
      "ĠØ¯Ú¾": 946,
      "ĠÙ¾Ø±ÙĪ": 947,
      "Ø§ÙĨÚ¯": 948,
      "ĠØµØ¯Ø±": 949,
      "Ø³ØªØ§ÙĨÛĮ": 950,
      "ĠØ§Ø³ÙĦØ§Ùħ": 951,
      "ÙĨØ¯Ú¾": 952,
      "ĠØ¯Ø±ÙħÛĮ": 953,
      "ĠØ§ÛĮØ±Ø§ÙĨ": 954,
      "ĠÛģÙĨØ¯": 955,
      "ĠØªØ§Ø±ÛĮØ®": 956,
      "ØªØ±": 957,
      "Ø±ÛĮØ²": 958,
      "ĠØ¨ÚĳÛĮ": 959,
      "ĠC": 960,
      "ĠÙħØ±Ø¨": 961,
      "Ø³Ù¾": 962,
      "ĠØªÛĮÙĨ": 963,
      "ĠA": 964,
      "ĠÙĤÙĪÙħÛĮ": 965,
      "ĠØ§Øµ": 966,
      "ĠÙ¾ÙĨØ¬Ø§Ø¨": 967,
      "ĠØ§ÛĮÙĦ": 968,
      "ĠÙħØ±Ú©": 969,
      "ĠØ®Ø¯ÙħØ§Øª": 970,
      "ĠÙ¾Úĳ": 971,
      "ÙĪØ¨ÛĮ": 972,
      "ĠØ®ÙĪØ¯": 973,
      "ĠØµØŃ": 974,
      "Ø¬ÙĨ": 975,
      "ĠØ³ÙĨÛģ": 976,
      "ĠØ§ÙĦØ§ÙĤ": 977,
      "ic": 978,
      "Ø§Ø¨ÛĮ": 979,
      "ĠÙĪÙģ": 980,
      "ĠØ§ÙĦØŃ": 981,
      "ĠØ§ÙĦØ§ÙĤÙĪØ§ÙħÛĮ": 982,
      "Ø§ÙĨÙĪÚº": 983,
      "ĠØ¹ÙĦØ§ÙĤÛĴ": 984,
      "Ù¹Ø³": 985,
      "ĠÙ¾ÛģÙĨÚĨ": 986,
      "ĠØµØ±Ùģ": 987,
      "ĠÙħØ±Ø¨Ø¹": 988,
      "ĠM": 989,
      "Úĺ": 990,
      "Ø§Ø¸": 991,
      "âĢĮ": 992,
      "Ø§Ø¦ÙĨÙ¹": 993,
      "ĠØ¬Ø¨Ú©Ûģ": 994,
      "ĠØ¯ÛĴ": 995,
      "Ø¨ÙĦ": 996,
      "ĠØ¯Ø±ÙħÛĮØ§ÙĨ": 997,
      "Ø§ÙĦØª": 998,
      "ÙĪÚĳ": 999,
      "ĠØ±ÛģÛĮ": 1000,
      "ĠØ§ØŃÙħØ¯": 1001,
      "ĠÙħØ®ØªÙĦÙģ": 1002,
      "ÚĪØ±": 1003,
      "ĠØ§Ø²": 1004,
      "ĠÙĦÛĴ": 1005,
      "ĠØ±ÙĤØ¨Ûģ": 1006,
      "ĠØ³Ø§Ùħ": 1007,
      "ĠØ§ÙĨÛģ": 1008,
      "ÛģÙĪØ±": 1009,
      "Ø±ÙĪÙģ": 1010,
      "ĠÙĨØ¸Ø§Ùħ": 1011,
      "ĠØ§Ø´": 1012,
      "ĠØ¢Ø²": 1013,
      "ĠØªÚ¾ÛĮÚº": 1014,
      "ÙĪÙĨÙĪÚº": 1015,
      "ĠÙħÙĨØ¸": 1016,
      "ĠØªØ¬": 1017,
      "ÙĦØ§ÙĨ": 1018,
      "Ø²Ø§Ø±": 1019,
      "ĠØªØ¹ÙĦÛĮÙħ": 1020,
      "Ø¨Ø§Ø±": 1021,
      "Ù¾Ø±": 1022,
      "ĠØ¯ÛĮÚ¯Ø±": 1023,
      "Ġ198": 1024,
      "ĠØ§Ø³Ú©": 1025,
      "ĠÚ©ÙħÙ¾ÙĨÛĮ": 1026,
      "ĠÙĤØ§Ø¦Ùħ": 1027,
      "Ø§Ú¯": 1028,
      "ĠØ§ÛĮÙĨ": 1029,
      "ĠØªØµ": 1030,
      "ĠØ¨Ø¬": 1031,
      "ĠÚ©ÛĮÛĴ": 1032,
      "ĠÚ¯Ø±Ø¯": 1033,
      "ĠÚ¯Ø§Ø¤Úº": 1034,
      "ĠØ¯Ø§Ø±": 1035,
      "ĠØ®ÛĮ": 1036,
      "ĠÛģØ¯Ø§ÛĮØª": 1037,
      "ĠØ²Ø¨Ø§ÙĨ": 1038,
      "ĠØ¹Ùħ": 1039,
      "ĠÙ¾ÙĪØ±": 1040,
      "ĠÙ¾ÙĪÙĦÛĮØ³": 1041,
      "Ú¾Ø§": 1042,
      "Ø§Ø±ØªÛĮ": 1043,
      "Ġ10": 1044,
      "ĠÚ©ÙĨ": 1045,
      "ĠØ§ÙĨØ³": 1046,
      "ÙĤØ¹": 1047,
      "ĠØ¨Ø¯": 1048,
      "ĠÚĪÛĮÙ¹": 1049,
      "Ù¹Ø±ÛĮ": 1050,
      "ĠØ¨ÛĴ": 1051,
      "ĠÚ©Ø§ÙĦ": 1052,
      "Ø¯Ø§Ø¯": 1053,
      "Ø¦ÙĨ": 1054,
      "ÙħÛĮØª": 1055,
      "Ø§Ø¦Ø¹": 1056,
      "ĠØ¹Ø§ÙĦ": 1057,
      "ĠÙĪÚ©Ù¹": 1058,
      "ĠØ§ÛģÙħ": 1059,
      "ĠÙħÙĨØª": 1060,
      "ĠØ¹Ø¯": 1061,
      "ÙĦÙĪÙħ": 1062,
      "ÙĨØ¯Ú¯ÛĮ": 1063,
      "ĠR": 1064,
      "ĠØ±ÙĨØ²": 1065,
      "Ø¯ÛĮØ¯": 1066,
      "ĠÚ©Ú¾ÛĮÙĦ": 1067,
      "ĠÙ¾Ú¾Ø±": 1068,
      "ĠÚ©Ø±ÛĮÚº": 1069,
      "Ø§Ø·": 1070,
      "ĠØ¢Ø¦": 1071,
      "ĠÙĦØ§Ûģ": 1072,
      "ed": 1073,
      "ĠØ¬Ø§ÙĨÛĴ": 1074,
      "ÙĦØ§Ø³": 1075,
      "ĠØ¯ÛĮÚ©Ú¾": 1076,
      "ĠÛģÙĪÚº": 1077,
      "ĠØ§Ø³ÙĦ": 1078,
      "ĠÙ¾ÙĪØ§Ø¦ÙĨÙ¹": 1079,
      "ĠØ³ÙħÙĨØ¯Ø±": 1080,
      "ĠÚ¯Ú¾": 1081,
      "ĠÙĦÛĮÚ¯": 1082,
      "Ø´ÙĨÙĦ": 1083,
      "ÙĪÚ©": 1084,
      "ÙĪØ±ÚĪ": 1085,
      "ĠÚ¯Ú¾Ø±": 1086,
      "ĠÙħÚ©ÙħÙĦ": 1087,
      "ĠØ§Ú¯": 1088,
      "ĠØ¬Ø§ÙĨØ¨": 1089,
      "ĠØ§Ú©": 1090,
      "Ø¤": 1091,
      "ĠØ°Ø±ÛĮ": 1092,
      "Ø¶ÛĮ": 1093,
      "ĠÛģØ§ØªÚ¾": 1094,
      "ĠØ¢Ø³Ù¹": 1095,
      "Ġ202": 1096,
      "ĠÙĦØ§ÛģÙĪØ±": 1097,
      "Ø§Ø¨ÙĦ": 1098,
      "Ø§Ø«": 1099,
      "Ø±ÙģØª": 1100,
      "ÛģØ§Ø±": 1101,
      "Ø§ØªÛĮÙĨ": 1102,
      "Ø§Ø¦Ø¯": 1103,
      "Ø§ÙĨÚĨ": 1104,
      "ion": 1105,
      "Ø§ÙĤÛĮ": 1106,
      "ĠØ§ÙĨØªØ®": 1107,
      "ĠÙħÙĨØµ": 1108,
      "ĠÙħØº": 1109,
      "il": 1110,
      "ĠØ¯ÙĪÙĨÙĪÚº": 1111,
      "ĠÙĨØ´": 1112,
      "ĠØ¹ÙĦÙħ": 1113,
      "ĠØ¬ÛģØ§Úº": 1114,
      "ĠØ¹ÙĪØ§Ùħ": 1115,
      "ĠÚ©Ø±Ø§ÚĨÛĮ": 1116,
      "18": 1117,
      "Ø§ÙģÛĮ": 1118,
      "ĠØ§Ø³ÛĮ": 1119,
      "ĠØŃØµÛģ": 1120,
      "ĠØ¨ÙĦÙĨØ¯ÛĮ": 1121,
      "ĠØ§ÙĨØªØ¸": 1122,
      "ÚĪØ§": 1123,
      "ĠØªÙĤØ±ÛĮØ¨Ø§": 1124,
      "ĠØ§Ù¾ÙĨØ§": 1125,
      "ĠØªØ¨": 1126,
      "Ġ197": 1127,
      "ĠÛģÙĨØ¯ÙĪ": 1128,
      "ĠÙ¹ÛĮØ³Ù¹": 1129,
      "et": 1130,
      "ĠØ¬ÛĮØ³": 1131,
      "ÙħØ§": 1132,
      "ÙĤÙĦ": 1133,
      "ĠØ³ÙĨØ¯Ú¾": 1134,
      "ĠÚĨØ§Ø±": 1135,
      "ĠØ¯ÛģØ´Øª": 1136,
      "ĠØ¨ÛĮÙ¹": 1137,
      "ÚĪÛĮØ§": 1138,
      "es": 1139,
      "Ù¾ÙĪØ±Ù¹": 1140,
      "ÙĦØ²": 1141,
      "ĠÙ¾ÛģÙĦÛĮ": 1142,
      "ØªÙĦ": 1143,
      "ĠÙħØªØ¹": 1144,
      "ĠØ§Ú¯Ø±": 1145,
      "ĠÛĮÙĪÙĨÛĮ": 1146,
      "ĠØ¶Ø±": 1147,
      "Ø§Ø¨ÛĮØ³": 1148,
      "ĠØ´Ø®Øµ": 1149,
      "ĠÚĪÛĮÙ¹Ø§Ø¨ÛĮØ³": 1150,
      "ÙĪÙĦØ§": 1151,
      "ĠT": 1152,
      "ĠÙĦÚ©Ú¾": 1153,
      "Ġ13": 1154,
      "it": 1155,
      "ĠÙħØ±": 1156,
      "Ø®ÙĪ": 1157,
      "ĠÚ©Ø¦ÛĮ": 1158,
      "Ø¸ÛĮÙħ": 1159,
      "ĠÙĦÛĮÙĨÚĪ": 1160,
      "ĠÙħØ³Øª": 1161,
      "ĠÚ¯Ø±ÙģØª": 1162,
      "ĠÙģÙĦ": 1163,
      "ĠÙĦÙĪÚ¯ÙĪÚº": 1164,
      "Ø§ÙĨØ³": 1165,
      "ĠÙħØ²ÛĮØ¯": 1166,
      "ĠØ¢Ø®": 1167,
      "ĠÙħÙĪÙĦ": 1168,
      "ÙĪØ±Ø³Ù¹ÛĮ": 1169,
      "ĠÚ©Ø§ÙħÛĮ": 1170,
      "Ù¾Ø§Ú©": 1171,
      "ĠØ®ÙĪØ§ØªÛĮÙĨ": 1172,
      "ÙĪÙĤ": 1173,
      "10": 1174,
      "ĠÙĪØ³": 1175,
      "ĠØŃÙĪØ§ÙĦ": 1176,
      "ĠÙ¾Ø§Ø±Ù¹ÛĮ": 1177,
      "ĠØ§ÙĦÙħ": 1178,
      "ĠØŃÙĤ": 1179,
      "Ú¯ÙĪ": 1180,
      "ĠØ±ÛĮÙĦ": 1181,
      "ĠÚ©ÙĪØ´": 1182,
      "ØŃÛģ": 1183,
      "15": 1184,
      "ĠP": 1185,
      "ĠØ±Ø³": 1186,
      "Ø§Ø¨Ø·": 1187,
      "Ø§Øº": 1188,
      "ĠØ¬ÙĦ": 1189,
      "Ù¹ÙĪ": 1190,
      "ĠÚ©Ø±Ø¯Ø§Ø±": 1191,
      "ÙĪØ¯ÛĮ": 1192,
      "ĠØ´Ø±ÛĮÙģ": 1193,
      "ĠØ¨Ú¾Ø±": 1194,
      "ĠØ§Ø¶": 1195,
      "ĠÙ¾Ø§Ø³": 1196,
      "ĠÙģØ±Ø§ÛģÙħ": 1197,
      "ĠØ´Ø¹": 1198,
      "ĠÙĤØ§ÙĨ": 1199,
      "Ù¾ÛĴ": 1200,
      "ĠÙħÛĮÙĨ": 1201,
      "ĠÙ¾Ø±ÛĮ": 1202,
      "ĠØ¬ÙĨÙĪØ¨ÛĮ": 1203,
      "Ġ12": 1204,
      "Ø§Ú©Ù¹Ø±": 1205,
      "Ø±Ø§Øª": 1206,
      "ĠØ¨ÛĮØ§ÙĨ": 1207,
      "ÙħØ¨ÙĦÛĮ": 1208,
      "ĠÚĪØ§ÙĦ": 1209,
      "ĠÛģÙĪØªÛĴ": 1210,
      "ĠÙ¾Ø³": 1211,
      "Ġ14": 1212,
      "ÙĦÛĮÙĨÚĪ": 1213,
      "ĠØ³ÙĦØ·": 1214,
      "ÙĪÛĮÚº": 1215,
      "âĢĵ": 1216,
      "Ø¬Ø¯": 1217,
      "ĠÛĮÙĪÙĨ": 1218,
      "ĠØ§ÙĦÛĮ": 1219,
      "Ø¨Ú¾": 1220,
      "ĠØ¸": 1221,
      "ĠØ¹ÙĦØ§ÙĤÛģ": 1222,
      "ĠÛĮÙĪÙĨÛĮÙĪØ±Ø³Ù¹ÛĮ": 1223,
      "ĠØ§Ø³ÙħØ¨ÙĦÛĮ": 1224,
      "Ø¨Øª": 1225,
      "ĠØ¯Ø§ÙĨ": 1226,
      "ĠÙĪØ§Ù¾": 1227,
      "ĠØ¯ÙĪØ³Ø±ÛĴ": 1228,
      "ĠØ¯ÙĦ": 1229,
      "ĠÙĤØªÙĦ": 1230,
      "ĠÛģÙĪØªÛĮ": 1231,
      "ĠÙĤÛĮ": 1232,
      "ĠØ§ÙĪÙĦ": 1233,
      "ĠØ¯Ø³Øª": 1234,
      "ĠØ¯Ø±ÛĮ": 1235,
      "ĠØ§Ø¹Ø¸Ùħ": 1236,
      "ÛģØ¯": 1237,
      "ĠØ§ÙĨØªØ®Ø§Ø¨": 1238,
      "ĠØªØ±ÛĮÙĨ": 1239,
      "ĠØ¢Ø³Ù¹Ø±ÛĮÙĦ": 1240,
      "ĠØ¨Ø§Ø±ÛĴ": 1241,
      "12": 1242,
      "ĠÙĪØ±": 1243,
      "16": 1244,
      "Ø§Ø²ÛĮ": 1245,
      "ĠØ³ÛĮØ§Ø³ÛĮ": 1246,
      "ĠØŃØ³ÛĮÙĨ": 1247,
      "ĠØ¢Ú¯": 1248,
      "ĠÚ©ÙĪØ´Ø´": 1249,
      "ĠÙħÙĪÙĤØ¹": 1250,
      "Ø§Ø±Ú©": 1251,
      "ÙĪÙĨÚ©Ûģ": 1252,
      "ĠØªØ´": 1253,
      "ØºØ§ÙĨ": 1254,
      "ĠÙĨØ¸Ø±": 1255,
      "13": 1256,
      "ĠB": 1257,
      "Ġ17": 1258,
      "ĠÚ©ÙĦÙĪÙħÛĮÙ¹Ø±": 1259,
      "Ø¦ÛĮÚº": 1260,
      "ĠØ¬Ø§ØªÛĮ": 1261,
      "Ú¾ÛĴ": 1262,
      "ĠØ³ÛĮØ§Ø³Øª": 1263,
      "ĠØ§ÙħØ±ÛĮÚ©ÛĮ": 1264,
      "Ú©Ø´ÙĨ": 1265,
      "ĠØ¬ÛĴ": 1266,
      "ÙĨØª": 1267,
      "ØŃÚ©": 1268,
      "ĠÙĨÛĮÙĪ": 1269,
      "ĠÙħÛĮØ±": 1270,
      "ĠÙ¾Ø§Ú©Ø³ØªØ§ÙĨÛĮ": 1271,
      "ĠØ¹ÙĪØ§ÙħÛĮ": 1272,
      "ÙĪØ³ÛĮ": 1273,
      "ĠÚ¯Ø±ÙĪ": 1274,
      "ĠØ´Ù¾": 1275,
      "ÛģÛĮ": 1276,
      "ÙĦØ¨": 1277,
      "ĠØ¢Øº": 1278,
      "Ø³Ø§ÙĦ": 1279,
      "ĠØ¨ÙĨØ¯": 1280,
      "ĠÙĨØ³": 1281,
      "ĠØªØŃØ±ÛĮÚ©": 1282,
      "ĠÙĨÙĪØ§Ø²": 1283,
      "ĠØ§ÙĨØ¬": 1284,
      "ĠØŃØ§ÙĦ": 1285,
      "Ø§ÙĪ": 1286,
      "Ø¯Ø§ÙĨ": 1287,
      "ĠØ§Ø³ÙĦØ§ÙħÛĮ": 1288,
      "ĠØµØ¯ÛĮ": 1289,
      "ĠÚ©Ø±Ø¯": 1290,
      "ĠØªØ±ÙĤÛĮ": 1291,
      "14": 1292,
      "Ø±ÛĮÙħ": 1293,
      "ÙĪÙģ": 1294,
      "ĠØ³Ú©ØªØ§": 1295,
      "ĠØ¢ÛĮØ§": 1296,
      "ĠØ§ÙĦØ¹": 1297,
      "ĠØ³ÛĮØ§Ø±": 1298,
      "Ø´Ø§Ûģ": 1299,
      "ĠâĢĺ": 1300,
      "ĠL": 1301,
      "ĠØ¹Ø±": 1302,
      "ĠØ±ÛĮÙĦÙĪÛĴ": 1303,
      "ĠÙĤØ±Ø§Ø±": 1304,
      "Ø¨ÙĪ": 1305,
      "Ø§Ø¬ÛĮ": 1306,
      "ĠÚ©Ø±ØªÛĮ": 1307,
      "Ø§Ø¦Ø²": 1308,
      "Ø§Ø²Ûģ": 1309,
      "ĠØ¢ÙĨÛĴ": 1310,
      "Ú¾ÙĪÚº": 1311,
      "ĠØ¬ÙĨØ±ÙĦ": 1312,
      "Ġ)": 1313,
      "ĠØ³Ùģ": 1314,
      "Ø¶Ø±Øª": 1315,
      "17": 1316,
      "ĠØ¯ÛĮØª": 1317,
      "ĠØ®Ø§Øª": 1318,
      "ØªØŃ": 1319,
      "ÙģÛģ": 1320,
      "ĠØ´ÙħØ§ÙĦ": 1321,
      "Ø¬ÙĪ": 1322,
      "Ø±ÛĮØ´ÙĨ": 1323,
      "ĠØ³ÙħØ¬": 1324,
      "ĠÙ¾ÛĮØ±": 1325,
      "ĠØ¯Ø§Ø®": 1326,
      "Ġ16": 1327,
      "Ø¬ÛĴ": 1328,
      "ĠØ¬Ø³ÛĴ": 1329,
      "ĠØ§Ø¯Ø§Ú©Ø§Ø±": 1330,
      "ĠÚĪØ±": 1331,
      "ÛĮØ§Øª": 1332,
      "ÙĪÚĪ": 1333,
      "Ø³Ø±": 1334,
      "ĠØŃÙĪØ§ÙĦÛĴ": 1335,
      "Ø§ÙģØª": 1336,
      "ĠÙħØ§ÙĦ": 1337,
      "ØªÛĮØ§Ø±": 1338,
      "ĠÙģÛĮØµÙĦÛģ": 1339,
      "ĠÛĮÛģØ§Úº": 1340,
      "ĠØ§Ø¹ÙĦÛĮ": 1341,
      "ĠØ¨Ø±Ø·": 1342,
      "ĠØ¨ÙĨØ§": 1343,
      "ÚĺÙĨ": 1344,
      "Ø§ÙħØ§Øª": 1345,
      "ĠØ³ÙĨÚ¯": 1346,
      "Ø§ÙĨÙĪÛĮ": 1347,
      "Ø§ÚĪ": 1348,
      "ĠØªØ¹ÙħÛĮØ±": 1349,
      "ĠØ¬ÛĮØª": 1350,
      "ĠÙħØ´ÛģÙĪØ±": 1351,
      "ĠØ§Ø¨ÙĪ": 1352,
      "ĠÙħÙħÙĦ": 1353,
      "ÛĮÙĨØ§": 1354,
      "Ú¯Ûģ": 1355,
      "ĠÚ©ÛģÙĨØ§": 1356,
      "ÙĪÛĮØ²": 1357,
      "ĠÙĤÛĮØ§Ùħ": 1358,
      "Ú©Ú¾ÛĮ": 1359,
      "Ġ196": 1360,
      "ĠØªÙģ": 1361,
      "ÙĦØ§ÙĪÛģ": 1362,
      "Ø§ÙĨÛĮÛģ": 1363,
      "ĠÙħØªØ¹ÙĦÙĤ": 1364,
      "ĠØ§ÙĦØ¯ÛĮÙĨ": 1365,
      "ĠÙ¹ÙĪ": 1366,
      "ĠØ§Ø¸": 1367,
      "ïº": 1368,
      "ĠØ§ÛģÙĦ": 1369,
      "ÙĦÙĪÚĨ": 1370,
      "ĠØ§ÙĨØ¯": 1371,
      "ĠØ¨ØªØ§": 1372,
      "ĠÙĦÚĳ": 1373,
      "ĠØ¢Ø¬": 1374,
      "ĠÚ©ÛĮØ³": 1375,
      "ĠÙ¹Ø§Ø¤ÙĨ": 1376,
      "ĠØ³ÛĮØ¯": 1377,
      "ĠØ¨ÚĳÛĴ": 1378,
      "ÙĨØ¯Ûģ": 1379,
      "Ø¹ÛĴ": 1380,
      "ĠØ¯ÛĮÙĨÛĴ": 1381,
      "ĠØ²ÙĨØ¯Ú¯ÛĮ": 1382,
      "ĠØ¢ØºØ§Ø²": 1383,
      "ĠØ§Ø¨ÙĨ": 1384,
      "ÛĮØ¨": 1385,
      "ĠÙħÙĨØµÙĪØ¨": 1386,
      "Ø²ÙĨ": 1387,
      "ĠØ´Ú©": 1388,
      "ĠØ³Ø§Ø¨ÙĤ": 1389,
      "is": 1390,
      "ĠÙ¾Ø§ÙĨÚĨ": 1391,
      "ĠØ§ÙĨÙ¹Ø±": 1392,
      "ĠØµÙĪØ±Øª": 1393,
      "ĠØ¹Ø±Ø¨": 1394,
      "ØªØ§ÙĨ": 1395,
      "ĠÙħØ§Ûģ": 1396,
      "ĠÙħÙħÙĦÚ©Øª": 1397,
      "ĠÙħØµÙĨ": 1398,
      "ĠØ®Ø¯ÙħØª": 1399,
      "ĠØ³Ø§Ø¦ÛĮ": 1400,
      "ĠD": 1401,
      "ĠØ§Ø¬ÙĦØ§Ø³": 1402,
      "ĠØ¹ÙĦØ§ÙĪÛģ": 1403,
      "ĠØ§Ø±": 1404,
      "ĠÙģÙĪØ¬ÛĮ": 1405,
      "Ú©Ø´": 1406,
      "ĠØ§ÙģØºØ§ÙĨ": 1407,
      "Ø§ÛĮÚ©": 1408,
      "ĠÙħØ§Ø±ÚĨ": 1409,
      "ĠÚ©Ø±ÛĴ": 1410,
      "Ø³ÛĮÙħ": 1411,
      "ĠØ§Ø®ØªÛĮØ§Ø±": 1412,
      "ĠÚ¯Ø±ÙģØªØ§Ø±": 1413,
      "ĠÙħØ®": 1414,
      "ĠÚĨÛĮÙĨ": 1415,
      "ĠØ³ÙħÛĮØª": 1416,
      "ĠÙĨØ§": 1417,
      "ĠÙĤØ±ÛĮØ¨": 1418,
      "ĠØ±ÙĪÙ¾ÛĴ": 1419,
      "ĠÚ©Ø´ÙħÛĮØ±": 1420,
      "ay": 1421,
      "ØªØ¯": 1422,
      "ÙĪØ´": 1423,
      "ĠÙ¾ÙĦ": 1424,
      "ĠØ³ÛĮØ§Ø±ÚĨÛģ": 1425,
      "ĠØ¬ÛĮØ³ÛĴ": 1426,
      "Ø§Ø¨Ø·Ûģ": 1427,
      "ĠØ³Ø¹": 1428,
      "ĠØ¢Ø³Ù¹Ø±ÛĮÙĦÛĮØ§": 1429,
      "ĠØµÙģ": 1430,
      "ĠØ§Ø¯Ø§": 1431,
      "ĠØ¹ÙĦØ§ÙĤÙĪÚº": 1432,
      "ÙĦØ§ØŃ": 1433,
      "ĠÙ¾Ú¾": 1434,
      "ĠØ§Ø·": 1435,
      "ĠÚĨÙĦ": 1436,
      "ÛĮÙĨÛģ": 1437,
      "Ù¾ÙĨ": 1438,
      "ation": 1439,
      "ÙĪØ¨Ø±": 1440,
      "Ù¾Ø§Ú©Ø³ØªØ§ÙĨ": 1441,
      "ĠØ§Ø¹ÙĦØ§ÙĨ": 1442,
      "ĠØ¬ÙħØ§Ø¹Øª": 1443,
      "ĠØ®ØªÙħ": 1444,
      "ÙħØ±Ûģ": 1445,
      "ĠØªØ§ÛģÙħ": 1446,
      "Ø³Ú©": 1447,
      "ÙħÛĮÚº": 1448,
      "ÙĪÙĦØ§Ø¦ÛĮ": 1449,
      "ĠØ§ÙĦÙĤ": 1450,
      "ÙĦØ§Ú©": 1451,
      "ur": 1452,
      "ÙħØ§ÙĦÚ©": 1453,
      "ĠØ¨ØªØ§ÛĮØ§": 1454,
      "ĠØ¹Ø§Ø±": 1455,
      "he": 1456,
      "ØµØ¯": 1457,
      "ĠØ§Ù¹Ú¾": 1458,
      "ĠÙĪÛĮØ¨": 1459,
      "ĠØ§Ø¯Ø§Ú©Ø§Ø±Ûģ": 1460,
      "Ùĳ": 1461,
      "ÙĨÛģ": 1462,
      "Ø®ÙħÛĮ": 1463,
      "ĠØ¨ÙĨÛĮØ§Ø¯": 1464,
      "Ø§ÙĪÙĨ": 1465,
      "Ù¾ÙĪØ±": 1466,
      "ĠØ¨ÚĳÚ¾": 1467,
      "ĠÙĨÙħØ¨Ø±": 1468,
      "Ġ195": 1469,
      "ĠØ¬ÙĪÙĨ": 1470,
      "ĠÛģØ§Ø¦ÛĮ": 1471,
      "ÙĪØ²ÛĮØ±": 1472,
      "ĠØ§Ø¸ÛģØ§Ø±": 1473,
      "ĠÙĨØªÛĮ": 1474,
      "Ø±ÛĮØ±": 1475,
      "ĠØ¨ÙĨØ§ÙĨÛĴ": 1476,
      "ĠÙħØ¶": 1477,
      "ÙĦØ§ÙĤØ§Øª": 1478,
      "ĠØ³Ø±Ú©": 1479,
      "ĠÚ©Ø§ÙĨ": 1480,
      "ĠÚĪØ§Ú©Ù¹Ø±": 1481,
      "ĠØ¯Ø¹": 1482,
      "ĠØ³Ù¾": 1483,
      "ĠÚ©Ø§Ø±ÛĮ": 1484,
      "ĠÙĨÚ©": 1485,
      "ĠØ³ÙĦØ³": 1486,
      "Ø¹Øª": 1487,
      "am": 1488,
      "ĠÙĤØ¨ÙĦ": 1489,
      "Ø§Ø¹Ø¸Ùħ": 1490,
      "ĠØ°Ø±ÛĮØ¹ÛĴ": 1491,
      "ØµÛĮÙĦ": 1492,
      "ØªØ§ÙĦ": 1493,
      "ĠÙħØ´Ø±": 1494,
      "ĠØ¬Ø±Ùħ": 1495,
      "Ø§ØªÛĴ": 1496,
      "ĠØ¹Ø¨": 1497,
      "ĠØ³ÛĮØ±ÛĮØ²": 1498,
      "Ġ194": 1499,
      "ĠÙħØ¯Ø¯": 1500,
      "ĠØ¨ÙĦÙĪÚĨ": 1501,
      "ĠÙĤØ±ÛĮ": 1502,
      "ĠÙĪØ§ÙĦØ§": 1503,
      "ĠÚ©ÙĦØ¨": 1504,
      "ĠØ³ÛĮÙĨÙ¹Ø±": 1505,
      "ĠØ¯ÛĮÚº": 1506,
      "ĠÚ©ÛĮÙĪÙĨÚ©Ûģ": 1507,
      "ĠØ¨Ú¾Ø§Ø±ØªÛĮ": 1508,
      "Ø¹Ø¯Ø§Ø¯": 1509,
      "ĠØ±Ø§Ø¬": 1510,
      "ĠÙĪØ§Ù¾Ø³": 1511,
      "à¤": 1512,
      "ĠØªÛĮØ§Ø±": 1513,
      "ĠÛģÙĪÚ¯": 1514,
      "ĠØ¯Ùģ": 1515,
      "Ø§ÙĦØ¨": 1516,
      "ĠÙħØ¸": 1517,
      "ĠØ¬Ú¯Ûģ": 1518,
      "ĠØ§Ø¶Ø§Ùģ": 1519,
      "Ø´Ûģ": 1520,
      "ĠÙħØ³Ø¬Ø¯": 1521,
      "Ø¢ÙĨ": 1522,
      "ĠÙ¾Ø§ÙĨÛĮ": 1523,
      "ĠØ®Ø§ÙĨØ¯Ø§ÙĨ": 1524,
      ")ØĮ": 1525,
      "ĠÙħÙĪØ³ÛĮ": 1526,
      "Ø³ÙħØ¨Ø±": 1527,
      "ĠÙħÙħØ§ÙĦÚ©": 1528,
      "ĠØ¯Ú©Ú¾": 1529,
      "ĠÙħÙĨØ¸Ø±": 1530,
      "ĠØ±ÙĪØ²Ûģ": 1531,
      "ĠØ®ÛĮØ§ÙĦ": 1532,
      "ĠØ¨ÙĨÚ¯": 1533,
      "ĠÚ©ÙĦØ§Ø³": 1534,
      "ĠØ¬ÙħÛģ": 1535,
      "ĠÚ©ÙħÛĮÙ¹ÛĮ": 1536,
      "om": 1537,
      "200": 1538,
      "ĠÙħÙĤØ§Ø¨": 1539,
      "ĠØ§ÙĨØµ": 1540,
      "ÙĪØ±Ù¹ÛĮ": 1541,
      "ĠÙ¾ÚĨÚ¾": 1542,
      "Ø¯Ø±ÛĮ": 1543,
      "ĠØ¬Ø§Ùħ": 1544,
      "Ġ:": 1545,
      "ĠØ¹Ø§ÙĦÙħÛĮ": 1546,
      "ĠØ´ÛģØ±ÛĮ": 1547,
      "ĠÚ¯ÙĪ": 1548,
      "Ú¯Ø§Ø±": 1549,
      "ÙħÙ¾": 1550,
      "of": 1551,
      "Ø±ÙĪÚº": 1552,
      "ÙħÛĮØ¯": 1553,
      "ĠØ¯ÙĪØ³Ø±ÛĮ": 1554,
      "ĠØ§Ø³Ù¹": 1555,
      "ĠØ§Ú¯Ø³Øª": 1556,
      "ĠÙħÙĦØ§ÙĤØ§Øª": 1557,
      "ĠØ®Øµ": 1558,
      "ĠØ§ÙħØ§Ùħ": 1559,
      "ĠØ¹ÙĦ": 1560,
      "ĠØªØŃØª": 1561,
      "ĠG": 1562,
      "ĠÙħØµØ±ÙĪÙģ": 1563,
      "Ø²Ø±": 1564,
      "ch": 1565,
      "ĠÛģØ²Ø§Ø±": 1566,
      "Ø±Ú©Øª": 1567,
      "ĠH": 1568,
      "ĠÙĤØ¯": 1569,
      "ĠØªØ¹Ø¯Ø§Ø¯": 1570,
      "Ø´ØªÛģ": 1571,
      "ĠÚ©Ø¨": 1572,
      "ĠÙģØ§Ø±Ùħ": 1573,
      "ĠÙģØ±ÙĪ": 1574,
      "Ø¹ÙĤ": 1575,
      "ĠØ³Ø§Øª": 1576,
      "ÙĪÙħØ¨Ø±": 1577,
      "Ø³Ù¹Ø±": 1578,
      "ĠØ¢Ø¦ÛĴ": 1579,
      "ÚĨØ±": 1580,
      "Ø§ÛģÛĮ": 1581,
      "ĠN": 1582,
      "ĠØ¨ÙĨØ§ÛĮØ§": 1583,
      "ĠÙħÚ¯Ø±": 1584,
      "ĠØ§Ø³Ú©ÙĪÙĦ": 1585,
      "25": 1586,
      "ĠØ¬Ú¾": 1587,
      "ĠÙģÙ¹": 1588,
      "ĠØ§ÙĨØªØ®Ø§Ø¨Ø§Øª": 1589,
      "Ġp": 1590,
      "ĠØ±ÛģÙĨ": 1591,
      "ĠØ®ØµÙĪØµ": 1592,
      "ĠØ¹Ø§Ø±Ø¶ÛĮ": 1593,
      "ĠØ²Ø®ÙħÛĮ": 1594,
      "ĠÙħØ°Ûģ": 1595,
      "ĠØ®Ø§Øµ": 1596,
      "ĠØ¹Ø¯Ø§ÙĦØª": 1597,
      "ĠÛģÙĪÚ¯Ø§": 1598,
      "Ù¹Ø§": 1599,
      "ĠØ§ÙĨÛģÙĪÚº": 1600,
      "ĠÙģØ¶": 1601,
      "ĠÙĤÙĪÙħ": 1602,
      "ĠØ§Ú©Øª": 1603,
      "ĠØ§ÛĮÙĨÚĪ": 1604,
      "ĠÙĪØ§Ø±": 1605,
      "Ù¹ÙĦ": 1606,
      "ĠØªØŃÙĤÛĮ": 1607,
      "ĠØ±Ø§": 1608,
      "ØµØ±": 1609,
      "ÚĪÛĮÙħ": 1610,
      "ĠØ±Ú©Ú¾Ø§": 1611,
      "ĠÙĪØ§ÙĦØ¯": 1612,
      "ĠØ³ØªÙħ": 1613,
      "Ø²ÙħØ±Ûģ": 1614,
      "ĠØ§ÙģØ±ÛĮ": 1615,
      "ÙģØ¸": 1616,
      "Ø¨Ø§ÙĦ": 1617,
      "ĠØ¯Ú¾Ùħ": 1618,
      "ĠÙ¾Ø³ÙĨØ¯": 1619,
      "ĠØŃÛĮ": 1620,
      "000": 1621,
      "ĠØ´ÙħØ³ÛĮ": 1622,
      "ĠÙĨØ§Ú©": 1623,
      "ĠÙĤØ§ÙĨÙĪÙĨ": 1624,
      "ĠØ§ÙĨØ¯Ø±": 1625,
      "ĠØ¢Ø²Ø§Ø¯": 1626,
      "ĠÚ©Ø§Ø±Ø±ÙĪ": 1627,
      "ĠØŃÙħÙĦÛģ": 1628,
      "ĠØ°Ú©Ø±": 1629,
      "Ø§ÛģØ¯": 1630,
      "el": 1631,
      "ĠØ®Ø·Ø§Ø¨": 1632,
      "ĠØ¬ÙĨÙĪØ±ÛĮ": 1633,
      "ĠØ¬Ø§Ø¦ÛĮÚº": 1634,
      "ĠØ¨Ú¾Ø§Ø¦ÛĮ": 1635,
      "ĠØ§ÛĮÚĪ": 1636,
      "ĠÙħÙģ": 1637,
      "ĠØŃØ¶Ø±Øª": 1638,
      "ĠÙħÙħ": 1639,
      "ĠØ¢ÙĨ": 1640,
      "ĠI": 1641,
      "ĠÙ¾ÚĨÚ¾ÙĦÛĴ": 1642,
      "Ø§Ø¤ÙĨÚĪ": 1643,
      "ĠÚ¯ÙĦ": 1644,
      "ĠØ¨ÙĦÚ©Ûģ": 1645,
      "Ø§Ø¶ÛĮ": 1646,
      "ĠØ¨Ø®": 1647,
      "ĠÚĨÛĮÙģ": 1648,
      "ĠÙĤØ§Ø¨ÙĦ": 1649,
      "ĠØ¬ÙĦØ¯": 1650,
      "ra": 1651,
      "ĠØµÙĪØ¨Ûģ": 1652,
      "ÙĪÛĮÙĦ": 1653,
      "ĠØ§Ø«": 1654,
      "Ġ193": 1655,
      "ĠØ´Ø§Ø¯ÛĮ": 1656,
      "ĠÚ©ÛĮÙĦÙĪÙħÛĮÙ¹Ø±": 1657,
      "ĠØ¨Ø§ÚĪÛĮ": 1658,
      "Ú©Ù¹Ø±": 1659,
      "ĠÙģØ±Ø³Ù¹": 1660,
      "ĠØ´ÛĮØ®": 1661,
      "23": 1662,
      "ĠØ¬ÙĪÙĦØ§Ø¦ÛĮ": 1663,
      "Ø¢ÙħØ¯": 1664,
      "Ø¶Ûģ": 1665,
      "Ø§Ø¯Ûģ": 1666,
      "ĠØ§Ú©ØªÙĪØ¨Ø±": 1667,
      "ØµÙģ": 1668,
      "Ú©ÛĮÙĦ": 1669,
      "Ġt": 1670,
      "11": 1671,
      "ĠØ´Ø±": 1672,
      "ĠJ": 1673,
      "ĠÚ©Ø§ÙĦØ¬": 1674,
      "ĠØ§ÛĮÙģ": 1675,
      "ÙħØŃ": 1676,
      "ĠØ¨ÙĨØ§Ø¦ÛĴ": 1677,
      "ĠÙħØ«": 1678,
      "ÙĨØ³ÙĦ": 1679,
      "ĠØ¨ÚĳØ§": 1680,
      "Ø§ØŃØ¨": 1681,
      "ĠØ³Ø§ÙħÙĨÛĴ": 1682,
      "ol": 1683,
      "Ġ25": 1684,
      "ĠØ¯ÙĪØ¨": 1685,
      "ĠØ³ØªÙħØ¨Ø±": 1686,
      "ØŁ": 1687,
      "ĠØ¬Ø§ØªÛĴ": 1688,
      "ÚĳÛĴ": 1689,
      "ri": 1690,
      "Ø£": 1691,
      "ĠØ¨Ø§Ø¯": 1692,
      "ĠØ¯Ø³ÙħØ¨Ø±": 1693,
      "ĠØ§Ø¨ØªØ¯": 1694,
      "ĠÚ©ÛĮÙħÛĮ": 1695,
      "Ø²Ùħ": 1696,
      "ĠØ´Ø§Ø¹": 1697,
      "Ø§ÙħØ§": 1698,
      "Ġof": 1699,
      "ĠÚ©Ø±Ú©ÛĴ": 1700,
      "âĢĻ": 1701,
      "Ûĥ": 1702,
      "Ù¾ÛĮØ¯": 1703,
      "ÛĤ": 1704,
      "ĠÙħØªØ§Ø«": 1705,
      "ĠØ¹ÛģØ¯": 1706,
      "ØµØºÛĮØ±": 1707,
      "ĠÙģØ±Ùħ": 1708,
      "ĠØ§Ø±Ø¯ÙĪ": 1709,
      "ĠØ®Ø±": 1710,
      "ÙĤØ§ÙĦ": 1711,
      "ĠØ³Ø§Ø²": 1712,
      "ĠÛĮÙĪ": 1713,
      "ĠØ¬ÙħØ¹": 1714,
      "ĠÙĨÙĪÙħØ¨Ø±": 1715,
      "Ø®Ø¨": 1716,
      "Ø¯Ø§": 1717,
      "ĠØ¨ÛģØªØ±ÛĮÙĨ": 1718,
      "ĠØ´ÙĪ": 1719,
      "ĠØŃÚ©ÙħØ±": 1720,
      "ĠÙħÛĮÚĪÛĮØ§": 1721,
      "ĠØ¨Ø§Ø¹": 1722,
      "Ø¹Ø¯Ø¯": 1723,
      "ÙħØ§ÙĨÛĮ": 1724,
      "Ø±ÙħÛĮÙĨ": 1725,
      "ĠØ§Ø³ÙħØ§ÙĦ": 1726,
      "Ø§Ø®Øª": 1727,
      "ĠW": 1728,
      "ĠÙĦØ§Ú©": 1729,
      "ĠÙħØºØ±Ø¨ÛĮ": 1730,
      "ĠÙĤÛĮÙħ": 1731,
      "ĠÚ©ÙĪØ±Ù¹": 1732,
      "ĠØ§ÙĦØ²": 1733,
      "Ø§Ø¦Ø´ÛĮ": 1734,
      "ĠØ§ÙĨÚ¯ÙĦÛĮÙĨÚĪ": 1735,
      "ĠØ¯ÙĪØ¨Ø§Ø±Ûģ": 1736,
      "Ø§Ø¯Ø±ÛĮ": 1737,
      "ØŃÛĮ": 1738,
      "ĠÚ©Ø¦ÛĴ": 1739,
      "ĠØ¢Ø®Ø±ÛĮ": 1740,
      "Ø§Ø¨Ø±": 1741,
      "ĠÙģÙĨ": 1742,
      "ĠØ³Ûģ": 1743,
      "ĠÙħØ±Ø¯": 1744,
      "Ù¾ÛĮØ¯Ø§Ø¦Ø´": 1745,
      "un": 1746,
      "ĠÛģØ³Ù¾": 1747,
      "Ø¦ÙĨÙ¹ÛĮ": 1748,
      "ĠØ±Ú©Ú¾ÙĨÛĴ": 1749,
      "Ø¹ÛĮ": 1750,
      "ĠÙħØ±Øª": 1751,
      "ÙĤØ§Øª": 1752,
      "re": 1753,
      "Ø®ØµÙĪØµ": 1754,
      "ĠÙħØ¹Ø§Ø´": 1755,
      "Ø¹ÙĨÛĮ": 1756,
      "ĠØªÙĤØ³ÛĮÙħ": 1757,
      "ĠØ¯ÙĪØ±Ûģ": 1758,
      "ÙĦØ§Ø¹": 1759,
      "ĠØ±Ú©ÙĨ": 1760,
      "ĠE": 1761,
      "ÛģÙħ": 1762,
      "ĠÚ©ÙĪÙĨØ³ÙĦ": 1763,
      "ĠØŃÙħ": 1764,
      "ĠÙĦÙĨ": 1765,
      "Ø«Ø±": 1766,
      "ĠÚ©Ø§Ø±Ø±ÙĪØ§Ø¦ÛĮ": 1767,
      "Ú©Ø§ÙĨ": 1768,
      "ĠÙ¹ÛĮÙĦÛĮ": 1769,
      "24": 1770,
      "ĠÙħØ¦ÛĮ": 1771,
      "Ø¬Ø±": 1772,
      "ĠÙģØ±ÙĪØ±ÛĮ": 1773,
      "ĠØªØŃØ±ÛĮØ±": 1774,
      "ĠØ¨Ø§Ø¹Ø«": 1775,
      "ĠØ§ÙĦÙģ": 1776,
      "ĠØ¬ÙĪØ§Ø¨": 1777,
      "ĠÚ©Ø±Ø¯ÛĮØ§": 1778,
      "ĠÙĦØ§Ø¦ÙĨ": 1779,
      "ĠÛĮÙĪØ±": 1780,
      "ĠÙħØ¹ÙĦÙĪÙħ": 1781,
      "ĠØµØ§ØŃØ¨": 1782,
      "Ø§Ø±Ø§": 1783,
      "ĠÛģÙĦØ§Ú©": 1784,
      "ĠØ¨Ø¹": 1785,
      "ĠØ¨ÛĮØ±": 1786,
      "Ø±Ø§Ø¦ÛĮ": 1787,
      "ĠÚ©ÛģØ§Ú©Ûģ": 1788,
      "Ø§Ø¦ÙĨØ±": 1789,
      "ØĽ": 1790,
      "ĠØ§ÙĨØµØ§Ùģ": 1791,
      "ĠÙħØ±Ú©Ø²ÛĮ": 1792,
      "ĠÚ©ÛĮÙħÛĮØ§Ø¦ÛĮ": 1793,
      "ÙĨÚ¯Ø²": 1794,
      "ĠØ¨ÚĨÙĪÚº": 1795,
      "ĠØ³Ø§Ø¦ÛĮÙ¹": 1796,
      "Ġ30": 1797,
      "Ġ0": 1798,
      "ĠØ§ÛĮØ´ÙĨ": 1799,
      "ĠØ§ÙĨØ¬Ø§Ùħ": 1800,
      "ĠÛĮÙĤ": 1801,
      "Ø«ÛĮØª": 1802,
      "ĠØ´ÙħØ§ÙĦÛĮ": 1803,
      "Ø¢Ø¨Ø§Ø¯": 1804,
      "ÛĮÙĨØ¯": 1805,
      "ĠØ³Ø§Ø¦": 1806,
      "ĠK": 1807,
      "Ø±ÛĮØ²ÛĮ": 1808,
      "and": 1809,
      "ÙĦÛĮÙ¹": 1810,
      "Ø·ÛĮ": 1811,
      "ĠØ§ÙĤØ¯": 1812,
      "Ø³ØªÛĮ": 1813,
      "ĠØ§ØŃØª": 1814,
      "ĠÙħØ¨": 1815,
      "ĠØ±Ø¶": 1816,
      "Ø®ÙĪØ§Ø³Øª": 1817,
      "ĠâĢĵ": 1818,
      "ĠÚĨÚ¾ÙĪÚĳ": 1819,
      "Ø§Ø¯Ø±": 1820,
      "ĠâĢĻ": 1821,
      "Ú©Ùħ": 1822,
      "ĠÙ¹ÙĪØ¦ÙĨÙ¹ÛĮ": 1823,
      "ĠØ³ÙĦØ·ÙĨØª": 1824,
      "Ø´ÙĦ": 1825,
      "ĠØ³Ø±Ú©Ø§Ø±ÛĮ": 1826,
      "Ø¬Ø¨": 1827,
      "ĠØ§Ø®Ø¨Ø§Ø±": 1828,
      "ÛĮÙħÙ¾": 1829,
      "ĠÚĨØ§ÛģÛĮ": 1830,
      "ĠÙħØ·Ø§ÙĦ": 1831,
      "Ġ11": 1832,
      "ĠØ§Ù¾Ø±ÛĮÙĦ": 1833,
      "ÙħÙĨÙ¹": 1834,
      "ĠF": 1835,
      "Ø§Ø±Ø¬": 1836,
      "ĠØ§ÙĨÚĪ": 1837,
      "ĠØ¯ÙĨÛĮØ§Ú©ÛĮ": 1838,
      "ĠÙħÙĤØ§ÙħÛĮ": 1839,
      "ĠØ¢Ù¾Ø±ÛĮØ´ÙĨ": 1840,
      "ÙĪÙ¾": 1841,
      "ĠÙĨÙħØ§Ø¦": 1842,
      "Ø±Ø§Ø¦Ø¹": 1843,
      "ĠÙĨÛĮØ´ÙĨÙĦ": 1844,
      "ĠØ§ÙħÙĨ": 1845,
      "ĠØ§ÛĮØ³ÙĪØ³ÛĮ": 1846,
      "26": 1847,
      "Ø§ÙĨØ¯": 1848,
      "Ø³ÛĴ": 1849,
      "ĠØŃÚ©Ùħ": 1850,
      "ĠØŃÙĦ": 1851,
      "Ú©Ø§Ø±ÚĪ": 1852,
      "Ù¾ÙĦØ²": 1853,
      "ĠØ§Ø®Øª": 1854,
      "ØŃØ¯": 1855,
      "Ú¯Ø±ÛĮ": 1856,
      "Ú¯Ø±Ø§Ùħ": 1857,
      "ĠØ´Ø±Ú©Øª": 1858,
      "ĠØ§Ø¶Ø§ÙģÛģ": 1859,
      "ĠÚ©Ø§ÙħÛĮØ§Ø¨": 1860,
      "ĠÙĪÛģØ§Úº": 1861,
      "Ø¨ÛĴ": 1862,
      "ĠØ¨Ùħ": 1863,
      "ĠÙħÙĨØªØ®Ø¨": 1864,
      "ĠØ§ÙģØ³": 1865,
      "ĠÚ©Ø±Ø¯Ûģ": 1866,
      "ÚĳØ§": 1867,
      "ĠØ¯Ø±Ø¬Ûģ": 1868,
      "ĠØ¯Ø±Ø¬": 1869,
      "ĠÙĤØµ": 1870,
      "ĠØ²ÙħÛĮÙĨ": 1871,
      "ØªÛģ": 1872,
      "Ġï": 1873,
      "ĠÚ¯Ø±ÙĪÙ¾": 1874,
      "Ø±Ø¬": 1875,
      "ĠØªÛĮØ³": 1876,
      "ĠØ³Ú©ØªÛĴ": 1877,
      "ĠÛģÙĨØ¯ÙĪØ³ØªØ§ÙĨ": 1878,
      "ĠØ´Ú©Ø³Øª": 1879,
      "ĠØªØ§Ú©Ûģ": 1880,
      "ĠØ·Ø±ÛĮ": 1881,
      "ÙĪØ±Ûģ": 1882,
      "ĠØ§ÙħÛĮØ¯": 1883,
      "ĠØ±ÛģØ§Ø¦Ø´ÛĮ": 1884,
      "ÙĪØ±ÛĮÛģ": 1885,
      "ĠÙħÙĤØ±": 1886,
      "Ġ24": 1887,
      "Ø´ÛĮØ§": 1888,
      "ĠØ¢Ø²Ø§Ø¯ÛĮ": 1889,
      "ÛĮØ³Ø±": 1890,
      "ĠØ¨Ø§ÛģØ±": 1891,
      "ĠÙ¾ÛģÙĦØ§": 1892,
      "Ġ2018": 1893,
      "ĠÚĨÙĨØ¯": 1894,
      "ĠØ´ÙħØ§Ø±": 1895,
      "ĠÙħÛĮÙĦ": 1896,
      "ĠÚ¯ÙĪØ±ÙĨ": 1897,
      "ĠØ¯ÛĮØªÛĴ": 1898,
      "ÛĮØ§Ø¯Øª": 1899,
      "ĠÚ©ÛĮÚº": 1900,
      "Ø§ØªØ§": 1901,
      "ĠÚ¯ÙĨ": 1902,
      "ro": 1903,
      "ĠÙĨØ¦ÛĮ": 1904,
      "ĠÙħØ§Ø¦ÙĨØ±": 1905,
      "ĠØ±Ù¾ÙĪØ±Ù¹": 1906,
      "as": 1907,
      "Ø³ÙĪ": 1908,
      "Ø§ÛĮØ§Úº": 1909,
      "ĠØ§ÙģØºØ§ÙĨØ³ØªØ§ÙĨ": 1910,
      "ĠØ§ØªØŃ": 1911,
      "ĠØ¶Ø±ÙĪØ±Øª": 1912,
      "28": 1913,
      "ĠØ±ÙĨÚ¯": 1914,
      "ĠØ¨Øº": 1915,
      "ĠØ³Ø±Ø¨Ø±": 1916,
      "Ø¯ÛĮØ«": 1917,
      "27": 1918,
      "ĠØ³Ù¹ÛĮ": 1919,
      "ĠØ¨Ø§Ø¶": 1920,
      "ĠÙ¾Ø§Ø±ÙĦÛĮÙħ": 1921,
      "ĠÙĪØ§ÙĦÙĪÚº": 1922,
      "ĠÙħÙĤØ¯Ùħ": 1923,
      "ĠØ¨Ø§Ø¶Ø§Ø¨Ø·Ûģ": 1924,
      "ĠØ¨ÙĪÙĦ": 1925,
      "ÛģØ±Ø³Øª": 1926,
      "ĠØ´Ø§Ø¦Ø¹": 1927,
      "ĠÙĪÛĮÙĦ": 1928,
      "ĠØ±ÛĮÚ©Ø§Ø±ÚĪ": 1929,
      "ĠÙĤØ±ÛĮØ¨ÛĮ": 1930,
      "ØªØµØºÛĮØ±": 1931,
      "ĠÙħÙĦÚ©ÛĮ": 1932,
      "Ġ23": 1933,
      "ĠÙħØ³Ø§Ø¦ÙĦ": 1934,
      "ĠØ¢Ø³": 1935,
      "ĠÙ¾ÙĪØ±ÛĮ": 1936,
      "ĠØ§ÙĤØª": 1937,
      "Ø§Ø¦Ø¨": 1938,
      "ĠÚĨØ§ÛģÛĮÛĴ": 1939,
      "ĠÙĪÙģØ§Øª": 1940,
      "ĠØªÙĨØ¸ÛĮÙħ": 1941,
      "ĠÚ©Ø¨Ú¾ÛĮ": 1942,
      "ĠØŃØ³ÙĨ": 1943,
      "ĠØ§ÙĨØªÙĤØ§ÙĦ": 1944,
      "Ø§Ø±Ùģ": 1945,
      "ĠØ³Ø±ÛĮ": 1946,
      "ĠÙĤÛĮØ§Ø¯Øª": 1947,
      "ĠÙĤØ³Ùħ": 1948,
      "ĠØŃÛĮØ«ÛĮØª": 1949,
      "ÙĨÙĪ": 1950,
      "ÙħØ³": 1951,
      "Ø§ÙĨØ³ÛĮ": 1952,
      "ist": 1953,
      "ĠØŃÙħÙĦÛĴ": 1954,
      "ĠÚ¯Ø±Ø¯ÛĮ": 1955,
      "Ø§ÙĤØª": 1956,
      "Ø±ÛĮØ³": 1957,
      "ÙĪÙĦØª": 1958,
      "ĠÚĪÚ¾": 1959,
      "ÙĪØ§Ø±ÚĪ": 1960,
      "ĠØ¹Ø«": 1961,
      "Ø§Ø±ÚĪ": 1962,
      "Ø´Ø§ÙĪØ±": 1963,
      "ĠØ¯Ø±ÛĮØ§ÙģØª": 1964,
      "ĠØ¯Ø±Ø®ÙĪØ§Ø³Øª": 1965,
      "ĠÚ©Ú¾ÛĮÙĦÛĴ": 1966,
      "ĠØ§ÙĨÛģÛĮÚº": 1967,
      "ĠÙ¹Ø±": 1968,
      "ĠØ¬Ø§Ù¾": 1969,
      "Ø±ÛĮÚĪ": 1970,
      "ĠØ¨Ø¹Ø¶": 1971,
      "ÛģØ§Ø¦ÛĮ": 1972,
      "ÙĪÛģØ¯Ø±ÛĮ": 1973,
      "ĠØ¨ÙĦÛĴ": 1974,
      "ĠÙĨØ¦ÛĴ": 1975,
      "ĠØ³ÙħØ¬Ú¾": 1976,
      "ĠØ§ÙĦØ±ØŃ": 1977,
      "Ø±ÛĮØ§": 1978,
      "ĠÚ©Ø±Ø¯ÛĮ": 1979,
      "ÙĪÙ¹Ø§": 1980,
      "ĠÙĤØ¯ÛĮÙħ": 1981,
      "ĠÙĤÛĮÙħØª": 1982,
      "ĠØ¹Ø¨Ø¯Ø§ÙĦ": 1983,
      "ĠÙĪØ²": 1984,
      "ĠØ³ÛĮØ²ÙĨ": 1985,
      "ĠÙħÙĦÛĮ": 1986,
      "ĠØ²Ùħ": 1987,
      "ÙĤØ±": 1988,
      "ÙĨØ¯ÙĨ": 1989,
      "ĠÚ©ÙħÛĮØ´ÙĨ": 1990,
      "Ø§ÙĨÛĮÙ¹": 1991,
      "ĠÛĮØ§Ø¯": 1992,
      "Ø§ÛĮÛģ": 1993,
      "Ø²Ø¯": 1994,
      "ĠØ§ÛĮØ³ÛĴ": 1995,
      "ĠØ°ÙħÛģ": 1996,
      "ĠØ³Ú©ÛĴ": 1997,
      "Ø±ÙĪØ³": 1998,
      "ĠâĢĿ": 1999,
      "ĠØ§ÙĨÚĪÛĮ": 2000,
      "ĠØ¯Ø§Ø¦ÛĮÚº": 2001,
      "ĠØ¨Ø§Ø¯Ø´Ø§Ûģ": 2002,
      "ĠØµÙĪØ¨Ø§Ø¦ÛĮ": 2003,
      "ÙĪØ¬ÛĮ": 2004,
      "Ø²ÛĮØ´ÙĨ": 2005,
      "ÙħÙĪØ¯": 2006,
      "âĢľ": 2007,
      "30": 2008,
      "ÙħØ§Ø±": 2009,
      "ĠØ¹Ø¸ÛĮÙħ": 2010,
      "ĠØ´Ú©ÙĦ": 2011,
      "ĠØ§ÛĮÙ¹": 2012,
      "ĠØ¹ÙħØ±Ø§ÙĨ": 2013,
      "ĠÚ©Ø±ÙĪ": 2014,
      "ÙĨØ§ÙĨ": 2015,
      "ĠØ§Ø¯Ø§Ø±ÙĪÚº": 2016,
      "ĠÙĪØ±ÙĦ": 2017,
      "ĠØ£": 2018,
      "50": 2019,
      "29": 2020,
      "Ø§ÙĪÛĮ": 2021,
      "ĠÙģÛĮØµØ¯": 2022,
      "ĠÙħØ®ØµÙĪØµ": 2023,
      "ĠÙĪØ±ÙĦÚĪ": 2024,
      "ric": 2025,
      "ĠØ¨ØºÛĮØ±": 2026,
      "ÚĳÚ¾": 2027,
      "le": 2028,
      "ĠÙħÙĪØª": 2029,
      "ĠØ¨ÙĨÛĮØ§Ø¯ÛĮ": 2030,
      "ĠÙ¾ÙĦØ§ÙĨÛĮÙ¹": 2031,
      "ĠØ§Ø¨ØªØ¯Ø§Ø¦ÛĮ": 2032,
      "ĠÚ¯Ø¦ÛĮÚº": 2033,
      "ĠØ§ÙĨØ¯Ø§Ø²": 2034,
      "ĠÙħØªØ¹Ø¯Ø¯": 2035,
      "ĠØ¨ÙĪØ±ÚĪ": 2036,
      "Ø±Ø¯Ø§Ø±": 2037,
      "Ø§ÙħÛģ": 2038,
      "ĠØµÙĨ": 2039,
      "Ø¯ÙĪ": 2040,
      "ÚĨÛĴ": 2041,
      "ÙģØ±ÙĨØ³": 2042,
      "ĠØ¹Ø§ÙĦÙħ": 2043,
      "ĠÚ¯ÙģØª": 2044,
      "ĠØ´Ø¯ÛĮØ¯": 2045,
      "Ø´ÛĮØ¯": 2046,
      "Ø±ÛĮÛģ": 2047,
      "ÛĮØ±Ûģ": 2048,
      "ĠÙħÙĦØ§Ø²": 2049,
      "ĠØ¨ÛĮÙĨÚ©": 2050,
      "Ø§Ø¶ØŃ": 2051,
      "ĠØ±Ú©Ú¾ÛĮ": 2052,
      "ÛĮÙĨÚ¯": 2053,
      "ĠSt": 2054,
      "ĠÚ¯Ø²": 2055,
      "ĠÙħØµÙĨÙģ": 2056,
      "ĠÙģØ±Ø§ÙĨØ³": 2057,
      "ĠØ§ÛĮÙĪØ§Ø±ÚĪ": 2058,
      "ĠØ³ÛĮÙĦ": 2059,
      "ĠÙħØ´Ø±ÙĤÛĮ": 2060,
      "ĠÙĨÙħØ§ÛĮØ§Úº": 2061,
      "ĠØ¨ÛĮÙ¹ÛĴ": 2062,
      "ĠÙħÛģÙħ": 2063,
      "ĠÙħÙĦØ§": 2064,
      "ĠØŃØ¯": 2065,
      "ĠÙ¹ÛĮÚ©Ø³": 2066,
      "ĠØ±Ø§Ø¦ÛĴ": 2067,
      "ĠØ¯ÛģØ§Ø¦ÛĮ": 2068,
      "ĠØ§ÙĨØªØ¸Ø§Ùħ": 2069,
      "ÙĤÛĮØ¯": 2070,
      "ÙĴ": 2071,
      "Ú©ÛĮÙĪØ±Ù¹ÛĮ": 2072,
      "ĠÚ¯ÛĮÙĨØ¯": 2073,
      "Ø§Ø¦Ù¹": 2074,
      "ia": 2075,
      "ĠØªØ³": 2076,
      "ĠØ¨Ø±Ø·Ø§ÙĨÙĪÛĮ": 2077,
      "ÙģÙĪ": 2078,
      "ĠÙĪØ²ÛĮØ±Ø§Ø¹Ø¸Ùħ": 2079,
      "ĠÚ©Ú¾ÛĮÙĦØ§": 2080,
      "ĠØ§ÛĮØ³ÛĮ": 2081,
      "ĠØ¹ÙĨ": 2082,
      "ĠØ¹ÙĦÛĮÛģ": 2083,
      "ĠØ¨Ø·": 2084,
      "Ú¯Ø§Ûģ": 2085,
      "ĠØ¬Ø±": 2086,
      "Ø§Ø±Ø¬Ûģ": 2087,
      "ĠÛĮØ¹ÙĨÛĮ": 2088,
      "Ø§ÙħÙĨÙ¹": 2089,
      "Ø§Ø¨Øª": 2090,
      "Ø¦Ø±ÙħÛĮÙĨ": 2091,
      "Ø±Ø¯ÛĮ": 2092,
      "ĠØ±ØŃ": 2093,
      "ing": 2094,
      "ĠØ§ÙĨØ³Ø§ÙĨÛĮ": 2095,
      "Ġ26": 2096,
      "Ġ2015": 2097,
      "ĠØ³Ú©ØªÛĮ": 2098,
      "ĠØ§ÛĮØ³Ø§": 2099,
      "ĠÚ©Ú¾ÙĪÙĦØ§": 2100,
      "ĠØ¬Ø³Ù¹Ø³": 2101,
      "ĠÙĪÙĨ": 2102,
      "ĠÙĪÙĤ": 2103,
      "ĠØ®ÙĪØ´": 2104,
      "ĠØ§ÙĨÚ¯Ø±ÛĮØ²ÛĮ": 2105,
      "ĠØ±ÙĪÙħ": 2106,
      "ht": 2107,
      "ĠØ¨Ø§ÙĪØ¬ÙĪØ¯": 2108,
      "ĠØ¬Ø¯ÛĮØ¯": 2109,
      "ÙĪØ±ÙĨØ§ÙħÙĨÙ¹": 2110,
      "ĠØ·ÙĦØ¨": 2111,
      "Ø²Ø§": 2112,
      "ĠØµØ¯": 2113,
      "ĠÙħÛĮÚĨÙĪÚº": 2114,
      "ĠÙ¾Ø±ÙĪÚ¯Ø±Ø§Ùħ": 2115,
      "ØªÛĮØ¨": 2116,
      "22": 2117,
      "ĠÙħÙĤØ±Ø±": 2118,
      "ĠÚ©Ø³": 2119,
      "ĠÙĪÛĮØ³Ù¹": 2120,
      "Ø®ÙĦØ§Ùģ": 2121,
      "Ġ2013": 2122,
      "ĠÛģØ§Ø±": 2123,
      "ĠØ¬Ø§ÙĨØ§": 2124,
      "ĠÙĦÛĮÙĨÛĴ": 2125,
      "Ġ'": 2126,
      "ĠØ§ÙĦÛĮÚ©Ø´ÙĨ": 2127,
      "ÙĪÙ¹ÛĮ": 2128,
      "ĠØ³Ø±Ú¯Ø±": 2129,
      "ĠØªØ±Ø¬Ùħ": 2130,
      "Ù¹Ú©": 2131,
      "ĠÚ©ÙĪØ±": 2132,
      "ĠØ§ÙĦØ³": 2133,
      "ĠÚ©Ù¾ØªØ§ÙĨ": 2134,
      "ÚĪÙĨ": 2135,
      "ĠÙħØ¹ÛĮ": 2136,
      "ÙĪØ¬Ûģ": 2137,
      "ine": 2138,
      "Ú¯ÙĨ": 2139,
      "ĠÙĦØ§Ú©Ú¾": 2140,
      "ĠØ®ØµÙĪØµÛĮ": 2141,
      "Ø²ÛĮØ²": 2142,
      "ĠÚ©ÛģØªÛĴ": 2143,
      "ĠÚ©Ø§ÙħÛĮØ§Ø¨ÛĮ": 2144,
      "ĠÚ¯Ø±Ø§Ø¤ÙĨÚĪ": 2145,
      "ĠÛģØ¬": 2146,
      "ĠÙģØªØŃ": 2147,
      "ĠØ±ÙĪÚ©": 2148,
      "ĠÙĤØ±Ø¢ÙĨ": 2149,
      "ĠÙħÙĪØ³ÛĮÙĤÛĮ": 2150,
      "ÙĨÛĮØ´ÙĨÙĦ": 2151,
      "Ġ27": 2152,
      "ĠÙħÙĪØ¬ÙĪØ¯Ûģ": 2153,
      "ĠØ¨Ø±Ø§Ø¦ÛĴ": 2154,
      "ĠØ¢ÙĦ": 2155,
      "Ø´ÛģØ±": 2156,
      "ĠÙħÛĮØ²": 2157,
      "ĠÙħÙĨØªÙĤÙĦ": 2158,
      "Ġ28": 2159,
      "ĠÙħØ¹Ø§Ùħ": 2160,
      "ÙħØ¨Ø±": 2161,
      "ÙĦÛĮÛģ": 2162,
      "ĠÙĨÙģ": 2163,
      "ĠÙģÙĦØ³": 2164,
      "ĠÙħÙĦØŃ": 2165,
      "Ø§ÛģÛĴ": 2166,
      "ĠØ§ØŃØªØ¬": 2167,
      "ĠÙ¾ÛĮÙ¾ÙĦØ²": 2168,
      "ĠØ±Ú©Ú¾ØªÛĴ": 2169,
      "ĠØªÙĦ": 2170,
      "Ú¯ÙĦ": 2171,
      "ĠÛĮÙĪÙĨÛĮÙĨ": 2172,
      "Ø§ÙĨØª": 2173,
      "ĠÙģÛģØ±Ø³Øª": 2174,
      "ĠØ¨Ø¬ÙĦÛĮ": 2175,
      "Ú©ÛĮÙ¹": 2176,
      "ÛĮÙĦÚĪ": 2177,
      "ĠÙ¹ÙĪØ±ÙĨØ§ÙħÙĨÙ¹": 2178,
      "ĠØ§Ø±Ø¨": 2179,
      "ĠÙħØ®Ø§ÙĦ": 2180,
      "ĠØ®Ø§ØªÙĪÙĨ": 2181,
      "ĠÙģØ§Ø¦Ø±": 2182,
      "ĠÙģÙĪØ±Ø³": 2183,
      "ØµØ§ÙĨ": 2184,
      "ĠØ¨ÛģØªØ±": 2185,
      "ĠØŃÙĤÙĪÙĤ": 2186,
      "ÙĪØ¬ÙĪØ§ÙĨ": 2187,
      "ĠØ³ÙĨÚ¯Ú¾": 2188,
      "ĠÙħÛĮØ±ÛĮ": 2189,
      "ĠÙĪÙģØ§ÙĤÛĮ": 2190,
      "ĠØ±Ø§Ø³Øª": 2191,
      "Ø¨ÙĦÛĮ": 2192,
      "ĠØ§Ø³Ø±Ø§Ø¦ÛĮ": 2193,
      "ĠÙ¹Ú¾": 2194,
      "ĠÙħÙĪØ³": 2195,
      "ĠØ³Øª": 2196,
      "ĠÙħØ°ÛģØ¨ÛĮ": 2197,
      "Ø±ÛĮØª": 2198,
      "ÙĪÙĨÙ¹": 2199,
      "ÚĪÛĮÙĪ": 2200,
      "ĠÙĤØ¯Ø±": 2201,
      "ĠÙħØ§ÙĦÛĮ": 2202,
      "ĠÚĪØ§Ø¦": 2203,
      "Ø§Ú¯Ø±": 2204,
      "ĠØ·Ø¨": 2205,
      "Ú©Ø±Ø±": 2206,
      "ĠÚĨÚ©ÛĴ": 2207,
      "ĠØ®Ø¨Ø±": 2208,
      "ĠØªØ¹ÙĦÙĤØ§Øª": 2209,
      "ĠÙ¾Ú¾ÛĮ": 2210,
      "ĠØ¸Ø§ÛģØ±": 2211,
      "ÙĦÛĮÙģ": 2212,
      "Ø§Ø¹ÙĦÛĮ": 2213,
      "Ġ2019": 2214,
      "ĠØ§ÙĨØªØ¸Ø§ÙħÛĮ": 2215,
      "Ø·ÙĨ": 2216,
      "ĠÛģÙĪØ§Ø¦ÛĮ": 2217,
      "Ø§ÙĦÛĮÛģ": 2218,
      "21": 2219,
      "ĠØ§Ø¯Ø§Ú©Ø§Ø±ÛĮ": 2220,
      "ĠÙĩ": 2221,
      "ÛĮÙĨØ¬": 2222,
      "ĠÚ¯ÙģØªÚ¯ÙĪ": 2223,
      "ĠÙģØ±ÛĮ": 2224,
      "Ø±Ø¬ÙĪØ¹": 2225,
      "ÙĪÙĨÚ¯": 2226,
      "ĠÙĨÙĤØµØ§ÙĨ": 2227,
      "ÛĮÙĦÛĮ": 2228,
      "ĠØ±ÙĪØ§ÛĮØª": 2229,
      "ĠØªØ§Ø²Ûģ": 2230,
      "ĠØ¹ÙĦØ§Ùħ": 2231,
      "ÙħÚ©Ø±Ø±": 2232,
      "Ú©Ø±Ù¹Ø±ÛĮ": 2233,
      "ÙĦÙĪÚº": 2234,
      "Ġ2016": 2235,
      "ØŃØ§Ø¸": 2236,
      "ĠÙĦÙĨØ¯ÙĨ": 2237,
      "ĠØ·Ø§ÙĤØª": 2238,
      "ĠÙĨØªÛĮØ¬ÛĴ": 2239,
      "ĠØ¯Ø¨": 2240,
      "ĠØ¨ÙĨÚ¯ÙĦÛģ": 2241,
      "Ù¹Ûģ": 2242,
      "ĠÙ¾Ø§ÙĦÛĮ": 2243,
      "ĠÙħØ³Ø¦": 2244,
      "ĠÙĪÛĮÚĺÙĨ": 2245,
      "ĠÚ©ÙĪØ¦": 2246,
      "ĠØ³ÙĪØ§ÙĦ": 2247,
      "Ø§Ø´Øª": 2248,
      "ĠØ²Ø§Ø¦Ø¯": 2249,
      "Ø§ÙĨÚĪ": 2250,
      "ĠÙħØ±Ú©Ø²": 2251,
      "ad": 2252,
      "ĠØ¨ØŃÙĤ": 2253,
      "ĠØ¯ÛĮØ´": 2254,
      "Ġ29": 2255,
      "Ø§Úĳ": 2256,
      "ÙħÙĪÙĦ": 2257,
      "ĠØ¨Ø´": 2258,
      "ĠØ³ÙģØ±": 2259,
      "Ø¢Ø¦ÛĮ": 2260,
      "ĠØ±ÙĪÚĪ": 2261,
      "ĠØ§ÙĦØ¨": 2262,
      "ĠÙħØ³Ø§Ùģ": 2263,
      "ÙĪØ±ÙĪ": 2264,
      "ĠØ§ÙģØ±ÛĮÙĤÛģ": 2265,
      "ĠØ¬ÙĨÚ¾ÙĪÚº": 2266,
      "ĠØ³ÙĦØ³ÙĦÛģ": 2267,
      "ĠØ§ÙĨÙĨÚ¯Ø²": 2268,
      "ĠÙ¾ÙĨ": 2269,
      "ĠØ§ØµÙĦ": 2270,
      "ĠØ³ÙĦØ·Ø§ÙĨ": 2271,
      "ĠØ³Ø®Øª": 2272,
      "ĠÚ©ÛĮÙĨÛĮ": 2273,
      "ĠØ¨ÙĦØ¯ÛĮ": 2274,
      "ĠÙĨØ§Ø±": 2275,
      "ÛĮØ¯Ø±": 2276,
      "Ø§ÙĦÛģ": 2277,
      "ĠÙĨÛĮÙĪØ²ÛĮ": 2278,
      "ĠÙħÙĦØŃÙĤÛģ": 2279,
      "ĠÛģØ³Ù¾ØªØ§ÙĦ": 2280,
      "Ø¬Ø§": 2281,
      "ĠØ§ÛģÙĦÚ©Ø§Ø±": 2282,
      "ÛĮÙĨÙĪ": 2283,
      "ĠØ«Ø§Ø¨Øª": 2284,
      "ĠØ¬Ø§Ø±Ûģ": 2285,
      "ĠØŃØ¯ÛĮØ«": 2286,
      "ĠâĢľ": 2287,
      "ĠÙħØ³ÛĮ": 2288,
      "ĠÚ©Ø§Ø±ÙĪØ¨": 2289,
      "ĠÙħØŃÙħÙĪØ¯": 2290,
      "ĠØ¶Ø±ÙĪØ±ÛĮ": 2291,
      "ÙģØªÛģ": 2292,
      "Ø§Ø¬Ûģ": 2293,
      "ĠÙħØ³ÙĦÙħØ§ÙĨÙĪÚº": 2294,
      "ĠÙħÙħÚ©ÙĨ": 2295,
      "ent": 2296,
      "ĠØ³Ù¹": 2297,
      "ĠØ¨Ø·ÙĪØ±": 2298,
      "ĠØ¨Ø§Ø¨": 2299,
      "iv": 2300,
      "ĠÙĨÙĪØ¬ÙĪØ§ÙĨ": 2301,
      "ĠÙĦÚ©Ú¾Ø§": 2302,
      "ĠØ°Ø±ÛĮØ¹Ûģ": 2303,
      "ĠØ§Ø³Ù¹ÛĮØ´ÙĨÙĪÚº": 2304,
      "Ø±ÛĮÚ©Ù¹Ø±": 2305,
      "Ø§ÙģØ¸": 2306,
      "ĠÙ¾Ø§ÙĦÛĮØ³ÛĮ": 2307,
      "ØŃÚ©ÙĪÙħØª": 2308,
      "ĠØ¬Ø§Úº": 2309,
      "ÙĨÚ¯Ù¹ÙĨ": 2310,
      "ĠØ´ÛĮØ±": 2311,
      "Ú©Ø±Ø¯": 2312,
      "ĠØ§Ø³Ù¹ÛĮÚĪÛĮÙħ": 2313,
      "ĠÛģÙĪÚ¯ÛĮ": 2314,
      "ĠØ§Ø³Ùħ": 2315,
      "Ø³ÛĮØ¹": 2316,
      "ĠØ®ÙĦÛĮ": 2317,
      "ĠØªØ¨Ø¯": 2318,
      "Ø§ØµØ±": 2319,
      "ĠØªØ±Ú©": 2320,
      "ĠÙħÛĮÚ©": 2321,
      "ĠØ§ÙĪØ³": 2322,
      "ĠÙ¾Ø§Ø¨": 2323,
      "Ø§Ø²Øª": 2324,
      "ØŃØ§ÙĦ": 2325,
      "ĠØ²Ø±": 2326,
      "ĠØŃØ³": 2327,
      "ĠÙ¾ÚĳÚ¾": 2328,
      "ÚĨÚ¾ÛĴ": 2329,
      "ĠØ¢Ø®Ø±": 2330,
      "ĠÙ¾Ø§Ø±Ú©": 2331,
      "Ù¹Ø±ÙĪÙĦ": 2332,
      "ĠØ¨Ø±Ø³": 2333,
      "ĠÙĨÚ¯Ø±": 2334,
      "ĠØªØ±Ú©ÛĮ": 2335,
      "ĠÙĪÚ©Ù¹ÛĮÚº": 2336,
      "Ú©Ø±Ø§ÚĨÛĮ": 2337,
      "ĠØ«ÙĤ": 2338,
      "Ø¬ÙĨØ³ÛĮ": 2339,
      "ev": 2340,
      "ĠÙĨØ§Ú©Ø§Ùħ": 2341,
      "us": 2342,
      "Ø²Ø§Ø²": 2343,
      "ĠØ³ÛĮÚ©": 2344,
      "ĠØªØ¨Ø¯ÛĮÙĦ": 2345,
      "ĠÚĪØ§ÙĦØ±": 2346,
      "ĠÚ©Ø§Ø±Ú©ÙĨ": 2347,
      "Ø§Ú©ÛĮ": 2348,
      "ĠØ±Ø¬": 2349,
      "ĠÚ©ÛĮØ®ÙĦØ§Ùģ": 2350,
      "Ġ2014": 2351,
      "Ġ21": 2352,
      "ĠØŃÙĤÛĮ": 2353,
      "Ø¨ÛĮÙĪ": 2354,
      "ĠÙħÙĤØµØ¯": 2355,
      "ĠÚ©Ø±Ø±Ûģ": 2356,
      "ĠØ¯Ø³": 2357,
      "ĠØ§ÙĤØ¯Ø§ÙħØ§Øª": 2358,
      "ĠÙ¾ÙĪÙĦ": 2359,
      "ĠØ´Ø¯Ûģ": 2360,
      "ĠÙħØµØ±": 2361,
      "ĠÛģÙĪÙĨØ§": 2362,
      "ĠØŃÙħØ§ÛĮØª": 2363,
      "ĠØªØ§": 2364,
      "ĠØ¹Ø±Øµ": 2365,
      "ĠÙĪØ²Ø§Ø±Øª": 2366,
      "Ø¹Ø§ÙĦ": 2367,
      "ĠÙħØ´Ú©ÙĦ": 2368,
      "ĠØ§ÙħØ±ÛĮÚ©Ûģ": 2369,
      "ĠØ§Ø¯Ø§Ø±ÛĴ": 2370,
      "ĠO": 2371,
      "ĠØ§Ø¬Ø§Ø²Øª": 2372,
      "ĠØ¡": 2373,
      "ÙĪØ§Úº": 2374,
      "ĠØ¨Ø§Ø²ÛĮ": 2375,
      "ÙħÛĮØ±ÛĮ": 2376,
      "ÛĮØ¯ÛĮ": 2377,
      "ĠØªØ§Ø±ÛĮØ®ÛĮ": 2378,
      "ĠØ¯Ø§Ø®ÙĦ": 2379,
      "ĠØ±ÛģÙĨÙħØ§": 2380,
      "ĠØ¬Ø§Ù¾Ø§ÙĨ": 2381,
      "ĠØµØŃØª": 2382,
      "ĠÙĤØ¨ÙĪÙĦ": 2383,
      "ĠØ¯Ø´": 2384,
      "ĠØ±Ø³ÙĪÙĦ": 2385,
      "ĠÚ©Ø§ÙĨÙģØ±ÙĨØ³": 2386,
      "ĠÙħÙĨØ¹ÙĤ": 2387,
      "Ġ22": 2388,
      "ĠÚ©Ø±ÛĮ": 2389,
      "px": 2390,
      "ĠØ´Ø§Ø¦Ø±": 2391,
      "ĠÚĪÛĮØ¨ÛĮÙĪ": 2392,
      "ÙħØ´": 2393,
      "ĠØ¨ÙĦÙĪÚĨØ³ØªØ§ÙĨ": 2394,
      "ĠØªØ±ØªÛĮØ¨": 2395,
      "ĠØ³ÛĮÚ©Ø±Ù¹Ø±ÛĮ": 2396,
      "Ø¢Ù¾": 2397,
      "Ø®Ø±": 2398,
      "ĠÙħÙĪØ±": 2399,
      "ĠØ¯ÙģØ§Ø¹": 2400,
      "ĠÚĨÛĮØ¦Ø±ÙħÛĮÙĨ": 2401,
      "Ø±Ú©Ûģ": 2402,
      "ĠÙĤØ·": 2403,
      "Ø§Ø³ÙĦØ§Ùħ": 2404,
      "ĠÚĨÙĪÛģØ¯Ø±ÛĮ": 2405,
      "ĠØ³Ø¹ÙĪØ¯ÛĮ": 2406,
      "ĠØ¨Øª": 2407,
      "Ø³ÙĦ": 2408,
      "ĠÛģÙħØ§Ø±ÛĴ": 2409,
      "ĠØ¯Ø§Ø±ÛĮ": 2410,
      "ĠÙĦÚ¯Ø§": 2411,
      "ĠÙĨÚ¯Ø§Ø±": 2412,
      "ĠÙħØ§ÛģØ±": 2413,
      "ÚĳÚ©": 2414,
      "ĠÙĨØµ": 2415,
      "ĠØ§ÙħÛĮØ±": 2416,
      "99": 2417,
      "ĠÙħÛĮØ¯": 2418,
      "ĠØ³Ø±Ø¨Ø±Ø§Ûģ": 2419,
      "ĠÚ¯Ø±ÛĮ": 2420,
      "ĠØ³ÙĪÙĦ": 2421,
      "Ø³ØªÛģ": 2422,
      "ĠØ§ÛĮÚĨ": 2423,
      "ĠØµØŃØ§ÙģÛĮ": 2424,
      "Ù¾Ø§Ø±": 2425,
      "ĠØŃÙĦÙĤ": 2426,
      "ĠØ§Ø¯Ø§Ø±Ûģ": 2427,
      "ĠØ§ØªØŃØ§Ø¯": 2428,
      "80": 2429,
      "ĠÙħÙĤØ§Ø¨ÙĦÛĴ": 2430,
      "ĠØ´Ø§Ùħ": 2431,
      "ĠØ³Ø§ÙĨ": 2432,
      "ÙģØ§Ø±": 2433,
      "Ø±Ø§Ûģ": 2434,
      "ĠÙĦÙĨÚ©Ø§": 2435,
      "ĠØªØ¹Ø§ÙĪÙĨ": 2436,
      "ĠØ§Ø·ÙĦØ§Ø¹": 2437,
      "ĠØ®Ø§Ø±Ø¬Ûģ": 2438,
      "ĠØ¢Ø¤": 2439,
      "ĠÙħÙĪÙĦØ§ÙĨØ§": 2440,
      "ĠØ¯Ø§Ø®ÙĦÛģ": 2441,
      "ĠØ¢ÙħØ¯": 2442,
      "ĠÙģØ±Ø§ÙĨØ³ÛĮ": 2443,
      "Ø§Ø¨ÙĪ": 2444,
      "ĠØŃÚ©Ø§Ùħ": 2445,
      "Ø±Ø¯Ø§Ø±ÛĮ": 2446,
      "ĠÙħØ¸Ø§Ûģ": 2447,
      "ĠØ§ÙĨØªÛģØ§Ø¦ÛĮ": 2448,
      "ÙĪÛĮØª": 2449,
      "ÙĪØ³Ùģ": 2450,
      "ĠÙ¾Ø´Ø§ÙĪØ±": 2451,
      "Ġ190": 2452,
      "40": 2453,
      "ĠÙģØ±Ø§ÙĨØ³ÛĮØ³ÛĮ": 2454,
      "ĠÙħØ§ÙĨ": 2455,
      "ĠØ§ÚĨ": 2456,
      "ĠÚ©Ø§ÙģÛĮ": 2457,
      "ÙĪØ±Ø§": 2458,
      "ĠÙĦØŃØ§Ø¸": 2459,
      "ĠØŃØ§ÙĦØ§Øª": 2460,
      "ĠÚ©ÛĮØ±ÛĮ": 2461,
      "ĠØ¢Ø¨": 2462,
      "ĠÚ¯Ø±Ø§Ùħ": 2463,
      "ĠØ¨Ø³": 2464,
      "ĠÙ¾Ø±ÙĪÛĮØ²": 2465,
      "ĠØ§ÙĤØ¨Ø§ÙĦ": 2466,
      "ĠÙĨØ§ÙħØ²Ø¯": 2467,
      "ĠØ¨ÙĦØ§": 2468,
      "ĠØ§ÙĨÙ¹Ø±ÙĨÛĮØ´ÙĨÙĦ": 2469,
      "ĠØ¯ÛģÙĦÛĮ": 2470,
      "Ø§Ù¹": 2471,
      "Ø¨ÙĪÙĦ": 2472,
      "ĠØ¢Ø¯": 2473,
      "ĠØ´Ú©Ø§Ø±": 2474,
      "Ø´Ø§Ø¦Ø±": 2475,
      "Ú¯Ø²": 2476,
      "Ø¬Ø§ÙĨ": 2477,
      "Ø§ÛģÙħÛĮ": 2478,
      "ĠØ³Ø§Ø®Øª": 2479,
      "ĠØ³Ø§Ø¦ÙĨØ³": 2480,
      "ĠÙħÙĨØµÙĪØ¨Ûģ": 2481,
      "Ø§ÙĦÙħ": 2482,
      "60": 2483,
      "Ġst": 2484,
      "Ø¬Ø³": 2485,
      "ĠÙħÙĦÚ©ÛĮØª": 2486,
      "ÙģÙĪØ¸": 2487,
      "ot": 2488,
      "ĠØ¨Ø¬Ø§Ø¦ÛĴ": 2489,
      "ĠÚ¯ÙĪÙĦ": 2490,
      "ĠØ·ÛĮ": 2491,
      "·º": 2492,
      "Ø§Ø³Ú©": 2493,
      "ĠÙĤØ§ÙĨÙĪÙĨÛĮ": 2494,
      "ĠØ¨Ø±Ø¢ÙħØ¯": 2495,
      "ĠØŃØ±": 2496,
      "ĠÙħØ´Ø±Ùģ": 2497,
      "ĠØªØ®": 2498,
      "ĠØ¯Ú¾ÙħØ§Ú©": 2499,
      "ĠØ¹Ø±Ø¨ÛĮ": 2500,
      "ĠÙĨØ¹": 2501,
      "ØµÙĦ": 2502,
      "ï»": 2503,
      "Ø±ÛĮØ¯": 2504,
      "ĠØŃØ¬": 2505,
      "Ġ2008": 2506,
      "ĠØ§ÙħÛĮØ¯ÙĪØ§Ø±": 2507,
      "ĠÙħÙĤØ§Ø¨ÙĦÛģ": 2508,
      "ĠØ¬Ø§Ø¦Ø²": 2509,
      "ĠØ¯ÛĮÚ©Ú¾Ø§": 2510,
      "ÙĦÛĮØ§": 2511,
      "ĠØ±ÙĪØ³": 2512,
      "way": 2513,
      "ĠÙģØ§Ø¦Ø±ÙĨÚ¯": 2514,
      "ĠÙ¾ÛĮØ¯Ø§ÙĪØ§Ø±": 2515,
      "ĠÙ¾Ú©": 2516,
      "ĠÙħØ¹Ø±ÙĪÙģ": 2517,
      "ÙĦØª": 2518,
      "ÙħØŃÙħØ¯": 2519,
      "Ø¹ÙĦÛĮ": 2520,
      "ØºÛĮØ±Ûģ": 2521,
      "ĠÙĪÚ©Ù¹ÙĪÚº": 2522,
      "ĠÚ©ÛĮÙĨÛĮÚĪØ§": 2523,
      "ĠØ·Ø§ÙĦ": 2524,
      "ĠÙĨÙĪÙ¹": 2525,
      "ĠØ±Ø§Øª": 2526,
      "ĠØ§Ø³Ù¾": 2527,
      "âĢĿ": 2528,
      "ÙĤÛĴ": 2529,
      "âĢĺâĢĺ": 2530,
      "em": 2531,
      "ĠØ¬Ø§ÙħØ¹Ûģ": 2532,
      "ĠÙħØªØ§Ø«Ø±": 2533,
      "ĠØ§ÙĦÚ¯": 2534,
      "Ġ50": 2535,
      "ĠÚ©Ø±ÙĪÚĳ": 2536,
      "ĠÚĨÛĮÙħÙ¾": 2537,
      "ĠÙĨÚ©Ø§ÙĦ": 2538,
      "ĠØ±ÙĪØ§ÛĮ": 2539,
      "ÙĪÙ¹ÛĴ": 2540,
      "ĠØ´ÙĨ": 2541,
      "ÙĪÛĮØ±": 2542,
      "ĠØ´ÛģÛĮØ¯": 2543,
      "ĠÙģØ§Ø¦ÙĨ": 2544,
      "ĠØ¨Ø±Ø·Ø§ÙĨÛĮÛģ": 2545,
      "ĠØ¨Ø§Øº": 2546,
      "ĠØ¨ÚĨÛĴ": 2547,
      "ĠÙħØ³ÙĦÙħØ§ÙĨ": 2548,
      "Ú©Ø±Ø¯Ú¯ÛĮ": 2549,
      "ĠÙĪØ¬": 2550,
      "ĠØ¬Ø±ÙħÙĨÛĮ": 2551,
      "Ø§Ø¯Øª": 2552,
      "ĠÙħØŃÙģÙĪØ¸": 2553,
      "ĠØ¨Ø±ÛĮ": 2554,
      "ĠØ§ÙģØª": 2555,
      "Ø¨ÛĮØ±": 2556,
      "ÛĶ\"": 2557,
      "ĠØµÙģØŃÛģ": 2558,
      "ĠØ¨Ùĩ": 2559,
      "ĠØ·ÙĦ": 2560,
      "ĠÚĪÛĴ": 2561,
      "ĠÙħØ¶Ø¨ÙĪ": 2562,
      "ĠÙħÙĤØ§ÙħØ§Øª": 2563,
      "Ø§Ø°": 2564,
      "ĠØ¯ÛĮØªØ§": 2565,
      "ĠÙĪØ§Ø¶ØŃ": 2566,
      "70": 2567,
      "ĠÚ¯Ú¾ÙĨÙ¹": 2568,
      "ĠÙĤØ¨Ø¶Ûģ": 2569,
      "ĠØªÛģ": 2570,
      "Ø«Ø§Ø±": 2571,
      "ĠØ¨Ú¾Ù¹ÙĪ": 2572,
      "ĠØ¢Ø¤Ù¹": 2573,
      "ĠÙĪØ±Ú©": 2574,
      "ag": 2575,
      "ĠÙģØ±ÙħØ§ÛĮØ§": 2576,
      "Ġ2017": 2577,
      "ÙĪÙĨØ§": 2578,
      "ĠØŃØµÛĴ": 2579,
      "ĠÚĪØ§Ø¦Ø±ÛĮÚ©Ù¹Ø±": 2580,
      "ĠØ¨Ø§ÙĤÛĮ": 2581,
      "90": 2582,
      "ĠØªØ´Ú©ÛĮÙĦ": 2583,
      "id": 2584,
      "ĠÙĦÛĮÚº": 2585,
      "ĠØ¢Ù¹Ú¾": 2586,
      "ÙĪØ¯Ú¾": 2587,
      "ÚĪÙĦ": 2588,
      "ĠÚĨÚ©ÛĮ": 2589,
      "ĠÚ©Ø§Ø±Ú©Ø±Ø¯Ú¯ÛĮ": 2590,
      "ĠØ¨ÙĨØ¯ÛĮ": 2591,
      "ĠØ´Ø¯": 2592,
      "Ø±Ø³": 2593,
      "ĠÙħØ·Ø§ÙĦØ¨Ûģ": 2594,
      "Ġ/": 2595,
      "ĠØªÙĪØ¬Ûģ": 2596,
      "33": 2597,
      "Ø§ØŃØ¯": 2598,
      "ÙĪÙģÛĮ": 2599,
      "Ø§ÙĪØª": 2600,
      "ĠÚ©ÙĦÛĮ": 2601,
      "ĠÙ¾Ø§ÛĮØ§": 2602,
      "ĠØ¹ÙħØ§Ø±Øª": 2603,
      "ĠØªÛĮØ²": 2604,
      "ĠØªØ§Ø¬": 2605,
      "ĠØªØŃÙĤÛĮÙĤ": 2606,
      "ĠØ®ÙĪØ§Ûģ": 2607,
      "ĠÙ¾ÙĦÛĮÙ¹": 2608,
      "ĠØ§ÙħÙĪØ±": 2609,
      "Ġd": 2610,
      "ÙħÛĴ": 2611,
      "ul": 2612,
      "ĠØ¬ÙĪÛģØ±": 2613,
      "ĠV": 2614,
      "ĠÚ©ÛĮÙĪ": 2615,
      "ĠØ³Ø±Ùħ": 2616,
      "ÙĪØ«": 2617,
      "Ø®ØªÙĪÙĨ": 2618,
      "ÙĪÛĮÚĺÙĨ": 2619,
      "Ø§Ø³Ù¹": 2620,
      "ĠØ¯ÛĮÛĴ": 2621,
      "ÚĨØ±ÛĮ": 2622,
      "ĠØ³ÙĪØ±": 2623,
      "Ø§ÙĨÚ¾ÙĪÚº": 2624,
      "Ø²Ûģ": 2625,
      "ÙħÙĦÚ©": 2626,
      "ÙĪØ§Ø²": 2627,
      "ĠØ§Ø¨ÛĮ": 2628,
      "ĠØµÙĦØ§ØŃ": 2629,
      "Ø§Ú©Ø±": 2630,
      "ĠØºÙĦØ·": 2631,
      "ut": 2632,
      "ĠØ§ÛĮØ±": 2633,
      "ĠØ§Ú©Ø«Ø±": 2634,
      "ĠÙĨØªÛĮØ¬Ûģ": 2635,
      "ĠØ§ÙĦØ£": 2636,
      "ĠØ±ÛģÛĮÚº": 2637,
      "ĠØ¢Ú¯ÛĴ": 2638,
      "Ø®Ø·": 2639,
      "ĠØ¨ÙĨÙĨÛĴ": 2640,
      "ĠÚ¯ÙĪØ±ÙĨØ±": 2641,
      "ĠÙħØ²Ø§ØŃ": 2642,
      "Ù¾ÙĪÙĦÛĮØ³": 2643,
      "ĠÛģÙĪØ¬": 2644,
      "ØªÙĪ": 2645,
      "Ø§Ø¤Ø³": 2646,
      "Ø®ÛĮ": 2647,
      "ik": 2648,
      "ÙĦÛĮÙħÛĮ": 2649,
      "ĠØ³ÙĦÛĮÙħ": 2650,
      "ĠØªØ¨Ø§Ûģ": 2651,
      "ĠÚ¯Ø§ÚĳÛĮ": 2652,
      "ĠØ´Ø§Ø¹Ø±": 2653,
      "Ø§ÙħØ±ÛĮ": 2654,
      "ĠÙģÙĦÙħÛĮ": 2655,
      "ĠÚ¯ÙĦÙĪ": 2656,
      "ĠØ³Ø§ÙħÙĨØ§": 2657,
      "ĠÙħØŃØ¯": 2658,
      "ĠØ®Ø§ÙĦ": 2659,
      "ÙĦØ±": 2660,
      "Ġ2010": 2661,
      "ĠØ³ÙħØ§Ø¹Øª": 2662,
      "ĠØ¯ÛĮÙĨ": 2663,
      "ĠÙ¾ÛĮÙħ": 2664,
      "ĠÙĪØºÛĮØ±Ûģ": 2665,
      "ĠÙģÙĪÙĨ": 2666,
      "tp": 2667,
      "ĠÚ¯Ø§Ûģ": 2668,
      "ĠØ¨ÛĮÙ¹ÛĮ": 2669,
      "ĠÙĪØ·ÙĨ": 2670,
      "ĠØŃÛĮØ¯Ø±": 2671,
      "ĠâĢĻâĢĻ": 2672,
      "ĠØ§Ø¯Ø¨": 2673,
      "Ø¹Ø§Ùħ": 2674,
      "ÙĪØ§Ø¬": 2675,
      "Ø²ÙħØ§ÙĨ": 2676,
      "ĠÙħÛĮØ±ÛĴ": 2677,
      "ĠØºÙĦØ§Ùħ": 2678,
      "ĠØªØ±Ø¨": 2679,
      "//": 2680,
      "ĠÛģÙĨØ¯ÙĪØ³ØªØ§ÙĨÛĮ": 2681,
      "ĠØ³ÛĮÙĨÙ¹": 2682,
      "ĠØ¬ÛĮÙĦ": 2683,
      "ĠÙħÛĮØ§Úº": 2684,
      "ĠØ§ØŃØªØ¬Ø§Ø¬": 2685,
      "ĠÙħØ´ØªØ±Ú©Ûģ": 2686,
      "ĠÙħØ¬Ú¾ÛĴ": 2687,
      "http": 2688,
      "ĠØ³ÙĨÛĮ": 2689,
      "ĠØ§ÙĨÚ¯Ø±ÛĮØ²": 2690,
      "ĠÙħØ±Ú©Ø¨": 2691,
      "ÙĦØ§ÛģÙĪØ±": 2692,
      "Ø´Ø±": 2693,
      "ÛĮØ¯Ûģ": 2694,
      "Ø¨ØŃ": 2695,
      "://": 2696,
      "ĠØ¨Ø±ÙĪ": 2697,
      "ct": 2698,
      "ÙĪÙĦÛĮØª": 2699,
      "ĠÚ©ÛĮÙĪÚº": 2700,
      "ĠØ³Ø§Ø²ÛĮ": 2701,
      "ÛĮÙĨÚ©": 2702,
      "ĠÙ¾Ø§Ø¦ÛĮ": 2703,
      "ĠÙħØ¹Ø§ÛģØ¯": 2704,
      "ĠÙĦÛģ": 2705,
      "ĠÚ¯Ø°": 2706,
      "ilway": 2707,
      "Ġ2021": 2708,
      "ĠØ³Ø§ÙĦÙħ": 2709,
      "ĠØ®ÛĮØ¨Ø±": 2710,
      "ĠØ§ÙĪØ³Ø·": 2711,
      "Ø§Ú©Ø±Ø§Øª": 2712,
      "ĠØ¯ÙĪØ³Øª": 2713,
      "ĠØ§Ø±Ú©": 2714,
      "ĠÛģÛĮØ±": 2715,
      "ÙĪØ·": 2716,
      "ĠØ§Ø¹Ø²Ø§Ø²": 2717,
      "ÙħÛĮÙĦ": 2718,
      "ÛĮÙĨØ³": 2719,
      "ĠÙĪÙĪÙ¹": 2720,
      "ĠÙ¾Ø§Ø±ÙĦÛĮÙħÙĨÙ¹": 2721,
      "Ġthe": 2722,
      "ĠÙĨÙħØ§Ø²": 2723,
      "ĠØ·Ø¨ÛĮ": 2724,
      "ØµÛĮÙĦØ§Øª": 2725,
      "ĠØ§ÛĮÚĪÛĮ": 2726,
      "Ø§Ø¨ÙĨ": 2727,
      "ØªÚ¾ÛĮ": 2728,
      "ĠØªØŃÙģØ¸": 2729,
      "ĠÙĦØ§": 2730,
      "ĠØ¢Ø±ÙħÛĮ": 2731,
      "ĠØ§ÙĦÙĨ": 2732,
      "45": 2733,
      "ĠØ±Ø§Ûģ": 2734,
      "ĠØ®Ø§ÙĨÛģ": 2735,
      "ĠØ§ÙĦØ²Ø§Ùħ": 2736,
      "ĠØ³ÙħØ§Ø¬ÛĮ": 2737,
      "ĠÙħÙĨØ¸ÙĪØ±": 2738,
      "Ø§Ø¦Ø³": 2739,
      "ĠØ±ÛģÙĨÛĴ": 2740,
      "ĠØªØ¹ÙĦÛĮÙħÛĮ": 2741,
      "ĠÛģÙĪØ¦ÛĮÚº": 2742,
      "75": 2743,
      "ĠÚĪÙĪÛĮÚĺÙĨ": 2744,
      "Ġin": 2745,
      "Ø§ØŃØª": 2746,
      "ĠØ¨ÙĪ": 2747,
      "ĠØŃØ§ÙĦØª": 2748,
      "Ġ2009": 2749,
      "ĠØ®Ø¯Ø§": 2750,
      "ĠØ§ÙĦØŃÙĤ": 2751,
      "ÙĨÚ¯ÛĮ": 2752,
      "ĠÙ¾Ø§Ø¨ÙĨØ¯ÛĮ": 2753,
      "ĠØ·Ø§ÙĦØ¨": 2754,
      "ĠÛģÙĦ": 2755,
      "ĠØ¯ÛģØ´ØªÚ¯": 2756,
      "ĠØ³ÙĦ": 2757,
      "Ø³ÛĮØ±": 2758,
      "ĠÛĮÙĪØ³Ùģ": 2759,
      "ĠÛģÙħÛĮÚº": 2760,
      "Ø¯Ø¯": 2761,
      "ĠÚ¯ÛĮØ³": 2762,
      "ĠØ®ÙĪØ±": 2763,
      "Ù¾ÙĨÚĪÛĮ": 2764,
      "ĠØ§Ø«Ø±": 2765,
      "ĠÙĪØ§ÙĤØ¹Ûģ": 2766,
      "ĠÚ©ÙĨÙ¹Ø±ÙĪÙĦ": 2767,
      "ĠØ¯ÙĪØ±ÛĴ": 2768,
      "Ø§Ø¹Ø¯Ûģ": 2769,
      "85": 2770,
      "ĠØ¯ÙĪØ³Ø±Ø§": 2771,
      "ĠÙģØ±ÙĪØº": 2772,
      "ĠØ³ÙĨÚĨØ±ÛĮ": 2773,
      "ĠØ·Ø§ÙĦØ¨Ø§ÙĨ": 2774,
      "Ø¯ÛĮÙĦÛĮ": 2775,
      "ĠÙģØ§Ø¦ÙĨÙĦ": 2776,
      "Ø¨Ø§Ø²": 2777,
      "ÙĦØŃ": 2778,
      "ĠÙĨÙĪØ±": 2779,
      "ĠÙħØŃÚ©": 2780,
      "ĠØ³ÙĦØ³ÙĦÛĴ": 2781,
      "ØªÙģ": 2782,
      "Ġ2012": 2783,
      "Ġstation": 2784,
      "Ú¾ÛĮÚº": 2785,
      "ĠÙħÙĨØµÙĪØ¨ÛĴ": 2786,
      "ĠÙħØ±ØªØ¨Ûģ": 2787,
      "Ø¬Ø²": 2788,
      "ĠØ¢Ø¦Ø±": 2789,
      "ĠØ§Ø±Ú©Ø§ÙĨ": 2790,
      "ĠU": 2791,
      "ÙĦÛĮÙĦ": 2792,
      "35": 2793,
      "ĠØ´Ø±ÛĮÚ©": 2794,
      "ØªÙħØ§Ùħ": 2795,
      "ĠÙĨÙĤØ·": 2796,
      "ĠØ¬ÙħÛģÙĪØ±ÛĮÛģ": 2797,
      "ĠÚĨÛĮØ²": 2798,
      "ĠÙĪØ§ÙĤØ¹Ø§Øª": 2799,
      "ĠØ³Ø±ØŃØ¯": 2800,
      "ĠÙħØ¶Ø¨ÙĪØ·": 2801,
      "Ø§Ø±Ø§Øª": 2802,
      "ĠÛģÙĪÚ¯Ø¦ÛĴ": 2803,
      "ĠØ¬Ø¯": 2804,
      "ĠØ±Ø¶Ø§": 2805,
      "95": 2806,
      ")ÛĶ": 2807,
      "ÛģØ±ÛĮ": 2808,
      "hi": 2809,
      "ĠÚ©ÛĮØ±ÛĮØ¦Ø±": 2810,
      "ĠÚ©Ú¾ÙĦØ§ÚĳÛĮÙĪÚº": 2811,
      "ĠØµÙĪØ¨ÛĴ": 2812,
      "ĠØ³Ø¹ÛĮØ¯": 2813,
      "ĠØ§ÛĮØ¦Ø±": 2814,
      "ĠÙĦØ¨": 2815,
      "ĠØ²Ø±Ø¯Ø§Ø±ÛĮ": 2816,
      "ĠÙĤÙĦØ¹": 2817,
      "ĠÙĨÙħØ§Ø¦ÙĨØ¯Ú¯ÛĮ": 2818,
      "Ġc": 2819,
      "ĠØ§ÛĮÙ¹Ùħ": 2820,
      "ĠØ§Ø¨Ú¾ÛĮ": 2821,
      "ĠÙħØ³Ø¦ÙĦÛģ": 2822,
      "ĠÙħØ³Ø§ÙģØ±ÙĪÚº": 2823,
      "ÙĪÙĦÙ¾ÙĨÚĪÛĮ": 2824,
      "ĠÚ©ÙħÛĮÙĪÙĨ": 2825,
      "ĠØ±ÛģÙĨÙħ": 2826,
      "ĠØ°Ø±Ø§Ø¦Ø¹": 2827,
      "ĠØ¨ÛĮÙĦ": 2828,
      "ĠÙĪØ§ØŃØ¯": 2829,
      "ĠÙħÛĮØ¯Ø§ÙĨ": 2830,
      "ĠÚĨØ§ÛģØªÛĴ": 2831,
      "Ġ2020": 2832,
      "Ø¯ÙĪØ³": 2833,
      "ĠØ¨ÙĦÛĮ": 2834,
      "ĠÙħØ±ØŃ": 2835,
      "ÚĪÙĨÚ¯": 2836,
      "ĠØ´Ø§ÙĨ": 2837,
      "ĠÛģÙħÛĮ": 2838,
      "ĠØ¬ÙĨÙĪØ¨": 2839,
      "ĠØµÙĦÛĮ": 2840,
      "Ø³Ù¹Ø±ÛĮ": 2841,
      "ĠÙ¾ÛĮØ¯Ø§Ø¦Ø´": 2842,
      "ĠÙģÙĪØ±ÛĮ": 2843,
      "ĠØ§ÙĤÙĪØ§Ùħ": 2844,
      "ĠÙħØŃÚ©ÙħÛģ": 2845,
      "ĠØªØ¹ÛĮÙĨ": 2846,
      "96": 2847,
      "ĠÙħØ§ÚĪ": 2848,
      "ĠÚĪÚ¯Ø±ÛĮ": 2849,
      "Ø§ÛģØ¯Ûģ": 2850,
      "ĠØ¨ÛĮØ³": 2851,
      "ĠÙĨÚ©ÙĦ": 2852,
      "Ġ2011": 2853,
      "ĠÙħØŃØ¨Øª": 2854,
      "ĠØ¨Ø®Ø´": 2855,
      "ĠÙħØ°Ø§Ú©Ø±Ø§Øª": 2856,
      "ĠØ¯Ú©Ú¾Ø§Ø¦ÛĴ": 2857,
      "ÙħØ¹": 2858,
      "86": 2859,
      "ĠØ¯Ø§Ø¦Ø±": 2860,
      "ĠÙģÙĦÙħÙĪÚº": 2861,
      "ĠØ§Ø³Ø±Ø§Ø¦ÛĮÙĦ": 2862,
      "ĠØ§ÙĦØ±ØŃÙħÙĨ": 2863,
      "ĠÙħÙĪØ¶": 2864,
      "ĠÚĨÛĮÙħÙ¾Ø¦ÙĨ": 2865,
      "Ù¹Ø±Ø²": 2866,
      "ĠØ¹ÙĪØ±Øª": 2867,
      "ew": 2868,
      "Ø°Ø§": 2869,
      "ĠØªØ¨Ø¯ÛĮÙĦÛĮ": 2870,
      "ÚĨØ§": 2871,
      "ĠØ®ÙĪØ¨": 2872,
      "ĠØ³ÛĮÙĨÛĮ": 2873,
      "ÙĨÛĮØ§": 2874,
      "ĠÙħÙĨØ¹ÙĤØ¯": 2875,
      "ĠÚĨÛĮÙĨÛĮ": 2876,
      "ÙĪØ±ÙĪÚº": 2877,
      "ĠØªØ±Ø¨ÛĮØª": 2878,
      "ĠØ§Ø¦": 2879,
      "ĠØ¯Ø±ÙĪ": 2880,
      "ÙģØ§Ø¸": 2881,
      "ĠÚ©Ø§ÙĨÚ¯": 2882,
      "ĠÙ¾ÙĪØ±ÛĴ": 2883,
      "ĠÚĨÙĦØ§": 2884,
      "ĠÚĨÛĮØª": 2885,
      "ĠØ³Ø±ÙĪØ³": 2886,
      "Ġ100": 2887,
      "ĠÛĮÚ©": 2888,
      "ÚĨÚ¾Ø§": 2889,
      "ĠØ¦": 2890,
      "ÙĤØ±Ø§Ø±": 2891,
      "ĠØŃÚ©ÙħØ±Ø§ÙĨ": 2892,
      "ĠÛĮÛģÛĮ": 2893,
      "ber": 2894,
      "ĠÙ¾Ø±ÛĮØ³": 2895,
      "ĠÚ¯ÛĮÙĦ": 2896,
      "ĠÙĪÙĦ": 2897,
      "ÛĮÙħØ²": 2898,
      "ĠÚ©ÙĪÚĨ": 2899,
      "34": 2900,
      "ĠØ§ÙģÙĪØ§Ø¬": 2901,
      "ĠØ¹Ø±Ø§ÙĤ": 2902,
      "ĠÚ¯Ø²Ø´ØªÛģ": 2903,
      "Ù¾ÙĦ": 2904,
      "ĠÙĤØ¨ÛĮÙĦ": 2905,
      "ÙģØ§ÙĤ": 2906,
      "ĠÙĪÛĮÚº": 2907,
      "Ġm": 2908,
      "ÙĦØ³ÙĦ": 2909,
      "84": 2910,
      "ĠÚ©ÛĮØ±": 2911,
      "ĠØ±ÛĮÙ¹": 2912,
      "ĠÛģÙħÛĮØ´Ûģ": 2913,
      "Ġ2007": 2914,
      "ĠØ¨ÛĮÙ¹Ú¾": 2915,
      "ĠØ§ÙĨØ³Ø§ÙĨ": 2916,
      "ak": 2917,
      "ĠØ¹Ø·": 2918,
      "ĠØ·ÙĪÛĮÙĦ": 2919,
      "87": 2920,
      "Ú¾Ùħ": 2921,
      "ĠÛģØ§Ø¤Ø³": 2922,
      "Ø§ÙĦÙĪØ¬ÛĮ": 2923,
      "ĠØ¹ÛĮØ³": 2924,
      "ĠÙĤØ¨Ø±": 2925,
      "ĠÛĮÙĤÛĮÙĨ": 2926,
      "Ø²Ø§Ø¯": 2927,
      "ww": 2928,
      "ĠØ¹Ø¨Ø§Ø³": 2929,
      "ĠØ¹ÛģØ¯ÛĴ": 2930,
      "Ø¯Ø³": 2931,
      "ĠÙĨØ´Ø§ÙĨ": 2932,
      "ĠØ§ÛĮØ¬ÙĨØ³ÛĮ": 2933,
      "ĠÚĪØ±Ø§ÙħØ§": 2934,
      "36": 2935,
      "Ø±Ø§Ø¬": 2936,
      "ĠØ¯ÛĮÛģÛĮ": 2937,
      "ĠØ³ÙħØ¬Ú¾Ø§": 2938,
      "ĠÙħØ®Ø§ÙĦÙģ": 2939,
      "ĠØ´Ø±ØŃ": 2940,
      "Ġ40": 2941,
      "ĠÙ¾ÛĮØ³": 2942,
      "ĠÙģØ§Ø±ÙħÙĪÙĦØ§": 2943,
      "Ø¨ÙĪØª": 2944,
      "94": 2945,
      "97": 2946,
      "ĠØ´Ø®ØµÛĮØª": 2947,
      "ĠØ¢ØµÙģ": 2948,
      "Ù´": 2949,
      "Ġ.": 2950,
      "ĠØ±ÙģØª": 2951,
      "ĠØªØ¬Ø§Ø±Øª": 2952,
      "ÙĨØ§Ùħ": 2953,
      "Ø§Ø¯Ø«": 2954,
      "ĠÙ¾ÚĳØ§": 2955,
      "Ġ2022": 2956,
      "ĠØ±ÛĮÙĨØ¬": 2957,
      "ĠØ§ÛĮÚ©Ø´ÙĨ": 2958,
      "ĠÙĦÙģØ¸": 2959,
      "ĠØ³Ø±ÙħØ§ÛĮÛģ": 2960,
      "ĠØ³ÚĳÚ©": 2961,
      "ĠØ®Ø²": 2962,
      "ĠÙħØ§ÙĦÚ©": 2963,
      "ĠØ§ÙĨØªØ¸Ø§ÙħÛĮÛģ": 2964,
      "ĠØµÙĪØ±ØªØŃØ§ÙĦ": 2965,
      "ÙħØ¨Ø¦ÛĮ": 2966,
      "ĠØ³Ø§ÙĦÙħØ§ØªÛĮ": 2967,
      "ĠÙħÙĨØ¯Ø±": 2968,
      "Ø§Ø´ÛĮ": 2969,
      "ĠÚ©ÙħÛĮØª": 2970,
      "ĠÙ¾ÛĮÙĨ": 2971,
      "ĠØ¢Ø¦ÙĨØ¯Ûģ": 2972,
      "ĠØ§ÙĨÙĤÙĦ": 2973,
      "ĠÙħØ¯Ø±": 2974,
      "ĠØ¹ÙĦÙħÛĮ": 2975,
      "ĠØ§ÙĨÚ©Ø§Ø±": 2976,
      "Ø§Ø¦ÛĮÙĪ": 2977,
      "ĠØ¹ÙĦÙħØ§": 2978,
      "Ø¨ÙĪØ±": 2979,
      "ĠÚĨÚ©Ø§": 2980,
      "ĠÙħØ´Ø±ÙĤ": 2981,
      "ĠØ¨ÙĨØ§Ø¦ÛĮ": 2982,
      "Ø§ÛĮÙħ": 2983,
      "ĠØ³Ù¾Ø±ÛĮÙħ": 2984,
      "ĠÙĨÙĤÙĦ": 2985,
      "ĠÙħØ«Ø§ÙĦ": 2986,
      "ĠØ§ÙĪÙĪØ±": 2987,
      "ĠÙ¾Ø§ÙĦ": 2988,
      "Ø³Ù¾ÛĮ": 2989,
      "ĠØ±ÙĪØ³ÛĮ": 2990,
      "ĠØ§Ú©ÛĮ": 2991,
      "37": 2992,
      "ĠØ¹ÙħÙĦÛĮ": 2993,
      "ĠØ¬Ø§Ø±Ø¬": 2994,
      "ĠØ¨Ø§ÙĤ": 2995,
      "ĠØ²ÙĪØ±": 2996,
      "Ø¨Ø±ÛĮ": 2997,
      "ĠØ¨Ø§Ø¤": 2998,
      "ĠØ³Ø§ØªÚ¾ÛĮ": 2999,
      "ĠÚ©Ùĩ": 3000,
      "ĠÙħØ±Ø§Ø¯": 3001,
      "ĠÚ©Ø«": 3002,
      "ĠÙħØ§ÚĪÙĦ": 3003,
      "ĠÙĪØ³Ø·ÛĮ": 3004,
      "ĠØ±Ø§Ø³": 3005,
      "ĠÚ©Ø±Ù¾": 3006,
      "ĠÚ©ÛĮÙħÙ¾": 3007,
      "ÙħÛĮÙĪÚº": 3008,
      "ir": 3009,
      "ow": 3010,
      "Ø¨Ø§": 3011,
      "ĠÙĨØ§ÙĪÙĦ": 3012,
      "ĠØ¯Ø´ÙħÙĨ": 3013,
      "ĠÚĨÚ¾ÙĪÙ¹ÛĴ": 3014,
      "ĠÙħØ¹Ø§ÛģØ¯ÛĴ": 3015,
      "ĠØ±ÙĪØŃ": 3016,
      "ĠÙ¾ÙĦØ§ÙĨ": 3017,
      "ĠØ±Ú©Ú¾ØªØ§": 3018,
      "ÚĳÙĪÚº": 3019,
      "ÛĮØŃ": 3020,
      "Ġï·º": 3021,
      "Ú©ÛĮØ´ÙĨ": 3022,
      "ity": 3023,
      "ĠØ¢ÙĪØ§Ø²": 3024,
      "ÙĨØ¯ÙĪÚº": 3025,
      "Ø§Ø³Ùħ": 3026,
      "ĠÙħÙĪÙĦØ±": 3027,
      "ĠÙħÙĨÚ¯": 3028,
      "ers": 3029,
      "ĠÙ¾ÙĪØ±Ø§": 3030,
      "ÙĪØ±ÛĮØª": 3031,
      "ĠÙ¾Ø§": 3032,
      "Ú©Ø³ÛĮ": 3033,
      "ĠØ§ÙĤØªØ¯Ø§Ø±": 3034,
      "98": 3035,
      "ĠØ¢Ø¦ÛĮÙĨ": 3036,
      "ĠØµÙĨØ¹Øª": 3037,
      "ĠÙģÛĮØµÙĦÛĴ": 3038,
      "ĠØ¯Ø³ØªÛĮ": 3039,
      "ĠÚ©ÛģØ§ÙĨÛĮ": 3040,
      "Ù¾ÙĪØ±ÛĮ": 3041,
      "ĠÙ¾Ø±ÙĪÙģ": 3042,
      "ĠØ³Ø±Ú¯Ø±Ùħ": 3043,
      "Ø¨Ø§ÙĨÛĮ": 3044,
      "ĠØªØ¹Ø§ÙĦÛĮ": 3045,
      "ĠØ®ÙĪØ§Ø¬Ûģ": 3046,
      "Ġs": 3047,
      "ĠÂ": 3048,
      "ĠØ§ÛĮØ±Ø§ÙĨÛĮ": 3049,
      "Ø²ÙĦ": 3050,
      "65": 3051,
      "ĠØ¨ÛĮÙħ": 3052,
      "ĠØµÙĦØ§ØŃÛĮØª": 3053,
      "ĠÙģÙĪØ±Ø³Ø²": 3054,
      "Ø¹ÙħØ±": 3055,
      "ĠØ§Ø®ØªÙĦØ§Ùģ": 3056,
      "ĠÙħÙĦÛĴ": 3057,
      "ĠØ¨Ø±ÙĤØ±Ø§Ø±": 3058,
      "ĠÚ©ÙĪÙĦ": 3059,
      "ĠÙħØ±ÛĮ": 3060,
      "ÙģØªØ±": 3061,
      "ĠØ±ÙĤÙħ": 3062,
      "Ø§ÙĦØŃ": 3063,
      "ĠØ³ÙĦØ§Ùħ": 3064,
      "ĠØ¬Ø°": 3065,
      "ĠØ±Ú©": 3066,
      "ĠØ§ÙĨÚĪÛĮØ²": 3067,
      "ĠØªØ³ÙĦÛĮÙħ": 3068,
      "ÛĮØ§Ûģ": 3069,
      "ĠÙħÙĪØ¶ÙĪØ¹": 3070,
      "ÙĪÙħØªÛĮ": 3071,
      "ĠÚĨØ±": 3072,
      "ÙģÙĪØ±ÚĪ": 3073,
      "ĠØ§Ú¯ÙĦÛĴ": 3074,
      "ÙĤØ§": 3075,
      "ĠÚ©Ø±ÙĨ": 3076,
      "ĠÙĨØ¬ÛĮ": 3077,
      "Ø°Ûģ": 3078,
      "ĠØ¬ÛģØ§Ø²": 3079,
      "ĠÚ©ÙĪÙĨ": 3080,
      "ØµÙĪÙĦ": 3081,
      "ĠÙ¾Øª": 3082,
      "Ġf": 3083,
      "Ú©Ø±ÛĮ": 3084,
      "ĠØ§ÛĮØ¬": 3085,
      "ÙĤÛĮÙĨ": 3086,
      "Ú¯Ø§ÙĨ": 3087,
      "ĠØªØŃÙĤÛĮÙĤØ§Øª": 3088,
      "um": 3089,
      "ĠØ§ÙĦØ³ÙĦØ§Ùħ": 3090,
      "ĠØ¨ÛĮÙĪÛĮ": 3091,
      "ĠÚ©Ú¾ÛĮÙĦÛĮ": 3092,
      "ĠØ¬Ø§ÙħØ¹": 3093,
      "Ø°Ø±Ø§Ø¦Ø¹": 3094,
      "ĠØ¯ÛĮÙĨØ§": 3095,
      "ĠØ¹Ø²ÛĮØ²": 3096,
      "ÚĪØ§Ú©Ù¹Ø±": 3097,
      "ĠØ¯Ú¾Ø±": 3098,
      "Ġand": 3099,
      "ĠÚ©Ø±ÙĦÛĮØ§": 3100,
      "ĠÙģÙĦØ³Ø·": 3101,
      "ĠØ¬Ø§Ø¦ÛĮ": 3102,
      "ĠÙħØ¨ÙĨÛĮ": 3103,
      "Ù¹ÚĪ": 3104,
      "Ġb": 3105,
      "ĠLine": 3106,
      "ĠÙĨØ³ÙĦ": 3107,
      "ĠØ§ÛģÙħÛĮØª": 3108,
      "ĠØ³ÙĪÙĪÛĮØª": 3109,
      "Ø§ÙĨÚ©": 3110,
      "ĠØ¨ØºØ§ÙĪØª": 3111,
      "ĠØ§ÙĦÚ©": 3112,
      "Ø´Ø±ÛĮÙģ": 3113,
      "ĠÙħØ§Ø³": 3114,
      "ÙħÙĤ": 3115,
      "ĠØ§Ø³Ú©ÙĪØ±": 3116,
      "ĠØªØ¨Ø§Ø¯": 3117,
      "ĠØ¨ÙĦÙĨØ¯": 3118,
      "ĠØ¨ÙĨÛĴ": 3119,
      "ÙĩØ§ÛĮ": 3120,
      "ĠØ³Ø§ÙĦÛģ": 3121,
      "ĠÙħØ°ÛģØ¨": 3122,
      "ÙħØ²": 3123,
      "ĠØ³Ø²Ø§": 3124,
      "ĠØ§Ø®ØªØª": 3125,
      "Ù¹ÙĨÚ¯": 3126,
      "ĠØ§Ø¹ØªØ±": 3127,
      "ĠÚ¯Ø±ÙĪÛģ": 3128,
      "ĠÙħØ¨Ø§Ø±": 3129,
      "os": 3130,
      "Ø§ÙħÙĨ": 3131,
      "ĠÙģÙĤÛģ": 3132,
      "47": 3133,
      "ÙĪÙ¹Ø±": 3134,
      "ac": 3135,
      "ÙĨÚ¯ÛĴ": 3136,
      "ĠØ°ÛĮÙĦÛĮ": 3137,
      "Ø§Ø¤ØªÚ¾": 3138,
      "ĠØ§ÙģØ³Ø±Ø§ÙĨ": 3139,
      "ĠØ²ÛĮ": 3140,
      "ĠØªÛĮÙĦ": 3141,
      "Ø§Ø±ØªÚ¾": 3142,
      "ĠØ§ÙĦØ·": 3143,
      "ĠÙħØ§Úº": 3144,
      "ĠÙĨØ¬": 3145,
      "ĠÙĤÙĪØª": 3146,
      "ĠÙ¾Ú¾ÛĮÙĦ": 3147,
      "ĠÙ¾ÙĪØ±Ù¹": 3148,
      "ÙĪØ²ÛĮØ´ÙĨ": 3149,
      "ĠÙģØ±ÙĪØ®Øª": 3150,
      "Ø´ÛĮÙĨ": 3151,
      "ÙĤØ¨ÙĦ": 3152,
      "Ú©ÙĨØ§ÙĦÙĪØ¬ÛĮ": 3153,
      "ĠÙħØºØ±Ø¨": 3154,
      "ĠØ¯Ø¹ÙĪÛĮ": 3155,
      "ĠØ±ÛĮÙĦÛĮ": 3156,
      "ĠØ³Ú©Ú¾": 3157,
      "Ø§ÙĦØ§": 3158,
      "ĠÚ¯Ø±Ùħ": 3159,
      "Ø¦ÛĮØ±": 3160,
      "ĠØ³Ø±Ø¯Ø§Ø±": 3161,
      "ĠÙĪØ³ÙĦÙħ": 3162,
      "ĠØ±ÙĪØ§ÙĨÛģ": 3163,
      "ĠÙħØ§Ø±Ú©ÛĮÙ¹": 3164,
      "ĠØ§ÙĦÙģØ§Ø¸": 3165,
      "ĠÛĮÛģÙĪØ¯ÛĮ": 3166,
      "Ø±Ø§Ùģ": 3167,
      "ĠÙĨØ§ÙħÛĮ": 3168,
      "ĠØ¬ÙħÛģÙĪØ±ÛĮØª": 3169,
      "ĠØ±ÛģØªÛĴ": 3170,
      "ĠØ³ÙĨØ¨Ú¾": 3171,
      "Ú©Ø§Ù¹": 3172,
      "Ø´Ø§ÙĨ": 3173,
      "Ø¹Ø¨Ø¯": 3174,
      "Ø´Ø§": 3175,
      "ĠØ§Ø¨Ø±Ø§Ûģ": 3176,
      "Ø§Ø¦Ø¬": 3177,
      "ĠØ¬Ø²ÛĮØ±": 3178,
      "ĠØªØ¬Ø±Ø¨": 3179,
      "ĠÛģØ²": 3180,
      "Ø§ÙĨÙĪ": 3181,
      "Ù¾Ø§": 3182,
      "ĠÛģÙħØ§Ø±ÛĮ": 3183,
      "ĠÙħÙĦÛĮÙĨ": 3184,
      "ĠØ¯ÛĮÙĪ": 3185,
      "Ø³Ûģ": 3186,
      "ÙĤØ§Ø±": 3187,
      "Ø±ÙĪÛĮ": 3188,
      "ĠØ§Ø³Ú©ÙĪ": 3189,
      "ĠÙħÙĤØ¯ÙħÛģ": 3190,
      "Ġ2006": 3191,
      "88": 3192,
      "ĠÙħØ¤": 3193,
      "ig": 3194,
      "ĠÛ": 3195,
      "ĠÙħÙĦØ²Ùħ": 3196,
      "ï®": 3197,
      "ĠØŃØ§Ø¯Ø«": 3198,
      "ĠÙĤØ§Ø¦Ø¯": 3199,
      "ÙģÙĦÙħ": 3200,
      "ĠØ°Ûģ": 3201,
      "Ø®ÙĪØ§": 3202,
      "ĠÙħØ¹ÙĦÙĪÙħØ§Øª": 3203,
      "ØµØ¯Ø±": 3204,
      "im": 3205,
      "ĠØªÙĦØ§Ø´": 3206,
      "ĠØ§Ú¯Ø±ÚĨÛģ": 3207,
      "ĠÙĨØ§ÙĤ": 3208,
      "ĠØ¯ÛĮÛģ": 3209,
      "ĠØ§Ø¨Ø±Ø§ÛģÛĮÙħ": 3210,
      "ĠÙħØ¹Ø§ÙħÙĦ": 3211,
      "Ø³Ø§ÙĨ": 3212,
      "ÙĪÙĪ": 3213,
      "ĠÚ¯Ø²Ø§Ø±": 3214,
      "ĠÚ©ÛĮÙĨÙ¹": 3215,
      "ĠÙ¾ÛĮØº": 3216,
      "ĠØ±Ø§Ùħ": 3217,
      "Ù¾Ûģ": 3218,
      "ĠÚĨÙĦÛĴ": 3219,
      "ĠØªÙĨÙĤÛĮØ¯": 3220,
      "ØµØ§Ø¯ÛĮ": 3221,
      "Ø§Ø¦ÛĮÚĪ": 3222,
      "ĠÙĤØµØ¨Ûģ": 3223,
      "ĠÙģÙĦÙħÛĮÚº": 3224,
      "ĠØ§ÙģØ³Ø±": 3225,
      "ĠÙĨÛĮØ§": 3226,
      "Ø§ÛĴ": 3227,
      "ĠØ¯ÙģØªØ±": 3228,
      "ĠØ´Ø§ÛģÛĮ": 3229,
      "ĠÙħÙĨÛĮ": 3230,
      "ĠÛģÛĮÚĪ": 3231,
      "Ø§ØªØŃ": 3232,
      "ØµÙĪØ¨": 3233,
      "ØªÙĨ": 3234,
      "ĠØ¨Ø§Ø±Ø´": 3235,
      "ĠØ¨ÛĮÙ¹Ø§": 3236,
      "ĠÙ¾ÛĮÚĨÚ¾ÛĴ": 3237,
      "ÙģÛĮÛģ": 3238,
      "Ù¹ÛĮÙĨ": 3239,
      "93": 3240,
      "ĠØ¬Ø§Ø¦Ø²Ûģ": 3241,
      "ĠÙħÙĪØ³Ùħ": 3242,
      "ĠÙĤØ±Ø¨": 3243,
      "ĠÛģØ§ØªÚ¾ÙĪÚº": 3244,
      "ĠÙħÙĦÙĪØ«": 3245,
      "ÙĦÙħØ§ÙĨ": 3246,
      "ĠØªÙĪÚĳ": 3247,
      "ĠÙħØ§Ø¦ÛĮ": 3248,
      "ĠØ±ÛĮÙĨØ¬Ø±Ø²": 3249,
      "à¥": 3250,
      "ĠØ¯Ø§Ø¯": 3251,
      "ĠØ°ÛĮÙĦ": 3252,
      "ĠÙģØ¶Ø§Ø¦ÛĮ": 3253,
      "ĠÚ©Ø§Ø±ÙĪØ¨Ø§Ø±ÛĮ": 3254,
      "https": 3255,
      "Ø¨ÙĦÛĮÙĪ": 3256,
      "ĠÙĨØ¨ÛĮ": 3257,
      "ĠØŃÙģØ§Ø¸": 3258,
      "etri": 3259,
      "ĠÙħØ§ØŃ": 3260,
      "ĠÚ©ÙħØ§ÙĨ": 3261,
      "ÛĮÙĨØ²": 3262,
      "ĠÚĨÛĮÙĦ": 3263,
      "ĠØ¬ÛĮØ³Ø§": 3264,
      "ĠÚĨÙĪØª": 3265,
      "Ġ2000": 3266,
      "ĠÙ¹Ø±ÛĮÙĨ": 3267,
      "ÙĪØ³Ù¹": 3268,
      "ĠØ¹Ø§Ø¦Ø¯": 3269,
      "ÙħØªØ§Ø²": 3270,
      "ĠØ¨ÛģÙĨ": 3271,
      "ĠÙĪØ³ÛĮØ¹": 3272,
      "ĠØ§Ø®ØªØªØ§Ùħ": 3273,
      "ĠÙģØ§Ø±Ø³ÛĮ": 3274,
      "ÙĨÛĮÙģ": 3275,
      "eved": 3276,
      "ĠÛĮÙĪØ±Ù¾": 3277,
      "ĠØ±ÙĪØ´": 3278,
      "Ø§Ø²Ø¹": 3279,
      "66": 3280,
      "ĠØ´Ø§Ø¹Ø±ÛĮ": 3281,
      "etrieved": 3282,
      "ĠÚ©ÙĪØ¦Ù¹Ûģ": 3283,
      "ÙĨÙħ": 3284,
      "77": 3285,
      "ĠØ´ÛģØ±ÙĪÚº": 3286,
      "ĠÙ¹Ø±Ø§ÙģÛĮ": 3287,
      "ĠØµØ¯Ø§Ø±Øª": 3288,
      "ĠÙħÙĦØ§Ø²ÙħÛĮÙĨ": 3289,
      "Ø³ÛĮØ¯": 3290,
      "ĠØ§ÛĮÙĪØ§ÙĨ": 3291,
      "ĠÙĪØ¶": 3292,
      "ĠØ¨Ø§Ø´": 3293,
      "Ø¨Ú¾Ø§Ø±Øª": 3294,
      "ĠÙĨØ´Ø§ÙĨÛģ": 3295,
      "ĠÛģØ¬Ø±ÛĮ": 3296,
      "ĠÚ©Ú¾ÛĮÙĦÙĨÛĴ": 3297,
      "ĠØ®Ø±ÛĮØ¯": 3298,
      "ĠØ§Ø¹Ø¯Ø§Ø¯": 3299,
      "Ġ35": 3300,
      "ĠÙħØ¹Ø§ÙħÙĦØ§Øª": 3301,
      "ÛĮØªÚ¾": 3302,
      "ĠÙĨÙĪÙ¹Ø³": 3303,
      "ĠØ¨ÛĮÚ¯": 3304,
      "Ø§ÙĦÛĮÙģ": 3305,
      "ĠÛĮÙĤÛĮÙĨÛĮ": 3306,
      "ĠÙħØ¸Ø§ÛģØ±Ûģ": 3307,
      "ĠØ§ÛĮØ´ÛĮØ§": 3308,
      "ØŃØ¶Ø±Øª": 3309,
      "ÙħÙĨÛĮ": 3310,
      "ĠÙ¾ÛĮØ´Ûģ": 3311,
      "ĠØ·ÙĦØ¨Ûģ": 3312,
      "44": 3313,
      "ĠØ§ÙĨØ¬ÛĮÙĨ": 3314,
      "ĠÚ©ÛģÛĮÚº": 3315,
      "ĠÙħØ³ÛĮØŃ": 3316,
      "ÛģØ§": 3317,
      "Ø¯ÛĮÙĤ": 3318,
      "ĠÙĦÚ¯ÛĴ": 3319,
      "th": 3320,
      "ĠÙħÙĨØ¸ÙĪØ±ÛĮ": 3321,
      "ĠØ²ÙħØ§ÙĨÛĴ": 3322,
      "ĠÙĪØ§Ø¨": 3323,
      "Ú©ÙĪØ±Ù¹": 3324,
      "Ġ31": 3325,
      "ĠØ¬Ø²": 3326,
      "ĠÛĮØ§Ø±Ú©": 3327,
      "ĠØ§Ø³ØªØ§Ø¯": 3328,
      "ĠÙģØ§Ø¦": 3329,
      "ĠRa": 3330,
      "ĠÙģØ¶ÙĦ": 3331,
      "ĠÙħØ¹Ø§ÙħÙĦÛĴ": 3332,
      "ub": 3333,
      "Ù¾ÙĨØ¬Ø§Ø¨": 3334,
      "ĠÙħØ¨Ø§Ø±Ú©": 3335,
      "ÛĶÛĶ": 3336,
      "ĠÚ©ØªØ¨": 3337,
      "ĠØ¹ÙĤ": 3338,
      "ĠØ®ÙĪÙĨ": 3339,
      "ĠØ§ÙħÚ©Ø§ÙĨ": 3340,
      "ĠÙģÛĮØµÙĦ": 3341,
      "Ø¶ÛĴ": 3342,
      "ĠØ±Ø¯": 3343,
      "ĠÙģÛĮÙĦÚĪ": 3344,
      "ĠØªØ´Ø¯Ø¯": 3345,
      "ĠØ§ÙĨÚĪÛĮØ§": 3346,
      "ĠÙħØ®ØªØµØ±": 3347,
      "ĠÙ¹ÛĮÚ©ÙĨØ§ÙĦÙĪØ¬ÛĮ": 3348,
      "ĠÙħØ¹Ø§ÛģØ¯Ûģ": 3349,
      "ĠÚ¯Ú¾ÙĨÙ¹ÛĴ": 3350,
      "ĠØ§ØµÙĦØ§ØŃ": 3351,
      "ĠØ³Ø¹Ø¯": 3352,
      "ĠIn": 3353,
      "ÛĮÙĨÙĪØ§Ø¦ÛĴ": 3354,
      "ÛĮØ§Ø¡": 3355,
      "Ø§Ø´ÙĨÚ¯Ù¹ÙĨ": 3356,
      "ÙĪÛĮÛģ": 3357,
      "Ø§ÙĪÙĦ": 3358,
      "Ø®ØªÙĪÙĨØ®ÙĪØ§": 3359,
      "ĠØ¯ÙĦÚĨ": 3360,
      "ÙĨØ§Ú©": 3361,
      "Ø§Ø³Ø¨": 3362,
      "ĠÚĪÛĮØ³": 3363,
      "Ù¹ÛĴ": 3364,
      "ĠØ´ÛģØ±ÛĮÙĪÚº": 3365,
      "ĠÙ¾ÛģÙĨÚĨØ§": 3366,
      "ĠÙħÙĦØ²ÙħØ§ÙĨ": 3367,
      "Ø¨ÛĮØ§": 3368,
      "ĠØŃÙħÙĦÙĪÚº": 3369,
      "ØªÙħØ§Ø¯": 3370,
      "ĠÙĨÛĮÙĪÛĮ": 3371,
      "ĠØ±Ø§ÙĪÙĦÙ¾ÙĨÚĪÛĮ": 3372,
      "ĠØ¨Ú¾Ø±Ù¾ÙĪØ±": 3373,
      "ĠØ´Ø¹Ø¨Ûģ": 3374,
      "ĠÛĮÙĪØ±Ù¾ÛĮ": 3375,
      "ĠØ®Ø§ØªÙħÛĴ": 3376,
      "ĠØ§Ú©ÛĮÚĪ": 3377,
      "ĠÙħØ¹Ø§Ø´ÛĮ": 3378,
      "ÙħÙĪÙĨ": 3379,
      "ĠØ§ÙĨØ¬Ùħ": 3380,
      "Ø§ÙħØª": 3381,
      "ĠØ§ÚĪØ§": 3382,
      "ĠÛĮÙĪÙħ": 3383,
      "Ø³ÙĪØ¨": 3384,
      "Ø§Ø¤ÙĨÙ¹": 3385,
      "92": 3386,
      "ĠÚ©ÛĮÙ¾": 3387,
      "ĠØ¬ÙħØ§Ø¹ØªÙĪÚº": 3388,
      "ĠCh": 3389,
      "ĠØ§ÙħØ¯Ø§Ø¯": 3390,
      "ĠØ¯Ú¾ÙħØ§Ú©ÛĴ": 3391,
      "ĠØ§ÙĦØ±": 3392,
      "ĠÚ©ÙĪÛģ": 3393,
      "ĠØ§ÙĤØªØµØ§Ø¯ÛĮ": 3394,
      "Øĵ": 3395,
      "ĠÙĪØ§ÙĦØ¯Ûģ": 3396,
      "31": 3397,
      "ĠØ¯Ùħ": 3398,
      "ĠØ·ÛĴ": 3399,
      "ĠÙħØ³ÙĦØ³ÙĦ": 3400,
      "ĠÙĨØ§Ùģ": 3401,
      "ĠØ§ÙĦÛĮÙĨÙĪØ§Ø¦ÛĴ": 3402,
      "ĠØ§Ø¯Ø¨ÛĮ": 3403,
      "ip": 3404,
      "ĠØ®ÙĪØ§ÛģØ´": 3405,
      "ĠRetrieved": 3406,
      "ĠØ¬Ø¬": 3407,
      "ĠÚĪÛĮÙħ": 3408,
      "Ø¥": 3409,
      "Ø§Ú©Øª": 3410,
      "ÚĪÛĮÙĪØ³": 3411,
      "ĠØ§Ø²Ø§Úº": 3412,
      "ĠØŃÙĤÛĮÙĤØª": 3413,
      "ĠÙħÙĨÛģ": 3414,
      "ĠØ®ÛĮØ§ÙĦØ§Øª": 3415,
      "ĠÙĪÙĪÚĪ": 3416,
      "ĠØªÙĪØ§ÙĨ": 3417,
      "Ø§ÙħÛĮÙĨ": 3418,
      "ØªØ§ØŃ": 3419,
      "ÙħÛĮÙħ": 3420,
      "Ġ2005": 3421,
      "ĠØ§ÙħØ±": 3422,
      "Ġ1990": 3423,
      "Ù¹ÙĨÛĴ": 3424,
      "ĠØ§ÙĦØŃÚ©": 3425,
      "ĠØ·Ø±Ø²": 3426,
      "ĠØ¨Ø§ÙĨÛĮ": 3427,
      "ĠØ²ÙĨØ¯Ûģ": 3428,
      "ĠÙĤÙĨØ¯": 3429,
      "ĠÙģØ±Ø§ÛģÙħÛĮ": 3430,
      "ĠØ³Ù¾Ø±": 3431,
      "ĠØ¢ØªØ§": 3432,
      "ĠØ§Ø±Ø¯": 3433,
      "ĠØ§ÙĨÚĪØ±": 3434,
      "ĠÙĨØ¸Ø±ÛĮ": 3435,
      "48": 3436,
      "ĠØªØŃØµÛĮÙĦ": 3437,
      "ĠÚº": 3438,
      "ĠÚ©Ø´ÙħÛĮØ±ÛĮ": 3439,
      "ÙĤÛĮÛģ": 3440,
      "ĠØ´ÛģØ¨Ø§Ø²": 3441,
      "Ø§ÛĮØ³": 3442,
      "Ø¯Ú¾": 3443,
      "ĠØ³ÙĨØ¯": 3444,
      "ĠÚ©ÛĮÙħ": 3445,
      "Ġ1998": 3446,
      "ĠÙħÙĦØª": 3447,
      "ĠØ³Ú©ÙĪÙĦ": 3448,
      "ĠØ¬ÙĨÚ¯ÛĮ": 3449,
      "ĠØ±Ø§Ø¨Ø·Ûģ": 3450,
      "ĠØ¹Ø±ØµÛĴ": 3451,
      "ĠØ¯ÙĪÙĦØª": 3452,
      "Ø§ÛĮÙĨ": 3453,
      "ĠØ¹Ø²": 3454,
      "ÙĪØ§Ø¦ÛĮ": 3455,
      "ĠÙĨÛĮÙĪØ²": 3456,
      "ĠÙ¹Ø±Ø§ÙĨ": 3457,
      "ÙĨØ§ÙĨÚĨÛģ": 3458,
      "Ġ1999": 3459,
      "Ø§Ø¨Ûģ": 3460,
      "ket": 3461,
      "Ù¾Ø§ÙĦ": 3462,
      "ĠÙħÙĨØ³ÙĪØ¨": 3463,
      "ĠÙħØ¯Øª": 3464,
      "ĠØ·Ø±ÛĮÙĤÛĴ": 3465,
      "ang": 3466,
      "ĠÙĨÙĪÛĮØ³": 3467,
      "ÙĦÙĪØ§ÙĨ": 3468,
      "ab": 3469,
      "ĠÙħÙħØªØ§Ø²": 3470,
      "ĠÚ©Ø±Ø±ÛģÛĴ": 3471,
      "ĠÙĪÙĦÛĮ": 3472,
      "55": 3473,
      "ĠØ¬ÛĮØªØ§": 3474,
      "ĠØªØµØ¯ÛĮÙĤ": 3475,
      "Ø§Ø¬Ø¯": 3476,
      "Ø§ÙģØªÛĮ": 3477,
      "ĠØ§Ù¹": 3478,
      "Ø¨Ø§Øª": 3479,
      "ĠØ·Ø§ÛģØ±": 3480,
      "ĠØ§ÛĮÚ©Ø³": 3481,
      "op": 3482,
      "ĠÛģØ§ÙĦ": 3483,
      "ĠÙħØªÙĨ": 3484,
      "ĠØ¢Ûģ": 3485,
      "ÙĪÙĨÚĪ": 3486,
      "ĠØ¢Ø¦ÛĮÚº": 3487,
      "ĠØ®ÛĮØ±": 3488,
      "Ø¯ÛĮØ´": 3489,
      "38": 3490,
      "ĠØ³Ø§": 3491,
      "ĠØ´ÙħØ§Ø±ÛĮ": 3492,
      "Ġïº": 3493,
      "Ġ2004": 3494,
      "ĠØ¯Ø±ÛĮØ§Ø¦ÛĴ": 3495,
      "ÙĪÛĮØ¯": 3496,
      "ĠØµØŃÛĮØŃ": 3497,
      "ĠØ§Ú©ÛĮÚĪÙħÛĮ": 3498,
      "ĠØ³ÛĮÚ©ÛĮÙĪØ±Ù¹ÛĮ": 3499,
      "ĠØ¹Ûģ": 3500,
      "ĠØ¹Ø¯Ùħ": 3501,
      "ĠÙħØ´ÛĮ": 3502,
      "ÙĪÙĨØ³": 3503,
      "ĠÚ¯Ø±Ø¯ÙĪÚº": 3504,
      "67": 3505,
      "ÙĨÚĪØ§": 3506,
      "ĠØ¬Úĳ": 3507,
      "ĠØªØµÙĪØ±": 3508,
      "ĠØ§ØµÙĪÙĦ": 3509,
      "ĠÙħØ¯ÛĮÙĨÛģ": 3510,
      "ĠØªØ±Ø¬ÙħÛģ": 3511,
      "ĠØ¨Ø±Ø§Ø¯Ø±ÛĮ": 3512,
      "ĠÙĦÚĳÚ©ÛĮ": 3513,
      "91": 3514,
      "ĠØ¬Ø¹": 3515,
      "ÙĦÛĮÚ©ÙĨ": 3516,
      "ÙĪØ±ÙĨÛĮØ§": 3517,
      "ĠØ¨Ø§Ø¦ÛĮ": 3518,
      "ĠØ¨Ø¯ÙĦ": 3519,
      "ĠÙħÙĦØªØ§ÙĨ": 3520,
      "ĠØ¯ÙĨÙĪÚº": 3521,
      "ÛĮØ±Ø§": 3522,
      "ĠØ¨Ú¾ÛĮØ¬": 3523,
      "Ø§Ø³ØªÛĮ": 3524,
      "Ø§Ø¹ÛĮ": 3525,
      "Ú©Ø±Ùħ": 3526,
      "ĠØ§Øº": 3527,
      "Ø§Ø¯Ø§Øª": 3528,
      "Ġ2023": 3529,
      "ĠÙħØ·ÙĦØ¨": 3530,
      "ĠÙħØŃØ¯ÙĪØ¯": 3531,
      "ĠÚ©Ø§Ø¨": 3532,
      "Ø²Ø§Ø¯Ûģ": 3533,
      "ĠÙĪÚ©ÛĮÙĦ": 3534,
      "ĠÚĪÛĮØ²": 3535,
      "ĠÙĨØ§Ø¦Ø¨": 3536,
      "ĠØ³Ø§ÙĦÙĪÚº": 3537,
      "Ø§Ø¦Ùģ": 3538,
      "Ø´ÛĮØ®": 3539,
      "Ø³ÙĪØ³": 3540,
      "ĠØ§ÚĨÚ¾ÛĮ": 3541,
      "ĠØ±ÙĪØ´ÙĨÛĮ": 3542,
      "ÙĨØ±": 3543,
      "ĠÙħØ¹Ø§ÙħÙĦÛģ": 3544,
      "ĠØ®Ø§ØªÙħÛģ": 3545,
      "ÚĪØ²": 3546,
      "ĠÙħØ°ÙħØª": 3547,
      "ĠØ±Ø¶ÛĮ": 3548,
      "ĠÚ©Ø±ÙĦÛĮ": 3549,
      "ĠÙħØŃÙĦ": 3550,
      "od": 3551,
      "Ø¹ÙĦÙĪÙħ": 3552,
      "ØŃØ§Øª": 3553,
      "ĠÙĨÙĤØ·ÛĤ": 3554,
      "ĠÙħÙĨØ¯": 3555,
      "ĠÙ¹ÛĮÙħÙĪÚº": 3556,
      "Ù¹Ø±ÙĨÚ¯": 3557,
      "ÙĤÙģ": 3558,
      "Ø°Ú©Ø±": 3559,
      "ĠÙĨØª": 3560,
      "Ġra": 3561,
      "ĠÛģÙģ": 3562,
      "ĠÙħØªØ¹ÙĦÙĤÛģ": 3563,
      "ĠØ·Ø±ÛĮÙĤÛģ": 3564,
      "ĠÙĨØ²": 3565,
      "ĠØ¯ÙĪÙħ": 3566,
      "Ġ1997": 3567,
      "ĠØ´Ø¯Øª": 3568,
      "ĠØ³Ú©ÛĮÙĪØ±Ù¹ÛĮ": 3569,
      "ĠÚĪØ¨ÙĦÛĮÙĪ": 3570,
      "ĠØ§ÙĨÚ¯ÙĦ": 3571,
      "ĠÙĤÛĮØ¯": 3572,
      "ĠÙħØ¹Ùħ": 3573,
      "ĠÙ¾Ø±ÙĪÚĪÛĮÙĪØ³": 3574,
      "ĠØ¨Ú©": 3575,
      "ĠØ®Ø§Ùħ": 3576,
      "ec": 3577,
      "ĠÚ©Ø±Ù¾Ø´ÙĨ": 3578,
      "ĠÙĨØ´Ø³Øª": 3579,
      "Ú©ÙĪÙĨ": 3580,
      "ĠÙĨÛĮÙ¹": 3581,
      "ĠØ®ÙĪÙģ": 3582,
      "ĠØ§ØªÙģØ§ÙĤ": 3583,
      "ĠØ¹ÙĦÙĪÙħ": 3584,
      "ĠÛģÙĨÚ¯": 3585,
      "ĠØ®Ø¯": 3586,
      "ÚĨØ§Ø±": 3587,
      "ĠØ¹Ø«ÙħØ§ÙĨÛĮ": 3588,
      "ÚĪÛĮÙĨ": 3589,
      "ĠØ§Ø¹ØªÙħØ§Ø¯": 3590,
      "78": 3591,
      "ĠStation": 3592,
      "Ġ2002": 3593,
      "ĠÙ¹Ø±ÛĮ": 3594,
      "ĠØ¹Ø«ÙħØ§ÙĨ": 3595,
      "Ø´ØªØ±": 3596,
      "ĠØ¨Ø§Ø±Ûģ": 3597,
      "ĠØ¨ØŃØ§ÙĦÛĮ": 3598,
      "ĠØ¹ÙĨÛģ": 3599,
      "ĠÚĪÛĮÙĨ": 3600,
      "Ġon": 3601,
      "ĠØ³ÙĦÙĪ": 3602,
      "ĠØŃØ¶": 3603,
      "ĠÙĪØ§Ù¾Ø³ÛĮ": 3604,
      "ĠÙħØ¬Ø¨ÙĪØ±": 3605,
      "ĠØ´ÙħÙĪÙĦÛĮØª": 3606,
      "ĠØŃÚ©ÙĪÙħØªÛĮ": 3607,
      "Ø¨ÛĮÙĨ": 3608,
      "ĠØ¢ØªÛĴ": 3609,
      "ĠØ¬Ø±ÙħÙĨ": 3610,
      "ĠÚ¯Ø±ÛĮÙĨ": 3611,
      "ĠÙĪØ²ÛĮØ±Ø§Ø¹ÙĦÛĮ": 3612,
      "Ø¨ÙĪÚº": 3613,
      "Ø§Ø¨ÛĮÙĨ": 3614,
      "ĠÛģØªÚ¾ÛĮ": 3615,
      "ĠÙĦÚ¯Ø§ÛĮØ§": 3616,
      "ĠÙ¾Ø±ÙĪÙģÛĮØ³Ø±": 3617,
      "org": 3618,
      "ĠØ¨Ø§Ø¦ÛĮÚº": 3619,
      "46": 3620,
      "ĠØ®ÙĦ": 3621,
      "ĠØ¨ÛĮÙ¹ÙĨÚ¯": 3622,
      "ill": 3623,
      "Ø´ÙĪØ±": 3624,
      "ĠÚ¯Ø±ÙģØªØ§Ø±ÛĮ": 3625,
      "ĠÙ¾ÛĮÙħØ§ÙĨÛĴ": 3626,
      "ĠØŃØ§Ø¶": 3627,
      "ĠÙĦØ§Ø´": 3628,
      "ĠÙħÙĨÙ¹": 3629,
      "Ù¾ÙĪ": 3630,
      "ĠÛģÛĮÙĦ": 3631,
      "ĠØ¢Ø¯ÙħÛĮ": 3632,
      "ĠØªÙĪØ§ÙĨØ§Ø¦ÛĮ": 3633,
      "ĠÛģÙ¹": 3634,
      "ĠÙħÙħØ¨Ø±": 3635,
      "Ø´ÙĨØ±": 3636,
      "ĠÙħÙĦÙĨÛĴ": 3637,
      "Ú¯ÛĮØ§": 3638,
      "wik": 3639,
      "ĠØ§Ø³ÙħØ§Ø¹": 3640,
      "ĠÚ©ÙħØ§Ø±": 3641,
      "Ú©Ø§Ø±ÛĮ": 3642,
      "ĠThe": 3643,
      "ĠÚ©Ø±Ø³Ú©": 3644,
      "ĠØ³ÛĮØ±": 3645,
      "Ø§Ø¬ÙĦØ§Ø³": 3646,
      "ÙĪÙħØ§": 3647,
      "ĠØªØ¬Ø§Ø±ØªÛĮ": 3648,
      "ĠÙ¾ÚĨ": 3649,
      "ĠØ¯Ø±Ø³Øª": 3650,
      "ĠØ®Ø·ÛĴ": 3651,
      "ÙĦÛĮÙģÙĪØ±ÙĨÛĮØ§": 3652,
      "ĠÚ©Ø±ÛĮÙħ": 3653,
      "ĠÙģÙĨÚĪ": 3654,
      "ÙĪÛĮÙ¹": 3655,
      "ĠØºÙĪØ±": 3656,
      "ĠÙĨÛĮÙĦ": 3657,
      "Ø§ÙĪÛĮØ²": 3658,
      "ĠÙħÙĤØ¨ÙĪÙĦ": 3659,
      "ÙĦÛĮØª": 3660,
      "ĠÙĦØ§ÙĦ": 3661,
      "ĠÙĦØ³Ù¹": 3662,
      "Ø¨ÙĨ": 3663,
      "Ġ60": 3664,
      "ĠØŃØ§ÙģØ¸": 3665,
      "ĠÙģØ±Ø§Ø±": 3666,
      "ÙĦÙĨÚ¯": 3667,
      "ĠØ¯ÛĮØªÛĮ": 3668,
      "Ġ2003": 3669,
      "ÙĪØ²ÛĮØ±Ø§Ø¹Ø¸Ùħ": 3670,
      "76": 3671,
      "ÙħØ±Ø§Ûģ": 3672,
      "ĠÛĮØ§ÙģØªÛģ": 3673,
      "ian": 3674,
      "ĠØ¨ØºØ¯Ø§Ø¯": 3675,
      "ĠÚĨÛĮÙĦÙĨØ¬": 3676,
      "ĠØŃÙĦÙĤÛģ": 3677,
      "ĠÙħÙĪÙ¹Ø±": 3678,
      "Ġrailway": 3679,
      "ĠÙ¾ÙĪÙĦÛĮ": 3680,
      "Ø¯ÙĪØ³Ø±ÛĮ": 3681,
      "ĠØ³ÛĮÚ©ÙĪØ±Ù¹ÛĮ": 3682,
      "ĠØ§ÙĦÙĦ": 3683,
      "ĠØ§ÙģØªØªØ§ØŃ": 3684,
      "Ø¬ÛĮÙĨ": 3685,
      "ĠÙħØ¹Ø§ÙĪÙĨ": 3686,
      "Ø¬ÙĨÚ¯": 3687,
      "Ø§ÙĨÚ©Ûģ": 3688,
      "ĠØ¢Ø¦Ø±ÙĦÛĮÙĨÚĪ": 3689,
      "ĠØ§ÙĨØ¬ÛĮÙĨØ¦Ø±": 3690,
      "Ù¾ÙĪØ±Ù¹Ø³": 3691,
      "ĠÛģÙĨØ¯ÛĮ": 3692,
      "ĠØ§ÙĦØŃÚ©ÙĪÙħØª": 3693,
      "ov": 3694,
      "ĠØ³ÛĮÙħ": 3695,
      "Ø¹ÙħØ±Ø§ÙĨ": 3696,
      "ÙĪÛĮÙĨ": 3697,
      "ĠØ±Ú©Ú¾ØªÛĮ": 3698,
      "ĠØ±Ø§Ø³ØªÛĴ": 3699,
      "Ú©Ø±ÙĪ": 3700,
      "ĠØ«Ø¨ÙĪØª": 3701,
      "ĠÙħÚ©Ûģ": 3702,
      "ĠÚĪÛĮØ³Ú©": 3703,
      "ĠØ³ÙģÛĮØ±": 3704,
      "Ú¯Ú¾": 3705,
      "ĠØªØ¹Ø±ÛĮÙģ": 3706,
      "Ø³Ù¹Ùħ": 3707,
      "Ù¹Ø±ÛĮÙ¹": 3708,
      "ĠØ¨Ø±Ø§Ø¨Ø±": 3709,
      "ĠØ§ÙĪÙ¾Ø±": 3710,
      "ĠØ¨ØŃØ±Ø§ÙĨ": 3711,
      "ĠÚ¯ÙĦÛĮ": 3712,
      "ĠØ®Ø§ÙĦØ¯": 3713,
      "ĠØ§ÙĨÙĤÙĦØ§Ø¨": 3714,
      "Ø¢Ø±": 3715,
      "32": 3716,
      "ĠÚĨÙĨ": 3717,
      "ĠÙģØ§Øµ": 3718,
      "ĠÙ¾ØªÛģ": 3719,
      "Ø®ÙĪØ§Ûģ": 3720,
      "ĠÙħØ³ØªØ±Ø¯": 3721,
      "ĠØ±Ùħ": 3722,
      "ĠâĢĶ": 3723,
      "ĠÙĨÚ¯Ø±Ø§ÙĨÛĮ": 3724,
      "ĠØ¯Ø¹ÙĪØª": 3725,
      "Ġ2001": 3726,
      "ĠÙĤÙĨØ¯ÛĮÙĦ": 3727,
      "Ø³Ø¨": 3728,
      "ÙĨØ¯ÛĴ": 3729,
      "ÙĤØ¨": 3730,
      "Ø§Ú©ÛĮÙĨ": 3731,
      "ØªÛĮØ³": 3732,
      "ÚĪÙĨÛĮ": 3733,
      "ĠÛģÙģØªÛĴ": 3734,
      "ÙĪØ¨Ø§Ø¦ÙĦ": 3735,
      "ĠØ¯ÛĮØ¦ÛĴ": 3736,
      "ĠÙħØ³ØªÙĤØ¨ÙĦ": 3737,
      "Ø¹ÙĦ": 3738,
      "ÙģÛĴ": 3739,
      "Ø§ØŃÙĦ": 3740,
      "ĠÛģØ§Ø¦ÛĮÚ©ÙĪØ±Ù¹": 3741,
      "ĠÙĦÚĳØ§Ø¦ÛĮ": 3742,
      "Ø¨Ø±Ú¯": 3743,
      "ĠØ¹ÙĤÛĮØ¯": 3744,
      "Ø´Ú©": 3745,
      "ĠØ³Ø§Ø¤ØªÚ¾": 3746,
      "ÛģØ±ÛĴ": 3747,
      "Ø§ÚĳÛĮ": 3748,
      "ĠØªØµÙĪÛĮØ±": 3749,
      "ĠØªØ¬ÙĪÛĮØ²": 3750,
      "ĠÙħÛģÙħØ§ÙĨ": 3751,
      "Ø¤Úº": 3752,
      "ÙĤÙĪÙħÛĮ": 3753,
      "Ø¶Ø§ÙĨ": 3754,
      "ĠÚĨØ§ÛģØ¦ÛĴ": 3755,
      "ĠØ¹Ø¨Ø§Ø¯": 3756,
      "ĠØ³ÛĮÙĨØ¦Ø±": 3757,
      "ĠÙĤÙĦØ¹Ûģ": 3758,
      "Ø±ÛĮÙģÚ©": 3759,
      "ĠØ¹Ø³Ú©": 3760,
      "Ø·ÙĦ": 3761,
      "ĠØ§ÚĪ": 3762,
      "ĠØ¨Ø±Ø¯": 3763,
      "ĠØ´Ø±ÛĮ": 3764,
      "ĠÚ©ÛĮÙĦÛĮÙģÙĪØ±ÙĨÛĮØ§": 3765,
      "ØªÙģØµÛĮÙĦØ§Øª": 3766,
      "ĠØ¹ÙĦØ§Ø¬": 3767,
      "ĠÙ¾Ø±Ø¯ÛĮØ´": 3768,
      "ĠÙ¾ÛĮÙ¹Ø±": 3769,
      "Ø´Ø¯": 3770,
      "ØŃÚ©Ø§Ùħ": 3771,
      "ĠÙħØ§Ø¨ÛĮÙĨ": 3772,
      "ĠÙĪÙĦÛĮÙħ": 3773,
      "ĠÚ©Ø±ÙĨÛĮ": 3774,
      "ĠØ®ÙĦÛĮÙģÛģ": 3775,
      "ĠØ§ØªØ±": 3776,
      "ĠØ§Ù¾ÙĪØ²ÛĮØ´ÙĨ": 3777,
      "ĠÙĦÚ©Ú¾ÛĮ": 3778,
      "ĠØªÛĮØ§Ø±ÛĮ": 3779,
      "ĠÙĪÙģØ¯": 3780,
      "ĠÙģØ§Ø¦Ø¯Ûģ": 3781,
      "ĠØ¯ÛĮÙĨÛĮ": 3782,
      "57": 3783,
      "ĠØºØ±ÛĮØ¨": 3784,
      "ĠÙĨÛģØ§ÛĮØª": 3785,
      "39": 3786,
      "og": 3787,
      "ĠØ¯ÛĮØ±": 3788,
      "ÛĮØ±Ø§ÙĨ": 3789,
      "ĠÚ©ÛĮÙĨ": 3790,
      "ĠØ³Ú©ÛĮÚº": 3791,
      "89": 3792,
      "ĠØ§ÙĨØ¹Ø§Ùħ": 3793,
      "ĠØ¨ØŃØ«": 3794,
      "ĠÛģÙĦØ§": 3795,
      "ard": 3796,
      "Ø§Ø¦ÚĪ": 3797,
      "ĠØ´Ùģ": 3798,
      "ricket": 3799,
      "Ø±ÙĪÙħ": 3800,
      "ÚĨÙĦ": 3801,
      "ĠÙħÙħØ¨Ø¦ÛĮ": 3802,
      "Ø¬Ø¨Ú©Ûģ": 3803,
      "ĠÙħØ±Ø²": 3804,
      "ĠØµØ¨ØŃ": 3805,
      "ĠÙĨØ¨": 3806,
      "ĠØ«ÙĤØ§ÙģØªÛĮ": 3807,
      "ĠØ¯Ø³ØªÛĮØ§Ø¨": 3808,
      "Ø§ÙħØ±ÛĮÚ©ÛĮ": 3809,
      "ÙģØ±ÛĮ": 3810,
      "Ø³Ù¹ÙĨ": 3811,
      "Ø±ÛĮØ±ÛĮ": 3812,
      "ĠØ¬Ø§Ø³": 3813,
      "ĠÙĦÙĪÙ¹": 3814,
      "ĠÙħØ³ÙĦØŃ": 3815,
      "ĠØ¬Ø³Ùħ": 3816,
      "ĠØ´Ø§": 3817,
      "ĠØ§ÛģØªÙħØ§Ùħ": 3818,
      "Ø§Ø±ÛĮÛģ": 3819,
      "ĠØ´ÙĨØ§Ø®Øª": 3820,
      "ĠØ§Ø¹Øª": 3821,
      "ĠØ¨ÙĦØ¯ÛĮÛģ": 3822,
      "Ġ1996": 3823,
      "ĠÚ¯Ø²Ø±": 3824,
      "ĠØ¢Ùħ": 3825,
      "ĠØªÛĮØ³Ø±ÛĴ": 3826,
      "ĠØ§ÛĮÚ¯": 3827,
      "Ú©ÚĨØ±": 3828,
      "ĠØ¯ÛģØ´ØªÚ¯Ø±Ø¯ÛĮ": 3829,
      "ĠÙĪØ§Ø´ÙĨÚ¯Ù¹ÙĨ": 3830,
      "Ù¾Ù¹ÛĮ": 3831,
      "ĠÙħØµÙĨÙĪØ¹": 3832,
      "ĠY": 3833,
      "ĠÙħØ¹ÙħÙĪÙĦÛĮ": 3834,
      "ÙĪØ¯Ûģ": 3835,
      "ØªØ±Ø¬Ùħ": 3836,
      "ĠØ¬ÙĨÚ¾ÛĮÚº": 3837,
      "ÙĪØ²ÛĮØ±Ø§Ø¹ÙĦÛĮ": 3838,
      "ĠÚ©ÙħØ§ÙĨÚĪØ±": 3839,
      "ĠÙĨÛĮÙĪÛĮØ§Ø±Ú©": 3840,
      "Ù¾Ø§Ø±Ù¹ÛĮ": 3841,
      "ĠØŃÛĮØ§Øª": 3842,
      "ĠØ¢ÙĨÚ©Ú¾": 3843,
      "ĠÙĪÛģÛĮ": 3844,
      "ĠÙĤØ¯Ùħ": 3845,
      "ĠØ¬Ø§ÙĨÛĮ": 3846,
      "ÙĦØ§ÙħÛĮ": 3847,
      "ĠØ±Ú©Ú¾ÛĴ": 3848,
      "ÙĩØ§": 3849,
      "ĠØ§Ø¶Ø§ÙģÛĴ": 3850,
      "ĠØªÛĮØ²ÛĮ": 3851,
      "Ġ[": 3852,
      "Ø¯Ø§Ø¯ÛĮ": 3853,
      "Ġ1991": 3854,
      "Ø¬Ø¦ÛĴ": 3855,
      "com": 3856,
      "ĠØ±ÙĨ": 3857,
      "ha": 3858,
      "Ú¯Øª": 3859,
      "ĠÚ¾": 3860,
      "ÛģØ²Ø§Ø±": 3861,
      "ĠØ±Ø´ÛĮØ¯": 3862,
      "ĠØ¨Ø±Ø§Ûģ": 3863,
      "ĠØ«ÙĤØ§ÙģØª": 3864,
      "56": 3865,
      "ĠÙ¹ÛĮÚ©Ø³Ø§Ø³": 3866,
      "ĠÛģÙĪÚ¯ÛĮØ§": 3867,
      "ĠÙĨÚ¯": 3868,
      "ĠØ³Ø§ÙĦØ§ÙĨÛģ": 3869,
      "ĠØ´ÙĪÛģØ±": 3870,
      "ÙĪÙĦÛĮØ§Øª": 3871,
      "ĠØ§ÛģÙĦÚ©Ø§Ø±ÙĪÚº": 3872,
      "ĠØ®ÙĪØ¨Øµ": 3873,
      "ĠØ³ÙĪÙĨ": 3874,
      "ĠÙĨÛĮÚĨÛĴ": 3875,
      "Ø¨Ø¹": 3876,
      "ĠØ§Ø®ØªØ±": 3877,
      "ĠÙģØ±ÙĤ": 3878,
      "ĠÙ¾ÛģÙĨÚĨÛĴ": 3879,
      "..": 3880,
      "ĠÙħÙģØªÛĮ": 3881,
      "ran": 3882,
      "ĠØªØ±Ø¬ÙħØ§ÙĨ": 3883,
      "ĠØ¨Ø²Ø±": 3884,
      "ĠØ§Ú©Ø¨Ø±": 3885,
      "Ù¾Ø³": 3886,
      "ĠØ¨Ù¹": 3887,
      "ĠØ³ÛĮÙĦØ§Ø¨": 3888,
      "ĠÙĪÛĴ": 3889,
      "ĠØ³ÛģÙĪÙĦØª": 3890,
      "ĠØ¨Ú¯": 3891,
      "ĠØ¹ÙĦØ§ÙħØª": 3892,
      "ĠØ¯ÛģØ³ØªØ§ÙĨ": 3893,
      "ĠØ§Ø®ÙĦØ§ÙĤ": 3894,
      "2015": 3895,
      "ĠØ±ÛĮÙħ": 3896,
      "ĠÙĪØ§Ø¨Ø³ØªÛģ": 3897,
      "Ø°ÛĮØ¨": 3898,
      "ep": 3899,
      "ÚĪÙĪ": 3900,
      "ĠØ¨Ø§Ø²Ø§Ø±": 3901,
      "ĠÙģØ¹Ø§ÙĦ": 3902,
      "Ú©ÙĪÙ¹": 3903,
      "ĠØ§Ø·ÙĦØ§Ø¹Ø§Øª": 3904,
      "ĠÚ©ÙħØ²": 3905,
      "ĠØ¹Ø´": 3906,
      "ĠØ¨Ø§ÙĤØ§Ø¹Ø¯Ûģ": 3907,
      "ÙĪØ¬ÛģØ¯": 3908,
      "ÙĨØ§ÙħÛģ": 3909,
      "ĠØ¹ÛĮØ¯": 3910,
      "ÛģÛĴ": 3911,
      "ĠÚĨÚ¾ÙĪÙ¹ÛĮ": 3912,
      "ĠØ¨ÛĮÚĨ": 3913,
      "ish": 3914,
      "ĠØ§Ú©Ø«": 3915,
      "ĠÙħÛĮÙĪØ²": 3916,
      "ĠÙħÙĨØµÙĪØ¨ÙĪÚº": 3917,
      "Ġ80": 3918,
      "ĠÙģÛĮÚĪ": 3919,
      "ĠØ³Ú©ÙĪØ±": 3920,
      "ÙĪØ§ÙĨÛĮÙĨ": 3921,
      "ÙĪØ¨ÙĦ": 3922,
      "ĠØªØ¨Ø§Ø¯ÙĦÛģ": 3923,
      "Ú¾Ø§Ø±": 3924,
      "Ø³Ø§Ùħ": 3925,
      "ĠÙ¾ÙĨØ§Ûģ": 3926,
      "Ġ2024": 3927,
      "ĠØ´Ø¹Ø¨ÛĴ": 3928,
      "ĠØ³Ø§ÙħØ§ÙĨ": 3929,
      "Ø§ÛĮÙĦ": 3930,
      "ĠÙĪØ§Ø¯ÛĮ": 3931,
      "ĠØ´Ø§ÛģØ¯": 3932,
      "ĠÙģÛĮØ³": 3933,
      "ĠÛģÙĪÙĨÛĮ": 3934,
      "ĠÚ©ÙħØ±": 3935,
      "ĠØ§Ø¦ÛĮØ±": 3936,
      "Ú©Ø§Ø±ÙĪÚº": 3937,
      "ĠÙ¾Ø±Øª": 3938,
      "ĠÙĪØ§ÙĦØ¯ÛĮÙĨ": 3939,
      "ĠØ¨Ø¯Ú¾": 3940,
      "ØŃØ§ÙĤ": 3941,
      "ÙħØ§ÙĦÛĮ": 3942,
      "ern": 3943,
      "ĠØ¨ÛĮÙħØ§Ø±ÛĮ": 3944,
      "ĠÙħØªØ¹Ø§Ø±Ùģ": 3945,
      "ĠØ³ÙĪØ³": 3946,
      "ĠØ§ÛĮØ³Ù¹": 3947,
      "Ø§Ø±Ø¨": 3948,
      "ĠØ¬Ø¯ÙĪØ¬ÛģØ¯": 3949,
      "ĠÙĦÛĮÚĪØ±": 3950,
      "ĠØ®ÙĦØ§ÙģØª": 3951,
      "ĠØ¬ÛĮØ³ÛĮ": 3952,
      "ĠÙħØ±Ø¯Ùħ": 3953,
      "ĠØ¯ÙĦÚĨØ³Ù¾ÛĮ": 3954,
      "ĠØ§Ø³ÙħØ§Ø¹ÛĮÙĦ": 3955,
      "ĠÙĪØ§": 3956,
      "ĠÙ¾ÛģÙĨ": 3957,
      "ĠØ±Ø§Ø³ØªÛģ": 3958,
      "ĠÚ©ÙħØ´ÙĨØ±": 3959,
      "ĠÙ¾Ø¨ÙĦ": 3960,
      "ĠÙħÛĮØ±Ø§": 3961,
      "ĠÙĨØº": 3962,
      "Ø§Ú©ÙĪ": 3963,
      "81": 3964,
      "ĠØ°Ø§ØªÛĮ": 3965,
      "ĠÙĪØ¬ÙĪØ¯": 3966,
      "ĠØ´Ø®ØµÛĮØ§Øª": 3967,
      "ĠÙħÙĤÛĮÙħ": 3968,
      "Ø¨Ú¾Ø§Ø±ØªÛĮ": 3969,
      "ĠØªØ®ÙĦÛĮ": 3970,
      "est": 3971,
      "2016": 3972,
      "ĠÙģÙĪØ±": 3973,
      "ÙĪÛĮÙĪ": 3974,
      "ĠÙħØ¹ÙĨÛĮ": 3975,
      "ĠØŃØ§ÙĦØ§ÙĨÚ©Ûģ": 3976,
      "83": 3977,
      "ĠÙħÙĪÙĨ": 3978,
      "ĠÚ¯ÚĳÚ¾": 3979,
      "ĠØ±ÙĪØ§ÛĮØ§Øª": 3980,
      "ĠØ´ÛģØ±Øª": 3981,
      "ĠØ¹ÛĮ": 3982,
      "ĠØ³ÙĪÙħ": 3983,
      "74": 3984,
      "ĠÙĨØªØ§Ø¦Ø¬": 3985,
      "ĠØ¨Ø¬Ù¹": 3986,
      "Ú©Ø´Ø§Ùģ": 3987,
      "ĠØŃÚ©ÙħØ±Ø§ÙĨÙĪÚº": 3988,
      "ĠÙĤØ§Ø¶ÛĮ": 3989,
      "ĠÙĤÙĪØ§ÙĨÛĮÙĨ": 3990,
      "ĠÙħØŃØ³ÙĪØ³": 3991,
      "ĠØ±ÙģØªØ§Ø±": 3992,
      "ap": 3993,
      "ÙħÛĮÛģ": 3994,
      "ĠØ¹ÙĦØ§ÙħÛģ": 3995,
      "ĠØ¢Ú¯Ø§Ûģ": 3996,
      "ĠÙħØ¯Ø§Ø±": 3997,
      "ĠÙĪÛĮÙĨ": 3998,
      "ĠØ´Ú©Ø§": 3999,
      "ust": 4000,
      "Ġ1993": 4001,
      "Ġl": 4002,
      "oc": 4003,
      "Ø³Ø§Ø³": 4004,
      "ĠØªÙģØ³ÛĮØ±": 4005,
      "ess": 4006,
      "ĠØ§ÙĦØ¬": 4007,
      "Ø±Ø§Ø±": 4008,
      "ĠØ±ÙĪØ§ÛĮØªÛĮ": 4009,
      "ĠÙĪÛĮÙĦØ²": 4010,
      "ĠØ§ÙĦÛĮÙĪÙĨ": 4011,
      "ĠÙħÙĦØªØ§": 4012,
      "ĠØ§ÙĦØª": 4013,
      "ĠÙħÛĮÚĪÛĮ": 4014,
      "ĠØªØ±Ø¬ÛĮ": 4015,
      "ĠÙĨÛĮØ²": 4016,
      "ĠØ³Ø¨Ø¨": 4017,
      "ĠØ¢ÛĮØª": 4018,
      "ĠØ§Ø±Ø§Ú©ÛĮÙĨ": 4019,
      "ĠÚĨÛĮÙħ": 4020,
      "ÚĪÛĮØ´ÙĨ": 4021,
      "ive": 4022,
      "Ù¾ÛĮÚ©Ø±": 4023,
      "Ø¨Ø±Ø¯": 4024,
      "ĠÙħÙĪØ§Ø¯": 4025,
      "ĠØ§Ø³ÙĦØŃÛģ": 4026,
      "ĠØºØ§ÙĦØ¨": 4027,
      "ĠØªÙĨØ§Ø²Ø¹": 4028,
      "ĠÛģÙĪÚ¯Ø¦ÛĮ": 4029,
      "ĠÙģÙĪ": 4030,
      "ĠÙģÚ©Ø±": 4031,
      "ĠÙħØ´Ú©ÙĦØ§Øª": 4032,
      "64": 4033,
      "ĠØ¹ÛĮØ³ÙĪÛĮ": 4034,
      "ÛĮØ±ÛĴ": 4035,
      "ĠØ±ÛģØ§Ø¦Ø´": 4036,
      "ĠØ¢ØªÛĮ": 4037,
      "ĠÙħØ³ØªÙĤÙĦ": 4038,
      "Ġ70": 4039,
      "ĠÙħØ¹ÛĮØ´Øª": 4040,
      "Ø³Ù¹Ø±Ú©Ù¹": 4041,
      "ĠØ§ÙĨÚĪÛĮÙĨ": 4042,
      "ĠØ±Ø®": 4043,
      "ĠÙĨØ§ÙģØ°": 4044,
      "ĠØ§ØŃÚ©": 4045,
      "ÙĦÙĪØ§ÙĨÛĮØ§": 4046,
      "ĠØ§Ø®ØªÛĮØ§Ø±Ø§Øª": 4047,
      "ĠØ³ÙģØ§Ø±Øª": 4048,
      "ĠØ¹Ø±Ùģ": 4049,
      "ary": 4050,
      "ĠÙĪØ³Ø§Ø¦ÙĦ": 4051,
      "ÙĪØ¦ÛĮ": 4052,
      "Ġà¤": 4053,
      "ĠØ¨Ø§Ù¾": 4054,
      "ĠØ§Ø³Ú©ÙĪØ§ÚĪ": 4055,
      "ĠÚĨÙĨØ§ÙĨÚĨÛģ": 4056,
      "ĠØ¨Ú¾ÛĮØ¬Ø§": 4057,
      "ĠÚ©ÙĨÛĮ": 4058,
      "ĠØ¨Øµ": 4059,
      "ĠÙĨØ§Ø±ØªÚ¾": 4060,
      "Ġ1992": 4061,
      "ok": 4062,
      "Ø§ÙĦÙĦÛģ": 4063,
      "ĠØ§Ø¶ÙĦØ§Ø¹": 4064,
      "ØºØ±": 4065,
      "ĠØ§ÙĪÙĦØ§Ø¯": 4066,
      "ĠÚ¯Ú¾Ø±ÙĪÚº": 4067,
      "ĠÙĨØµÙģ": 4068,
      "Ø¦ÙĦ": 4069,
      "Ø¹ÙĤØ§Ø¯": 4070,
      "ĠÙħØ·Ø§ÙĦØ¹Ûģ": 4071,
      "ĠØ®Ø²Ø§ÙĨÛģ": 4072,
      "ĠØŃÙģØ§Ø¸Øª": 4073,
      "ĠØŃØµÙĪÚº": 4074,
      "ĠÙħØ±ØªØ¨": 4075,
      "ĠØ³ÙĪÚĨ": 4076,
      "ĠØªÚ¾Ø§Ùħ": 4077,
      "ĠØ¬Ø§Ø±": 4078,
      "ĠÙ¾ÛģØ§Úĳ": 4079,
      "82": 4080,
      "ÙħØ¨Ø§Ø¨": 4081,
      "Ø§Ø¯Ùħ": 4082,
      "Ø°ÛĮ": 4083,
      "Ø§ØªØ±": 4084,
      "ĠÙħØ§": 4085,
      "ĠÙħØ²Ø§ØŃÛĮÛģ": 4086,
      "ĠÙħØ§ÛģØ±ÛĮÙĨ": 4087,
      "ĠÙħÙĪÙĤÙģ": 4088,
      "ĠÚ©ÙĪØ§ÙĦÛĮÙģ": 4089,
      "ĠØŃØµÙĪÙĦ": 4090,
      "ĠØ¯Ø±Ø¨": 4091,
      "av": 4092,
      "ĠØ³ÙģÛĮØ¯": 4093,
      "ĠØ¬Ø§ÙĪÛĮØ¯": 4094,
      "ĠÙ¹Ø±ÛĮÙģÚ©": 4095,
      "ÙħØ¨Ø§Ø¨ÙĪÛĴ": 4096,
      "ĠØŃÚ©ÙħØª": 4097,
      "ĠØ¯Ø³ØªØ®Ø·": 4098,
      "ĠÚ©Ø§Ø¨ÛĮÙĨÛģ": 4099,
      "ĠØ®Ø§ÙĨØ¯": 4100,
      "ĠÚĨØ§ÛģØªØ§": 4101,
      "ĠØ®ÙģÛĮÛģ": 4102,
      "ÙĪÙĪØ§": 4103,
      "ĠØ¨Ø²Ø±Ú¯": 4104,
      "ĠÚĨÛĮÚ©": 4105,
      "ug": 4106,
      "ĠÙ¾ÙĨØ³": 4107,
      "ĠØªØ¹ÛĮÙĨØ§Øª": 4108,
      "ĠÙħÙĪØ¨Ø§Ø¦ÙĦ": 4109,
      "ĠØªØ®Øª": 4110,
      "ĠØ¯Ú¾ÙħØ§Ú©Ûģ": 4111,
      "²Û": 4112,
      "ĠÙħÛĮØ³": 4113,
      "ĠØ§ÙĦØµ": 4114,
      "ĠØ³Ø§Ø²Ø´": 4115,
      "ĠÚĨØ§ÙĦ": 4116,
      "ĠØ¹Ø§ÙħØ±": 4117,
      "ĠØ¯ÛĮÚ©Ú¾ÙĨÛĴ": 4118,
      "Ú©ØªØ¨": 4119,
      "ĠÙ¾ÚĳÛĴ": 4120,
      "ÙĦÙĨ": 4121,
      "ÙħØ¬": 4122,
      "ĠØ±ØµØ¯": 4123,
      "Ø³ÛĮÙĨÙ¹": 4124,
      "Ø¢Ø®Ø±": 4125,
      "ĠÙ¾Ø²ÛĮØ±": 4126,
      "ĠÙħØ±Ø²Ø§": 4127,
      "ĠÚ©ÙĪÙ¹": 4128,
      "ĠØ¹Ø±ØµÛģ": 4129,
      "ĠÚ¯ÛĮÙĦØ§ÙĨÛĮ": 4130,
      "ĠØ§ÙĨÚ©Ø´Ø§Ùģ": 4131,
      "ĠÛĮÙĪÚº": 4132,
      "ĠØ³ÙĦØ§ÙħØªÛĮ": 4133,
      "ĠØ¹ÙĦØ§ÙĤØ§Ø¦ÛĮ": 4134,
      "ÙĪÙģØ§ÙĤÛĮ": 4135,
      "art": 4136,
      "ĠØ¨Ø®Ø§Ø±ÛĮ": 4137,
      "Ú©ÙĨÚĪ": 4138,
      "ĠÙħÙĪØ¬ÙĪØ¯Ú¯ÛĮ": 4139,
      "ĠØ¯ÛĮÙĪØ§Ø±": 4140,
      "Ø´Ùħ": 4141,
      "ÚĨÙħ": 4142,
      "ĠØ³ÛĮØ§ØŃ": 4143,
      "Ø§Ø¦ÙĦÛĮ": 4144,
      "ĠØ¨ØŃØ§ÙĦ": 4145,
      "ĠØ³Ø§ÙĨØŃÛģ": 4146,
      "ĠØ§ÙĨØ¹ÙĤØ§Ø¯": 4147,
      "ĠÚĨÚ¾ÙĪÙ¹Ø§": 4148,
      "II": 4149,
      "\"ÛĶ": 4150,
      "ĠØ§ÙĤØ¯Ø§Ùħ": 4151,
      "ĠÙĨØ³Ø¨": 4152,
      "ĠØ§Ø¬ØªÙħ": 4153,
      "ÙħØ§ÙĨÛĮÙ¹Ø±ÙĨÚ¯": 4154,
      "ĠØ¨ÛĮØ´ØªØ±": 4155,
      "ĠÙħØµÙĨÙģÛģ": 4156,
      "Ø²ÙĪ": 4157,
      "ÙģÙĦ": 4158,
      "Ø§ÙģØ±Ø§Ø¯": 4159,
      "Ø³Ø§": 4160,
      "ĠÙ¾ÙĪØ³Ù¹": 4161,
      "Ø§ÙģÙ¹": 4162,
      "ĠÛģØ§Úº": 4163,
      "ĠØ¬ÙħÛģÙĪØ±ÛĮ": 4164,
      "ĠØ²ÙħØ§ÙĨÛģ": 4165,
      "ĠØ³ÙĦÛĮÙħØ§ÙĨ": 4166,
      "ĠØ±ÛĮØ§Ø³ØªÛĮ": 4167,
      "ĠØŃØ§ÙħÙĦ": 4168,
      "ĠÙ¾ÙĨØ³ÙĦÙĪØ§ÙĨÛĮØ§": 4169,
      "ĠÛģÙħØ±Ø§Ûģ": 4170,
      "ĠÚ©Ø«ÛĮØ±": 4171,
      "ĠØ³ÛĮÙ¹": 4172,
      "ĠØ§ÙĨØ³Ù¹ÛĮ": 4173,
      "Ø²Ø¨": 4174,
      "ĠÚ©Ø§Ø±ÙĪØ¨Ø§Ø±": 4175,
      "ĠØ¹ÙĨÙĪØ§ÙĨ": 4176,
      "ĠÙĦÛĮØªÛĴ": 4177,
      "ĠØ§ÙĪÙĪÙĦ": 4178,
      "54": 4179,
      "ĠØªÙĪØ³ÛĮØ¹": 4180,
      "ĠØ§Ù¾ÛĮÙĦ": 4181,
      "ĠØŃÙĤÛĮÙĤÛĮ": 4182,
      "ÙĪØªÚ¾": 4183,
      "ĠÚ©Ø§Ø±Ú©ÙĨÙĪÚº": 4184,
      "ĠÛģÙĦØ§Ú©Øª": 4185,
      "ĠÚ©ÙħÛĮÙĪÙĨÙ¹ÛĮ": 4186,
      "ĠØµØ§Ø±Ùģ": 4187,
      "ĠØŃÛĮØ¯Ø±Ø¢Ø¨Ø§Ø¯": 4188,
      "ĠÚ©ØªØ§Ø¨ÛĮÚº": 4189,
      "ĠÙħØ¬ÙĦØ³": 4190,
      "Ø¨Ø§Ø¨": 4191,
      "ĠØ¨ÛĮØª": 4192,
      "ĠÙ¾Ø´Øª": 4193,
      "ĠÙ¾Ø§Ø¦ÛĴ": 4194,
      "ÙĪÙĦÛĮÙħ": 4195,
      "ĠÙĨÙħØ§": 4196,
      "ĠØ¨Ú¾Ø§Ø±ÛĮ": 4197,
      "ĠØ§ÛĮØªÚ¾": 4198,
      "ĠØªÛĮØ³Ø±ÛĮ": 4199,
      "ĠÙ¾ÛĮØºØ§Ùħ": 4200,
      "ÚĨÙĨ": 4201,
      "ĠÙĤØ¨Ø§Ø¦ÙĦ": 4202,
      "73": 4203,
      "ĠØªØ±ÙĤÛĮØ§ØªÛĮ": 4204,
      "ĠØ¥": 4205,
      "ĠÙ¾ÙĪØ²ÛĮØ´ÙĨ": 4206,
      "ĠÚ©Ù¾ÙĪØ±": 4207,
      "ĠØ±ÙĪÚ©ÙĨÛĴ": 4208,
      "ĠÙħØ¹Ø§Ø´Ø±ÛĴ": 4209,
      "ĠØ¬Ø§Ø±ÛģÛĮ": 4210,
      "ĠÙĦÙĪÚĪ": 4211,
      "ĠØµÙĪÙģÛĮ": 4212,
      "Ø§Ú©Ø³": 4213,
      "Â»": 4214,
      "Ø¯ÛģØ´Øª": 4215,
      "ĠØ±ÛģÙĨÙħØ§Ø¤Úº": 4216,
      "ĠÙĨØ§ÙħØ¹ÙĦÙĪÙħ": 4217,
      "ĠÙĨÙĪØ§Ø²Ø§": 4218,
      "ĠÛģØ§Ú©ÛĮ": 4219,
      "ï¯": 4220,
      "ĠØ¢Ú©Ø³": 4221,
      "ĠØ±ØµØ¯Ú¯Ø§Ûģ": 4222,
      "ĠØ±ÛģØªØ§": 4223,
      "ĠÛģØ²Ø§Ø±ÙĪÚº": 4224,
      "ĠÚ¯Ø§Ø±ÚĪ": 4225,
      "ĠØ³Ø¬": 4226,
      "ĠØ¹Ø¨Ø§Ø³ÛĮ": 4227,
      "ĠØ§ØªØŃØ§Ø¯ÛĮ": 4228,
      "ĠØ¶ÙħØ§ÙĨ": 4229,
      "ĠÙĪØ±Ø²ÛĮ": 4230,
      "ØŃÚ©Ùħ": 4231,
      "ĠØ§ÙĦÙĤØ±": 4232,
      "ÙħØ³ÙĦÙħ": 4233,
      "Ġ1980": 4234,
      "ĠØ¯Ø§Ø±Ø§ÙĦ": 4235,
      "ĠØ§Ø´Ø±Ùģ": 4236,
      "Ø·ÙĦØ§ØŃ": 4237,
      "ÙĪØ¯Ú¾Ø±ÛĮ": 4238,
      "ĠÚ©Ø§Ø±ÙĪÚº": 4239,
      "ÙİÙĳ": 4240,
      "Ø§Ø±ÙĤ": 4241,
      "ĠØ´Ø§ÙĨØ¯Ø§Ø±": 4242,
      "ĠÙħØ¹ÛĮØ§Ø±": 4243,
      "ce": 4244,
      "ĠÚ©ÙħÙ¾ÛĮ": 4245,
      "ĠØ±ÙĪØ´ÙĨ": 4246,
      "ĠÙħØ®Ø§ÙĦÙģØª": 4247,
      "Ú©ÛĮÙĪ": 4248,
      "ĠÙĦØ§ÙĨÛĴ": 4249,
      "ĠÙħØ±Ø§Ú©": 4250,
      "ÙĦÚĪ": 4251,
      "ÙĪÙĦÛģ": 4252,
      "ĠØ¬ÙĨØ³ÛĮ": 4253,
      "ĠØ§ÙĦØ´": 4254,
      "ĠÙ¾Ø±ÙĪØ§Ø²": 4255,
      "ĠÛģØ§Ø´": 4256,
      "ĠØªØ§Ø¨": 4257,
      "ÛĮÙĨÙ¹": 4258,
      "Ġ1995": 4259,
      "Ú©ØªØ§Ø¨": 4260,
      "ĠÙĨØ«Ø§Ø±": 4261,
      ").": 4262,
      "ĠÚ©ØªØ§Ø¨ÙĪÚº": 4263,
      "ĠØ¯Ø±Ø¢ÙħØ¯": 4264,
      "ĠØªØµÙĨÛĮÙģ": 4265,
      "Ø¯ÛĮÚ©": 4266,
      "ĠÚ¯ÙĨØ¬": 4267,
      "ÛĮÙĪÚº": 4268,
      "ort": 4269,
      "ØªÙħÛĮ": 4270,
      "ĠÙħÙĦØªÙĪÛĮ": 4271,
      "ĠØ°Ø®": 4272,
      "ĠØŃØµØµ": 4273,
      "ĠØ®Ø±Ø§Ø¨": 4274,
      "Ø¹ÙĪØ¯": 4275,
      "Ø¨ÙĦØ§": 4276,
      "ĠØ´ÛĮØ¹Ûģ": 4277,
      "ĠÙ¾Ø±ÙĪÚĪÛĮÙĪØ³Ø±": 4278,
      "ÙĪÙħÙĨ": 4279,
      "ĠØ³ÙĨØª": 4280,
      "79": 4281,
      "ĠÙĤÛĮÙħØªÙĪÚº": 4282,
      "Ø®Ø§ÙĨ": 4283,
      "Ø®Ø§Ø±": 4284,
      "ĠÙ¾Ø³ÙĨØ¯ÙĪÚº": 4285,
      "ĠÙģØ§Ø±ÙĪÙĤ": 4286,
      "ÛĮÙħÙĨ": 4287,
      "Ø¢Ø¬": 4288,
      "ĠÙħØ¬ÙħÙĪØ¹Ûģ": 4289,
      "ĠØ³Ø³Ù¹Ùħ": 4290,
      "ĠØ§ÙĦØ¯": 4291,
      "Ø§Ù¾ÙĨÛĴ": 4292,
      "ĠØ¶ÙħØ§ÙĨØª": 4293,
      "05": 4294,
      "42": 4295,
      "ĠØªÙģØªÛĮ": 4296,
      "Ø§Ø±Ù¹": 4297,
      "Ø²ÙħÛĮÙĨ": 4298,
      "ĠÚ©Ú¾Ø§ÙĨÛĴ": 4299,
      "ĠÙħÙĦØ§Ø²ÙħØª": 4300,
      "ĠØ±ÛĮØ§Ø¶": 4301,
      "ÙĨÛĮÙ¹": 4302,
      "ĠÚ©ÙĨØ§Ø±ÛĴ": 4303,
      "71": 4304,
      "ĠÛģÙĨ": 4305,
      "ĠÙ¹ÛĮÚ©": 4306,
      "ØªØ§ÛģÙħ": 4307,
      "ĠÙħØ¨ÛĮÙĨÛģ": 4308,
      "ĠÙ¹ÛĮÙĦ": 4309,
      "Ø§ÙĦÛĴ": 4310,
      "ĠÙĨØ¸Ùħ": 4311,
      "Ø¶ÙĦ": 4312,
      "ÛģÙĪ": 4313,
      "ĠÛģØ¬Ø±Øª": 4314,
      "ĠÚĪØ±Ø§Ùħ": 4315,
      "ĠØ¬ÙĨØ³": 4316,
      "ĠÚ©ÙĦÙĪ": 4317,
      "ĠØ³ÚĪÙĨÛĮ": 4318,
      "Ø§Ø¦ÛĮÚ¯ÛĮ": 4319,
      "ĠØ¨Ú©Ø±": 4320,
      "ĠØ®Ø·Ø±Ûģ": 4321,
      "ĠØŃÙĨ": 4322,
      "ÛģØ±Ø§ÙĨ": 4323,
      "ĠØ±Ú©ÙĨÛĮ": 4324,
      "ĠØ³Ø±Ú¯Ø±ÙħÛĮÙĪÚº": 4325,
      "ĠØ§ÛĮÚ¯Ø²ÛĮ": 4326,
      "ain": 4327,
      "ĠØ¨Ø§Ø±ÛĮ": 4328,
      "ĠÙħØ´ÙĨ": 4329,
      "ĠÚ©Ú¾ÛĮÙĦÙĪÚº": 4330,
      "ĠÚ©Ø±Ø³": 4331,
      "ØŃØµ": 4332,
      "Ġ36": 4333,
      "Ø¨ÙĪØ¶Ûģ": 4334,
      "ĠØ³Ø±Ø¨Ø±Ø§ÛģÛĮ": 4335,
      "ĠÙĪØ¹Ø¯": 4336,
      "ÙĪÙĨØ¯": 4337,
      "ĠØ§Ø±Ø§Ø¯": 4338,
      "ĠÙĨÙħØ§Ø¦Ø´": 4339,
      "Ø¦Ø³": 4340,
      "ĠØ±ÛĮÚĪ": 4341,
      "ÛģØ±Ø§": 4342,
      "Ø´Ú©Ø±": 4343,
      "Ø§Ú¯ÙĪ": 4344,
      "ØŃÛĮÛĮ": 4345,
      "49": 4346,
      "ĠÚ©ÙħØ§ÙĦ": 4347,
      "ĠÚ©ÛģÙĦ": 4348,
      "ĠØŃÙĪØ§ÙĦÛģ": 4349,
      "ĠØ²ÙħØ¨Ø§Ø¨ÙĪÛĴ": 4350,
      "72": 4351,
      "06": 4352,
      "ÙĤØ§Ø¨": 4353,
      "âĢħ": 4354,
      "Ø§ÙħØ¯": 4355,
      "ĠÚ©Ú¾ÙĦ": 4356,
      "ĠØ¢Ø±Ù¹": 4357,
      "Ø§Ø´Ø§": 4358,
      "ĠØ§Ø³ØŃØ§ÙĤ": 4359,
      "ĠØªÚ©ÙħÛĮÙĦ": 4360,
      "ÙĪØªÛĮ": 4361,
      "Ġ45": 4362,
      "ĠÙĨØ§Ø²": 4363,
      "ĠÚ©Ø±Ø§ÙĨÛĴ": 4364,
      "ĠÙħØ¶Ø§ÙħÛĮÙĨ": 4365,
      "Ú©ÙĪÙĦ": 4366,
      "Ø§ØªØ°Ûģ": 4367,
      "ĠÛģÙĪÙħ": 4368,
      "ĠÙģÙĪØ¬ÛĮÙĪÚº": 4369,
      "Ø§ØŃÙħØ¯": 4370,
      "ÙĨØ§Ø¡": 4371,
      "ud": 4372,
      "ĠÙ¹Ø§Ø¦Ùħ": 4373,
      "ĠÙħØ®ØªØ§Ø±": 4374,
      "ĠÙ¾Ø±Ø³Øª": 4375,
      "Ø§Ù¾ÙĪØ±": 4376,
      "ĠÙĤØ±ÛĮØ´ÛĮ": 4377,
      "ĠÙħÛĮÚĪÛĮÚ©ÙĦ": 4378,
      "Ú¯ÛĮØ±": 4379,
      "ĠØ¨Ø§ÙĦÚ©ÙĦ": 4380,
      "ĠØ¨Ø§Ø³": 4381,
      "ÛĮØªØ§": 4382,
      "ÙģÛĮÙĤ": 4383,
      "ÙĪØ§ÙĦÛĴ": 4384,
      "ĠØ¨ÛģØªØ±ÛĮ": 4385,
      "ĠØ§Ø³Ù¹ÛĮÙ¹": 4386,
      "Ø±Ø§Ùħ": 4387,
      "ÙģØ±Ø§ÙĨ": 4388,
      "Ø±ÛĮÙĦÙĪ": 4389,
      "ĠØ¢Ø³Ù¹Ø±ÛĮÙĦÙĪÛĮ": 4390,
      "Ø±Ø¯ÙĪÚº": 4391,
      "ÙĪÙ¹ÙĪ": 4392,
      "ĠÙĦØ§Ø²": 4393,
      "Ġ1994": 4394,
      "ĠÙĤØ¨ÛĮÙĦÛģ": 4395,
      "ĠÙħÛģØ§Ø±": 4396,
      "ĠØ²Ø¨Ø§ÙĨÙĪÚº": 4397,
      "ĠÙĤØ¨Ø¶ÛĴ": 4398,
      "etro": 4399,
      "ĠÛģÛĮØ±ÙĪ": 4400,
      "ĠØµØ§Ùģ": 4401,
      "ĠÚ©Ú¾ÙĪ": 4402,
      "ĠCricket": 4403,
      "ÙħÛĮØ²": 4404,
      "ĠÚ©ÙĪÙĦÙħ": 4405,
      "ĠØ§ÙĨØªØ®Ø§Ø¨ÛĮ": 4406,
      "ĠÙ¾Ø®ØªÙĪÙĨØ®ÙĪØ§": 4407,
      "Ú©Ù¹ÙĪ": 4408,
      "ĠÙħØµØ·": 4409,
      "ĠØ¨ÛģØ§Ø±": 4410,
      "Û±": 4411,
      "ĠØ¬ÚĳÙĪØ§Úº": 4412,
      "ĠØ§ØµØ·ÙĦØ§ØŃ": 4413,
      "ĠØ´Ø§Ø®": 4414,
      "ĠØ±Ø¨": 4415,
      "ĠØ§ÙħØ§Ø±Ø§Øª": 4416,
      "ĠØ§ÙĪÙĤØ§Øª": 4417,
      "ĠÚĪØ³Ù¹Ø±Ú©Ù¹": 4418,
      "ĠÙħÙĤØ¯Ø³": 4419,
      "oun": 4420,
      "ĠØ¹ÙĪ": 4421,
      "Ġ1988": 4422,
      "Ø§Ø¦ÛĮØ§Úº": 4423,
      "ĠÙ¾Ø§Ø±ÙĦÛĮÙħØ§ÙĨÛĮ": 4424,
      "ĠØ§ÙĪÙĨ": 4425,
      "ĠÚ©Ø§Ø±ÚĪ": 4426,
      "ĠØ§Ú©Ø«Ø±ÛĮØª": 4427,
      "Ú©Ø³ÙĦ": 4428,
      "ĠÙħÚ©Ø§ÙĨ": 4429,
      "ÙĨØ¬ÛĮ": 4430,
      "ØªÙĤ": 4431,
      "ĠÙĨØ²Ø¯ÛĮÚ©": 4432,
      "ĠÙ¹Ø§Ø¦": 4433,
      "ĠÙħÛĮÚĪÛĮÙħ": 4434,
      "ĠØ§ÙħØªØŃ": 4435,
      "Ø¹Ø¨": 4436,
      "Ø³Ø¹": 4437,
      "ĠÙĪØ³Ø·": 4438,
      "ĠØ¬Ø§Ø³Ú©": 4439,
      "ÛĮÙĨÙĪÚº": 4440,
      "ĠØ±ÛĮÙĦÛĮØ²": 4441,
      "ĠØ§ÙĦØ¥": 4442,
      "ĠÙħØ§ØŃÙĪÙĦ": 4443,
      "ĠÙħØŃØª": 4444,
      "ĠÚĪÛĮØ²Ø§Ø¦ÙĨ": 4445,
      "Ø³ÛĮÙĨÛĮ": 4446,
      "ĠØ§ÙĨØ³Ø¯Ø§Ø¯": 4447,
      "ĠÙħÛĮØ²Ø¨Ø§ÙĨ": 4448,
      "ĠÚ©Ø§ÙĨÚ¯Ø±ÛĮØ³": 4449,
      "ĠÚ©ÛĮØ³ÛĴ": 4450,
      "ĠØ¢Ø¦ÛĮÙĨÛĮ": 4451,
      "41": 4452,
      "ĠØ´Ø¬": 4453,
      "ĠØ§ÛĮÙħØ§ÙĨ": 4454,
      "ĠØ¨ÙĪÙĦØ§": 4455,
      "Ø§Ø¦Ù¹ÛĮ": 4456,
      "ÛĮØ±ÙĪ": 4457,
      "ĠØ±ÙħØ¶Ø§ÙĨ": 4458,
      "Ú©ÛĮØ§": 4459,
      "ĠØ§Ø«Ø±Ø§Øª": 4460,
      "ĠØ¬Ø§Ø±ÛģØ§": 4461,
      "ĠØ´Ø±Ùħ": 4462,
      "ÙĦÛĮØ³": 4463,
      "ĠØ¯Ø±ÛĮØ§": 4464,
      "ĠØµÙĪØ¨ÙĪÚº": 4465,
      "ĠÙ¹ÛĮÙĪÙ¹": 4466,
      "ÙĦØ§Ú©Ú¾": 4467,
      "ĠØ¨Ø¬ÛĴ": 4468,
      "ĠØµØ¯ÛĮÙĤÛĮ": 4469,
      "ĠØ¬Ø²ÛĮØ±Ûģ": 4470,
      "ĠÙħØ²Ø§Ø±": 4471,
      "ĠÙħØŃÙĨØª": 4472,
      "Ø§Ø±Ø¯ÙĪ": 4473,
      "ĠÙħØŃØ¶": 4474,
      "Ø§ØµØ¯": 4475,
      "ĠØ¬Ø§Ø¦ÛĮÚ¯Ø§": 4476,
      "ĠÚ©Ø±Ø§ÛĮØ§": 4477,
      "ĠÚ©Ø±Ú©Ù¹Ø±": 4478,
      "Ø§Ú¯Ø³Øª": 4479,
      "Ø§ÙħØ§Ùħ": 4480,
      "ĠÙĨÙĪØ§Ø¨": 4481,
      "43": 4482,
      "ĠÙħØ§Ø¶ÛĮ": 4483,
      "ïºħ": 4484,
      "ĠØ³ÙĨØ§": 4485,
      "ÙĤÙĪÚº": 4486,
      "ÙĨØ³Ø§Ø³": 4487,
      "ĠÙ¾Ù¹ÛĮ": 4488,
      "ĠÙħÙĦØªÛĮ": 4489,
      "ĠÙħØºÙĦ": 4490,
      "ĠÙĨØ±": 4491,
      "ĠØ±ÛĮØ³": 4492,
      "ÛģÙĨ": 4493,
      "Ù¾Ø´Ø§ÙĪØ±": 4494,
      "ĠØ±ÙĪÛĮ": 4495,
      "ĠÙ¾ØªÚ¾Ø±": 4496,
      "Ø§ÙĨÛĮÙĪÚº": 4497,
      "ĠÙħØªØ§Ø«Ø±ÛĮÙĨ": 4498,
      "ĠÚ©Ú¾ÙĪÙĦ": 4499,
      "ĠÙĦÛĮÙĨ": 4500,
      "Ġ1989": 4501,
      "Ø§Ø¯ÙĤ": 4502,
      "Ø±ÙĦÛĮÙĨÚĪ": 4503,
      "ĠØ§ÙģØ³ÙĪØ³": 4504,
      "ĠØ¬ÙĦØ³": 4505,
      "Ø±ØªÚ¾": 4506,
      "ØŃØ§ÙĨ": 4507,
      "ĠØ§Ù¹Ú¾Ø§": 4508,
      "ĠÚĪÙĪ": 4509,
      "Ø¨ÙĪØ±ÙĨ": 4510,
      "Ø¸ÙħÛĮ": 4511,
      "edia": 4512,
      "ĠÙħØ±ÛĮØ¶": 4513,
      "ry": 4514,
      "Ġ90": 4515,
      "ĠØ³ÛģÙĪÙĦÛĮØ§Øª": 4516,
      "ĠØªÙĤØ±": 4517,
      "ĠØ§Ø´Ø§Ø¹Øª": 4518,
      "ĠØ¯Ø±ÙĪØ§Ø²": 4519,
      "ĠØ§ÛĮØ´ÛĮ": 4520,
      "ĠÚĨÙħ": 4521,
      "Ú¾ÛĮÙĦ": 4522,
      "ĠÙħØ¬Ø±Ùħ": 4523,
      "ĠØ³ÛĮØ§Ûģ": 4524,
      "ĠÚĨØ±ÚĨ": 4525,
      "ĠØ±ÛĮØ§Ø³ØªÙĪÚº": 4526,
      "ĠØ¹ÙħØ±ÙĪ": 4527,
      "ĠÙ¾Ø§ÙĪØ±": 4528,
      "ĠÙħØ§ÙĨÚ¯": 4529,
      "ĠØ¹ÙĨØ§ØµØ±": 4530,
      "ĠØ±Ø§Ø´": 4531,
      "ĠØ§Ø¯Ø§Ø¦ÛĮÚ¯ÛĮ": 4532,
      "ĠÚ©ÙĦØ§Ùħ": 4533,
      "ĠØ¨ÙĪØ³": 4534,
      "ĠØ±Ø§ÙĨØ§": 4535,
      "ast": 4536,
      "·²": 4537,
      "ĠÙħØ§Ø±ÛĴ": 4538,
      "Ú©Ú¾Ø±": 4539,
      "ĠÛģÛĮÙħÙ¾": 4540,
      "ĠÚĨÙĪÙĨÚ©Ûģ": 4541,
      "ite": 4542,
      "ĠØ³ÙĦÙħØ§ÙĨ": 4543,
      "ÙħÛĮØ¦Ø±": 4544,
      "ĠØ¬ÙħØ¹Ûģ": 4545,
      "ĠØ¬Ø±Ø§Ø¦Ùħ": 4546,
      "ĠØŃÚ©ÙħØ±Ø§ÙĨÛĮ": 4547,
      "ĠÙĪØ¶Ø§ØŃØª": 4548,
      "ÛģØ±Ûģ": 4549,
      "ĠØ¹Ø·Ø§": 4550,
      "ÙĪØ¹Ûģ": 4551,
      "ĠÙħÛĮÙ¹Ø±ÙĪ": 4552,
      "Ø¨Ø¹Ø¯": 4553,
      "ĠØ§Ø³Ø±Ø§Ø¦ÛĮÙĦÛĮ": 4554,
      "ĠØ¨ÛĮØ±ÙĪÙĨ": 4555,
      "www": 4556,
      "ĠØ§ÙĨØªØ¸Ø§ÙħØ§Øª": 4557,
      "ÙĨÚ¯Ø§": 4558,
      "ĠØ±ÛĮÚĪÛĮÙĪ": 4559,
      "Ø¬Ø§Ùħ": 4560,
      "ĠØ²ÙĦØ²": 4561,
      "ĠØ³Ø§Ø¨ÙĤÛģ": 4562,
      "ĠÙħÙĪØ§ÙĤØ¹": 4563,
      "ĠÚ©ÙĪØ´Ø´ÙĪÚº": 4564,
      "Ø«ÛĮ": 4565,
      "Ø´ÛģØ±Ø³ØªØ§ÙĨ": 4566,
      "ĠØ¬ÛĮÙĨ": 4567,
      "ĠÙģØ±ÛĮÙĨ": 4568,
      "Ø¨ÛĮØ¨": 4569,
      "ĠÙĨØ§ØµØ±": 4570,
      "ĠØ§ÛĮÚ©Ø³Ù¾": 4571,
      "ĠÙĪÛĮÚĪÛĮÙĪ": 4572,
      "ĠØ§ÙħØªÛĮ": 4573,
      "ĠØ³Ú©Ø§": 4574,
      "ĠØŃØ§ÙħÛĮ": 4575,
      "ĠÙĨÙĪØ¬ÙĪØ§ÙĨÙĪÚº": 4576,
      "ĠÙĨØ§Ú¯": 4577,
      "eb": 4578,
      "ÙģÙĨ": 4579,
      "ÛĮØ³ÙĪÙ¹Ø§": 4580,
      "ĠÙĨÙĪØ¹": 4581,
      "ĠÛģÙĪÚ©Ø±": 4582,
      "ĠÙĦÚ¯Ø§ÙĨÛĴ": 4583,
      "Ø³ÙĦÚ©": 4584,
      "ĠÙħÙĤØ¯ÙħØ§Øª": 4585,
      "ĠØ§ÙĪÙ¾ÙĨ": 4586,
      "ĠØ¯Ø¨Ø¦ÛĮ": 4587,
      "ĠÚ©Ø§Ø±ÙĪØ§Ø¦ÛĮ": 4588,
      "ĠØ¹Ø¨Ø§Ø¯Øª": 4589,
      "ĠÙĨØºÙħÛģ": 4590,
      "ĠØ§ÙĦØ§": 4591,
      "ĠÚĪÛĮÙĦ": 4592,
      "ĠØ³ÙĪØ§Ø±": 4593,
      "Ø§Ø¦ÙĨØ§": 4594,
      "ĠØ³ÙĪØ´ÙĦ": 4595,
      "ĠÙģÙĦÙ¾": 4596,
      "58": 4597,
      "ĠÙħØµÙĨÙĪØ¹Ø§Øª": 4598,
      "rch": 4599,
      "ĠÙĦØº": 4600,
      "Ø§ØŃÛĮÙĦ": 4601,
      "ĠÙĨØ¯": 4602,
      "ĠØ§ÙĦØ®": 4603,
      "ĠÚ©ÛĮØ±ÙĪÙĦ": 4604,
      "Ø§Ø¹Ø¯": 4605,
      "Ø¦ÛĮÙĨ": 4606,
      "ĠØ´ÛģÙĨ": 4607,
      "ĠØ§Ø³ØªØŃÚ©Ø§Ùħ": 4608,
      "ÛĮØ¯Ú¯ÛĮ": 4609,
      "ÙģØ§": 4610,
      "ĠÚ©ÛģÛģ": 4611,
      "ĠØ¬Ø¹ÙģØ±": 4612,
      "ĠÙĨØ°": 4613,
      "ĠÙ¾ÛģØ§ÚĳÛĮ": 4614,
      "all": 4615,
      "ĠØ±ÙĪØŃØ§ÙĨÛĮ": 4616,
      "68": 4617,
      "Ø¦ÛĮÛĴ": 4618,
      "ĠØ³Ø§Ø±ÛĮ": 4619,
      "Ø¨Ø§Ø¦ÛĮÚº": 4620,
      "ÙĨØ¯Ø±Ûģ": 4621,
      "ĠØ²Ø¨Ø±Ø¯": 4622,
      "ĠØ¯ÛĮÛģØ³ØªØ§ÙĨ": 4623,
      "ĠØŃØ¯ÙĪØ¯": 4624,
      "Ú©Ø§Ø´": 4625,
      "ĠÙĤØ§Ø¦": 4626,
      "ĠØ§Ø³Ø§ØªØ°Ûģ": 4627,
      "ĠÙĨØ§ÙĤØ§Ø¨ÙĦ": 4628,
      "Ø³Ø§Ø¨": 4629,
      "ĠØ¢Ø«Ø§Ø±": 4630,
      "ĠØ§ØŃØ³Ø§Ø³": 4631,
      "62": 4632,
      "ĠÙħÛģØ§Ø±Øª": 4633,
      "Ø²ÛĮÛģ": 4634,
      "Ø§Ø¦Ø¶": 4635,
      "ĠÚ©ÙĨÚ¯": 4636,
      "ĠØ±ÛģØªÛĮ": 4637,
      "Ġv": 4638,
      "ĠÙĹ": 4639,
      "Ø§Ø¦ÛĮÚ©": 4640,
      "ĠÙ¹Ø§Ø±": 4641,
      "ĠØ§ÙĦØŃØ³ÙĨ": 4642,
      "Ġ1970": 4643,
      "Ø¬Ø±Ø§Øª": 4644,
      "61": 4645,
      "63": 4646,
      "Ú©Ø¨": 4647,
      "ĠÙĤØ§Ø³Ùħ": 4648,
      "ÙĦÚ©": 4649,
      "ĠÙħÛģØ§Ø¬": 4650,
      "ĠÛĮØ§Ø±": 4651,
      "ĠØ¨Ø²": 4652,
      "ĠÙħÙĨØ³ÙĦÚ©": 4653,
      "Ø¹ÙħÙĦ": 4654,
      "ĠÙħØ¯Ø±Ø³Ûģ": 4655,
      "ÙĪØ±Ø´": 4656,
      "ĠÛģÛĮÙħ": 4657,
      "ĠØ§Ø¨ØªØ¯Ø§": 4658,
      "''": 4659,
      "ĠØ¸ÙģØ±": 4660,
      "ĠØ¨Ø§ÙĦØ§": 4661,
      "ĠØ¨Ø±Ø¯Ø§Ø´Øª": 4662,
      "69": 4663,
      "ĠØŃÙĪØµ": 4664,
      "ĠØªØ±ÙħÛĮÙħ": 4665,
      "ĠÙĨØ³Ø¨Øª": 4666,
      "ĠØ´ÛģØ§Ø¯Øª": 4667,
      "ĠÙħÛĮÙĨÛĮØ³ÙĪÙ¹Ø§": 4668,
      "ØªØ§Ø±ÛĮØ®": 4669,
      "ĠÚ©Ú¾ÚĳÛĴ": 4670,
      "Ġw": 4671,
      "ĠÚ©ÛĮÙ¾Ø±": 4672,
      "ÙĪØ§Ø¶ØŃ": 4673,
      "ĠÙ¾ÛģÙĦÙĪ": 4674,
      "ÙĪØ§ÙĦÛģ": 4675,
      "ĠØ§ÙĦØº": 4676,
      "ĠÚ©ÙħÙ¾ÛĮÙĪÙ¹Ø±": 4677,
      "ĠØ§ÙĨÚĪÛĮØ§ÙĨØ§": 4678,
      "ĠØ³Ø±ÙĪ": 4679,
      "Ú©ÙĦØ§": 4680,
      "ĠÙħÚĪÙĦ": 4681,
      "ĠÙĦÚ¯ÛĮ": 4682,
      "Ø´Ø§Ø±": 4683,
      "ÙģÛĮØµØ¯": 4684,
      "ĠØ®ÙĪØ¨ØµÙĪØ±Øª": 4685,
      "ĠÙ¾ÛģÙĨÚĨÙĨÛĴ": 4686,
      "ĠÙ¾ÙĪÙĦÛĮÙĨÚĪ": 4687,
      "ĠÚĨÙĦÛĮ": 4688,
      "ĠÙħØ±Ø¯ÙĪÚº": 4689,
      "Ø±ÛĮÙ¹Ø±ÛĮ": 4690,
      "ĠÙĨØ§Ø¸": 4691,
      "ĠÛĮÚ©Ùħ": 4692,
      "ĠØ¨ÛĮÚ©": 4693,
      "up": 4694,
      "Ø§Ø±Ø´": 4695,
      "ĠØ§ÙĪÛģ": 4696,
      "ĠØ±Ø§ØŃÛĮÙĦ": 4697,
      "ĠAn": 4698,
      "ĠØ³ÙĪØ±Ø¬": 4699,
      "man": 4700,
      "Ø³Ø§ÙĨÛĮ": 4701,
      "Ø¯Ø§Ø±ÛĮ": 4702,
      "ĠÙħØ²Ø¯": 4703,
      "ĠØ³Ø§Ø¦ÛĮÚ©ÙĦ": 4704,
      "ĠÙĦÙħ": 4705,
      "ĠÙĨÙĤØ´": 4706,
      "ĠØ§ØªÚ¾Ø§Ø±": 4707,
      "ĠÙ¾ÛĮØ±Ø³": 4708,
      "ĠÙĪØ²Ø±": 4709,
      "Ø§ÛģÙĦ": 4710,
      "ĠØ¯Ø¹Ø§": 4711,
      "ĠØ³Ø§Ø¦ÙĨ": 4712,
      "ĠÙĤØ§Ø¨ÙĪ": 4713,
      "ĠØ¨Ø±Ø¬": 4714,
      "âĢı": 4715,
      "ÚĨÛĮÙģ": 4716,
      "ĠØ±ÛĮÙ¹Ø§Ø¦Ø±": 4717,
      "ÙĤØ§Ø¨ÙĦÛģ": 4718,
      "ĠØ±Ø§Ú©": 4719,
      "ĠÙĤØ¨Ø§Ø¦ÙĦÛĮ": 4720,
      "ĠØµØ§Ø±ÙģÛĮÙĨ": 4721,
      "ØªØ±Ø¬ÙħØ§ÙĨ": 4722,
      "ĠØ§ÙħØªØŃØ§ÙĨ": 4723,
      "ÙĨÛĮÙĪ": 4724,
      "ĠØ§Ú©Ø±Ùħ": 4725,
      "ĠÙģÙĦØ³Ø·ÛĮÙĨÛĮ": 4726,
      "ĠØ§ÙĨÛĮØ³": 4727,
      "ĠÙħØ±ÙĪ": 4728,
      "ĠÛĮØŃÛĮÛĮ": 4729,
      "ĠØªØ¯Ø±ÛĮ": 4730,
      "ĠØ§ØªÚ¾Ø§Ø±Ù¹ÛĮ": 4731,
      "ĠØ±Ø§Ø¦ÙĦ": 4732,
      "ĠØ§Ø®Ø±Ø§Ø¬": 4733,
      "ĠØµØŃØ§ÙģÛĮÙĪÚº": 4734,
      "ÙĪØ³Ù¹Ø±": 4735,
      "ÙĪØ¨Ûģ": 4736,
      "Ø¬ÙħÙĨÙ¹": 4737,
      "ĠÙħØµØ±ÛĮ": 4738,
      "ĠÚĪØ§Ø±": 4739,
      "ĠÙħØ³ØªØŃÚ©Ùħ": 4740,
      "ĠÙħÙĨØ³ÙĪ": 4741,
      "ĠØ§ÙĪØ§Ø¦ÙĦ": 4742,
      "ĠØ§ÙĦØ²Ø§ÙħØ§Øª": 4743,
      "ĠÙ¾Ú©Úĳ": 4744,
      "53": 4745,
      "Ø±ÛĮØŃ": 4746,
      "Ø¬ÙĦ": 4747,
      "ĠØ¢ÙģØ³": 4748,
      "ĠÙĤÙĦÙħ": 4749,
      "ĠØ§ÙĪÙĪØ±Ø²": 4750,
      "ï·²": 4751,
      "Ø³ÙĨØ¯Ú¾": 4752,
      "ĠÚ©ÙħØ²ÙĪØ±": 4753,
      "ĠØ³Ø±Ø®": 4754,
      "Ú©ÙĦØ§Ø¡": 4755,
      "ĠÛĮÙħÙĨ": 4756,
      "ĠÙħÙĨØ§Ùģ": 4757,
      "ĠÙħÙĦÚ©ÙĪÚº": 4758,
      "ĠÙĦÚ©Ú¾ÛĴ": 4759,
      "ĠÙģØ±Ø¯": 4760,
      "ah": 4761,
      "ĠØ³ÙĨÙ¹Ø±": 4762,
      "ĠØ§ÙĦÛĮÚ©Ù¹Ø±": 4763,
      "ĠØŃØªÙħÛĮ": 4764,
      "ĠÙĪØ±Ø«": 4765,
      "ĠÙħØªØ§Ø«Ø±Ûģ": 4766,
      "ĠÚĨÙĪÚ©": 4767,
      "ÛĮÙĨÚĪØ±": 4768,
      "Ù¾ÛĮØ±": 4769,
      "ĠÚ©ÙĪØ±ÛĮØ§": 4770,
      "ĠÙĤØ·Ø±": 4771,
      "ÙħÙĨÚ¯": 4772,
      "Ø¹ØªÛĮ": 4773,
      "ĠØ¢Ø°": 4774,
      "ĠØ§ÙĨØ¯Ø§Ø²Ûģ": 4775,
      "ĠÚĪÙ¾Ù¹ÛĮ": 4776,
      "ĠØªÚ¾ÛĮÙ¹Ø±": 4777,
      "ĠÙĨØ§ÙħÛģ": 4778,
      "ĠÙħØ«Ø¨Øª": 4779,
      "Ø§Ù¾ÙĨÛĮ": 4780,
      "Ú©ÙĪØ±": 4781,
      "ĠØ¯Ø±Ø³": 4782,
      "ĠØªØ°Ú©Ø±": 4783,
      "ĠÙħØªÙĪ": 4784,
      "Ø§Ø¦ÙĤ": 4785,
      "ĠÛģÙĪÙ¹ÙĦ": 4786,
      "ĠØ§ÙĦÙĦÙĩ": 4787,
      "ĠØ¯Ú©Ú¾Ø§Ø¦ÛĮ": 4788,
      "ĠØ³ÙĪØ³Ø§Ø¦Ù¹ÛĮ": 4789,
      "ĠØŁ": 4790,
      "ĠØªÙģØªÛĮØ´": 4791,
      "ĠØ§Ø®Ø¨": 4792,
      "Ġ1986": 4793,
      "ĠØ§ÙĨÚĪØ³Ù¹Ø±ÛĮ": 4794,
      "ĠÚ©ÛĮØ¬Ø¦ÛĴ": 4795,
      "ĠÙĦØ§ÛĮØ§": 4796,
      "ĠØ§ÙĪÙĦÙħÙ¾": 4797,
      "ĠØ¨ÙĨØ¯Ø±": 4798,
      "Ù¹ÛĮÙĦÛĮ": 4799,
      "ĠÛģÙģØªÛģ": 4800,
      "ĠØ§ÛĮØ´": 4801,
      "ÙĨÙĪÚº": 4802,
      "ĠÙĪÚĪ": 4803,
      "ÚĨØ±ÚĪ": 4804,
      "ĠÚ©ÙħÙ¾ÙĨÛĮÙĪÚº": 4805,
      "ĠØ¶Ø±ÙĪØ±": 4806,
      "Ù¾Ú©Ø³ÙĦ": 4807,
      "ĠØ²ÛĮÙĨ": 4808,
      "ĠØ³ÙĦÛĮ": 4809,
      "ant": 4810,
      "ĠØ´Ø¹Ø¨ÙĪÚº": 4811,
      "ĠØ±ÙĪØ§Úº": 4812,
      "Ø§Ø±Ù¹Ø±": 4813,
      "ĠØ¬ÛĮØªÙĨÛĴ": 4814,
      "ĠÙħØ¹Ø²": 4815,
      "ĠØ¨Ø§ÛģÙħÛĮ": 4816,
      "ĠØŃØ±Ú©Øª": 4817,
      "ĠÙħØ³Ø¹ÙĪØ¯": 4818,
      "ÚĨÙĪÛģØ¯Ø±ÛĮ": 4819,
      "ĠÙĤÛĮØ¯ÛĮ": 4820,
      "Ø³ÛĮÚ©Ø³": 4821,
      "ØªÙĪÚº": 4822,
      "ĠÙ¾ÛĮÚ©": 4823,
      "ĠØ®ÙĪØ§Ø¨": 4824,
      "Ġa": 4825,
      "ĠÙģÙĪØ±Ø§": 4826,
      "ĠÙ¾Ø±ÛĮÙħÛĮØ¦Ø±": 4827,
      "ĠÛĮØ±": 4828,
      "ĠØ¨ÙĨÙĪ": 4829,
      "ØªØ´": 4830,
      "ĠÙģØ±Ø§Ø¦Ø¶": 4831,
      "ĠÙħÙĤØ¨ÙĪØ¶Ûģ": 4832,
      "ÙħÙĪÙĦØ§ÙĨØ§": 4833,
      "ĠÙħØ±ØŃÙĦÛĴ": 4834,
      "rict": 4835,
      "Ú©Ø§ÙĪÙ¹": 4836,
      "ĠÙĦÚ©": 4837,
      "ĠÙ¾Ø¨ÙĦÚ©": 4838,
      "ĠÚĨÚĳÚ¾": 4839,
      "ĠØ¨Ú¾Ø§Ú¯": 4840,
      "Ø§ÙĪÛĮÛģ": 4841,
      "ĠÙ¾Ø§ÙĨ": 4842,
      "Ø±Ø¶": 4843,
      "ĠØ¬ÙĨÚ¯ÙĦ": 4844,
      "ĠÚĨÚ¾Ø§Ù¾": 4845,
      "ĠÛģÛĮÙĦÛĮ": 4846,
      "ĠÛģÙĪØ³Ú©": 4847,
      "52": 4848,
      "ĠØ¢ÙĪØ±": 4849,
      "ĠØ´Ø¨": 4850,
      "ĠØ¨ÙĨØª": 4851,
      "ĠÙĦÙħØ¨": 4852,
      "ĠÙħØ´ÛĮØ±": 4853,
      "ĠØ³ÛĮÙĨÛĮÙ¹Ø±": 4854,
      "ĠØ¨ÛĮØ±ÙĪÙĨÛĮ": 4855,
      "istrict": 4856,
      "ĠØ¬ÙĨÛģ": 4857,
      "ĠÙĪØµ": 4858,
      "ĠÙ¾ÙĨØ¬Ø§Ø¨ÛĮ": 4859,
      "Ú¯Ø±Ûģ": 4860,
      "ĠÚ©Ø§Ø´Øª": 4861,
      "ØªØ±Ø§Ùħ": 4862,
      "ĠØ±Ø§Ø¬Ø§": 4863,
      "ĠØ§ÙĨÙģ": 4864,
      "ĠØ³Ø±ÛĴ": 4865,
      "ĠØ®ÛĮØ²": 4866,
      "100": 4867,
      "Ø¯Ø§Ø±ØªÛĮ": 4868,
      "ĠØ¨ÙĦÛĮÚ©": 4869,
      "Ø±ÛĮØ¯ÛĮ": 4870,
      "ĠØ¢ÙģÛĮØ³Ø±": 4871,
      "ĠÙģØ§Ø·": 4872,
      "Ø§ÙĦØªÛĮ": 4873,
      "Ø§ÙĨÛĮØ§Úº": 4874,
      "ĠÙĤØ±Ø¶": 4875,
      "ĠØ³ÙħØ¬Ú¾ØªÛĴ": 4876,
      "oh": 4877,
      "59": 4878,
      "ĠØ¨ÙĨÚ¯Ø§ÙĦ": 4879,
      "ÛģÛĮØ±": 4880,
      "Ø¬ÙĪÙĦØ§Ø¦ÛĮ": 4881,
      "ĠÙĪØ§ÙĤØ¹ÛĴ": 4882,
      "ĠÚĪÛĮÙĪÚĪ": 4883,
      "ÙĪÚ©Ø±ÛĮ": 4884,
      "ĠÂ«": 4885,
      "ĠÙħÙĪØ±Ø®": 4886,
      "ĠØ¯ÛģÛĮ": 4887,
      "ĠØªÙģØµÛĮÙĦ": 4888,
      "Ù¾Ø§Ø¦Ø±": 4889,
      "ĠØ´ÛģÙĨØ´Ø§Ûģ": 4890,
      "ĠÙĨØ¸ÛĮØ±": 4891,
      "Ø§ÛģØ±Ûģ": 4892,
      "ĠÚ¯ÛĮØ§Ø±Ûģ": 4893,
      "Ġto": 4894,
      "ĠÚĨÙĪ": 4895,
      "ĠÙħØ¹Ø·ÙĦ": 4896,
      "ĠÚ¯ÙĪØ±ÙĨÙħÙĨÙ¹": 4897,
      "ĠØ§ÙĨØ¬ÙħØ§Ø¯": 4898,
      "ĠØ´Ø§ÛĮØ¯": 4899,
      "ĠØ§ÙĦØ¬Ø²": 4900,
      "ĠÙħÛģÛĮÙĨÛĴ": 4901,
      "ĠØ¯Ø¨Ø§Ø¤": 4902,
      "ĠØ³Ø§Ø±ÛĴ": 4903,
      "Ø§ÚĪÙĪ": 4904,
      "ĠØ¨ÙĪÙĦÛĮ": 4905,
      "ĠØ¨ÙĦØ¯ÛĮØ§ØªÛĮ": 4906,
      "ell": 4907,
      "ÙħØµ": 4908,
      "ĠØ§Ø¹ØªØ±Ø§Ùģ": 4909,
      "ĠØ³ÙĪÙĨÛĴ": 4910,
      "ĠAl": 4911,
      "Ø¶ÙĦØ¹": 4912,
      "ĠÚ©Ø´ÛĮ": 4913,
      "Ù¹ÛĮÚ©ÙĦ": 4914,
      "Ø§Ø·Ø±": 4915,
      "ĠÙĤØ¯Ø±ØªÛĮ": 4916,
      "ĠØ¢Ø¦ÛĮÙĪÙĪØ§": 4917,
      "ĠØ³ÙĪÛĮ": 4918,
      "ĠØ§Ø³ØªØ¹ÙģÛĮ": 4919,
      "ĠÙ¹Ú¾ÛĮ": 4920,
      "ĠØ³Ø®": 4921,
      "ĠÙħÙĤØ§Ø¨ÙĦ": 4922,
      "ĠØ¨ÙħÙĤØ§Ø¨ÙĦÛģ": 4923,
      "ĠØ§ÙĦÙħØ¹": 4924,
      "son": 4925,
      "ĠØŃØ§Ø¬ÛĮ": 4926,
      "ĠØ§ÙĨÙ¹Ø±ÙĪÛĮÙĪ": 4927,
      "Ø±ÙĪÙ¾ÛĴ": 4928,
      "ĠØ¬ÙĦØ§": 4929,
      "Ġ1985": 4930,
      "ÙĤØ·": 4931,
      "ĠØ§ÙģØªØ®Ø§Ø±": 4932,
      "ĠØ¨Ø§Ø²ÙĪ": 4933,
      "Ø²ÛĮØ¯": 4934,
      "ĠÚĪØ§Ø¦ÛĮ": 4935,
      "ĠØ³Ø±Ùģ": 4936,
      "ĠÙĤØ±Ø§Ø±Ø¯Ø§Ø¯": 4937,
      "ĠØ³Ø²": 4938,
      "ĠØ¯ÙģØ§Ø¹ÛĮ": 4939,
      "ĠÙħÙĤØ§ØµØ¯": 4940,
      "ĠÚ©Ø§Ø±Ù¾ÙĪØ±ÛĮ": 4941,
      "ĠÙ¹ÛĮÙħÛĮÚº": 4942,
      "ĠØ¹Ø±ÙĪ": 4943,
      "ĠÛĮÙĪÙĨØ§ÙĨÛĮ": 4944,
      "ĠØªÙĨØ¸ÛĮÙħÙĪÚº": 4945,
      "ĠØ¯Ø³ØªØ§ÙĪÛĮØ²": 4946,
      "ĠØ§ÙħØ§ÙĨ": 4947,
      "Ø¬Ø§Ø²": 4948,
      "ĠÙħÛĮÚĨØ²": 4949,
      "ĠÚ©ÛĮÙħØ¨Ø±": 4950,
      "ĠØ§ÙĨÙĪØ±": 4951,
      "ĠÚĨÙĪØ±ÛĮ": 4952,
      "Ġ32": 4953,
      "ĠÙ¾ÛģÚĨ": 4954,
      "ĠØ§Úĳ": 4955,
      "ĠÚ¯ÙĪÙĦÛĮ": 4956,
      "ÙĨÚĪØ±": 4957,
      "ey": 4958,
      "ĠØ§ÙĦØ«": 4959,
      "ĠMetro": 4960,
      "ÙĦÛĮØ¦Ø±": 4961,
      "aw": 4962,
      "ĠÙĤÙĦ": 4963,
      "ĠÙħØ¯Ø§Ø®": 4964,
      "),": 4965,
      "ĠØŃØ§ÙĦÛĮÛģ": 4966,
      "Ø§Ø¦ÛĮÙĪÚº": 4967,
      "Ø²Ø¦ÛĮ": 4968,
      "ĠÙ¹ÙĨ": 4969,
      "ÙĪÛĮØ´ÙĨ": 4970,
      "ĠÚ¯Ø°Ø´ØªÛģ": 4971,
      "Ġ1979": 4972,
      "ĠØ¹ÛģØ¯Ûģ": 4973,
      "51": 4974,
      "Ø§ÙĦØ±": 4975,
      "ĠØªÙħÚ¾": 4976,
      "ĠÙģÙĦØ³Ø·ÛĮÙĨ": 4977,
      "ĠØ§ÙģØ±ÛĮÙĤØ§": 4978,
      "ĠØ¨ØŃØ±ÛĮ": 4979,
      "ĠØ®Ø±ÚĨ": 4980,
      "ĠØ§ÙĨØ¯Ø±ÙĪÙĨÛĮ": 4981,
      "ĠØ§ØªÙĨØ§": 4982,
      "ĠØ§ÛĮÚ¯Ø²ÛĮÚ©Ù¹ÙĪ": 4983,
      "ĠÙ¾ÙĨØ¯Ø±Ûģ": 4984,
      "ÛĮØ³ÛĴ": 4985,
      "ĠÙģØ§Ø¦Ø²": 4986,
      "ĠØ´Ø±Ø§Ú©Øª": 4987,
      "ĠÙĦÛĮÙĨØ§": 4988,
      "ĠÚ©Ø§ÙħÙĪÚº": 4989,
      "ĠÙħÙħÚ©ÙĨÛģ": 4990,
      "Ø¯ÙĦ": 4991,
      "Ø§Ø³Ù¹ÛĮ": 4992,
      "ĠØ®ÙĪØ´ÛĮ": 4993,
      "ĠØ§Ø¹ØªØ±Ø§Ø¶": 4994,
      "ĠØªØ¬Ø±Ø¨Ûģ": 4995,
      "ĠÙħÙĨØ§Ø³Ø¨": 4996,
      "Ø³Ø§Ø¨ÙĤ": 4997,
      "ĠÚ©Ø§Ø±Ûģ": 4998,
      "ĠØµØ§Ø¯ÙĤ": 4999,
      "ĠØ¬ÛĮÙħØ²": 5000,
      "Ù¾ÙĪÙĦ": 5001,
      "ĠØ§Ø´Øª": 5002,
      "ĠØ§Ø´ÛĮØ§Ø¡": 5003,
      "Ġ()": 5004,
      "Ø¨Ø§Ø¯ÙĦ": 5005,
      "Ø§ÙĪÙ´": 5006,
      "ĠØ§ØªÙĨÛĮ": 5007,
      "ïºİ": 5008,
      "ĠØ¯ÛĮØ¯": 5009,
      "ĠØ¨ÚĳÚ¾Ø§": 5010,
      "ĠÚ©ÛĮÙħØ¨Ø±Ø¬": 5011,
      "ĠØ±Ú©Ø§ÙĪÙ¹": 5012,
      "ĠÙĨØ¸Ø±ÛĮÛģ": 5013,
      "ĠÚĨÙĪØ¯Ú¾Ø±ÛĮ": 5014,
      "ĠÙħØŃÙĤ": 5015,
      "ĠÙĪØµÙĪÙĦ": 5016,
      "ĠØ«Ø§ÙĨÛĮ": 5017,
      "ĠØ±Ø´ØªÛģ": 5018,
      "Ø¹ÙĦØ§Ùħ": 5019,
      "ĠØ¬Øª": 5020,
      "Ġ1981": 5021,
      "ĠÙĦÙĤØ¨": 5022,
      "Ġ33": 5023,
      "ĠØ§ÙģØ±ÛĮÙĤÛĮ": 5024,
      "ord": 5025,
      "Ø§ÙģØºØ§ÙĨ": 5026,
      "ĠØ³ÛĮÙĨÛĮÙ¹": 5027,
      "ĠÚĪØ±Ø§": 5028,
      "03": 5029,
      "ĠÙĦØ§Ø¦ÛĴ": 5030,
      "Ø±Ø¨Ø§Ø¦ÛĮ": 5031,
      "ĠÙħÙĤØ¯Ø§Ø±": 5032,
      "ĠØ²Ø±Ø§Ø¹Øª": 5033,
      "ĠØ®Ø§ÙĨÛĴ": 5034,
      "ĠØ¯ÙħØ´": 5035,
      "ĠØªÙģØµÛĮÙĦØ§Øª": 5036,
      "ĠÛģÙħØ§Ø±Ø§": 5037,
      "ĠÙħØ¯Ø§Ø®ÙĦØª": 5038,
      "ĠÚ¯Ø±ÛĮØ¬": 5039,
      "Ú©Ú¾Ø§": 5040,
      "ĠØŃØ§Ø¶Ø±": 5041,
      "ĠÙ¹ÙĪÙ¹": 5042,
      "ĠÙĦØ§Ø±ÚĪ": 5043,
      "ÚĨÛĮÙĨ": 5044,
      "ĠÚĪÚ©": 5045,
      "ĠØ³ÙĨØ¨Ú¾Ø§ÙĦ": 5046,
      "ĠÚ©Ø±Ø§Ø¦ÛĮ": 5047,
      "Ġ1987": 5048,
      "07": 5049,
      "ĠØ¯ÙģÙĨ": 5050,
      "ĠÙĪÛģÛĮÚº": 5051,
      "Ø§ÙģØ±": 5052,
      "ÙĪØ§ÙĨÛĮ": 5053,
      "ĠÙħÙĨØ¸Ùħ": 5054,
      "ĠØ¨Ø¯Ø±": 5055,
      "ĠØºØ§Ø²ÛĮ": 5056,
      "04": 5057,
      "ĠÙĦØ´Ú©Ø±": 5058,
      "ĠÛģØ³Ù¾Ø§ÙĨÙĪÛĮ": 5059,
      "Ø§Ú©Ø§": 5060,
      "ĠÙħØŃØ±ÙĪÙħ": 5061,
      "ĠØªÛģØ°ÛĮØ¨": 5062,
      "01": 5063,
      "ember": 5064,
      "ĠØ¬Ø§Ø±ØŃ": 5065,
      "ĠÙ¾ÙĦÛĴ": 5066,
      "Ø§Ø¯ÛĮØ«": 5067,
      "ĠRailway": 5068,
      "ÙĨÛĮØ§Úº": 5069,
      "ĠØ±Ø§Ø¦": 5070,
      "ĠØ³ÙĪØ¯": 5071,
      "ØµÙĪØ¨Ø§Ø¦ÛĮ": 5072,
      "ĠØ§ÚĨÚ¾Ø§": 5073,
      "ĠÚ©Ø§Ù¾": 5074,
      "ĠÙ¾Ø§ÙĨÛĴ": 5075,
      "Ø¹Ø¯Ø§ÙĦØª": 5076,
      "ĠØ§ÛĮØ¬ÙĪ": 5077,
      "Ø¬ÛĮÙĨÛĮØ§": 5078,
      "ĠØ±Ø´": 5079,
      "Ø§Ø²ÛĮÙĦ": 5080,
      "à¦": 5081,
      "ÙģÙ¹": 5082,
      "ĠØ³Ø±Ø²ÙħÛĮÙĨ": 5083,
      "ĠØ§Ø³Ù¾ØªØ§ÙĦ": 5084,
      "ĠØ¯Ø±Ø¨Ø§Ø±": 5085,
      "ĠØ§ØŃØªØ¬Ø§Ø¬ÛĮ": 5086,
      "ĠØ¨ÙĨØ§ÙĨØ§": 5087,
      "ĠØ§ÙĪÛģØ§Ø¦ÛĮÙĪ": 5088,
      "ĠØ´Ø§Ú¯": 5089,
      "ĠØ§ØŃØªØ±Ø§Ùħ": 5090,
      "ÙĤØ§ÙĨ": 5091,
      "Ġ1960": 5092,
      "ĠÛģØªÚ¾ÛĮØ§Ø±": 5093,
      "ĠÙ¾Ø±ÙĪÚĪ": 5094,
      "Ú©Ø´ÙħÛĮØ±": 5095,
      "ĠØ¨ÙĤ": 5096,
      "Ø§Ø³Ø§ÙĨ": 5097,
      "ĠÛģÛĮÙħÙ¾Ø´Ø§Ø¦Ø±": 5098,
      "ĠÙħÙĨØ§ÛĮØ§": 5099,
      "Ġï»": 5100,
      "ĠÙĪØ§Ø¦Ø±": 5101,
      "Ø§Ø¨Ø±Ù¹": 5102,
      "ĠØ§ÙģØ²": 5103,
      "ÙģØ§Ø±Ùħ": 5104,
      "ĠÛĮÙĪÙĨÙ¹": 5105,
      "ĠØ¸ÙĦÙħ": 5106,
      "ĠØ¨ÛĮØ±ÙĪØª": 5107,
      "ĠØ§ØµÙĦØ§ØŃØ§Øª": 5108,
      "ĠÛģÙħØ¯": 5109,
      "Ù¾Ø§Ú©Ø³ØªØ§ÙĨÛĮ": 5110,
      "ĠÙħØ¬Ú¾": 5111,
      "ĠÙĪØ§ÙĨ": 5112,
      "ÚĳÛģ": 5113,
      "Ġ1971": 5114,
      "ĠÚ©ÙĨÙ¹": 5115,
      "ÙģÙĤ": 5116,
      "Ø¦Ùħ": 5117,
      "ĠØ±Ø³Ø§Ø¦ÛĮ": 5118,
      "ØŃÙĤ": 5119,
      "Ġ1984": 5120,
      "ĠØ°Ø§Øª": 5121,
      "ĠØ±Ø§Ø¨Ø·": 5122,
      "Ġ34": 5123,
      "ĠØ²Ø±Ø¹ÛĮ": 5124,
      "ĠÙħÙĨØ³ÙĪØ®": 5125,
      "ĠÚĨÚ¾Ù¾": 5126,
      "ĠØ¢Ø³Ø§ÙĨ": 5127,
      "ĠØ³ÛĮØ§ÙĦ": 5128,
      "ĠMar": 5129,
      "ĠØ¨Ø§ÙĦÛĮ": 5130,
      "Ø´Ø§Ø¯": 5131,
      "ory": 5132,
      "ĠÙħØ§ÛĮ": 5133,
      "Ù¾Ú¾Ø±": 5134,
      "ÙĪØ§Ø±ÛĮ": 5135,
      "ĠØªÛĮÙĨÙĪÚº": 5136,
      "ĠÚ©ÙħÙ¾ÙĨÛĮØ§Úº": 5137,
      "ĠØ«ÙĤÛģ": 5138,
      "ĠÚ¯Ø¬Ø±Ø§Øª": 5139,
      "Ø§ÛģØ§": 5140,
      "ĠØ§ÙĦÛģ": 5141,
      "ĠØ§ÙĦØ¹Ø²ÛĮØ²": 5142,
      "Ġï®": 5143,
      "ĠØªØ±Ø¬ÛĮØŃ": 5144,
      "Ø§Ùĩ": 5145,
      "ĠÙħÛĮÚ©Ø³ÛĮ": 5146,
      "ĠØ¯Ø±Ø®Øª": 5147,
      "ĠÚ©ÙĪØ´Ø´ÛĮÚº": 5148,
      "ĠÚ¯ÙĪØ±": 5149,
      "ĠØªÙĪÙĤØ¹": 5150,
      "ĠÚ©Ø±Ø§Ùħ": 5151,
      "Ø³ÛĮÙĦ": 5152,
      "ĠØ¨ÚĳÚ¾Ø§ÙĨÛĴ": 5153,
      "ĠØ·Ø§Ø±ÙĤ": 5154,
      "ĠÙħØ§Ø±Ø´ÙĦ": 5155,
      "ĠÚ©Ú¾ÛĮÙĦØªÛĴ": 5156,
      "Ø§ÙĪÛĮØ±": 5157,
      "ĠÙ¹ÙĪØ±": 5158,
      "Ġ1982": 5159,
      "ÙĪÙĦÚ©": 5160,
      "ĠÚ¯ÙĨØ§Ûģ": 5161,
      "ĠÙĪÚ©Ù¹ÙĪØ±ÛĮÛģ": 5162,
      "ĠÙģØ§Ø¤ÙĨ": 5163,
      "ĠÙ¾ÛĮØ±Ø´": 5164,
      "ÛĮÙĪ": 5165,
      "ĠØµØ¯Ø§Ø±ØªÛĮ": 5166,
      "ĠÛģØ±ÛĮ": 5167,
      "ĠØ§Ø¹ØªØ¨Ø§Ø±": 5168,
      "ĠØ¯Ø±Ø¬ÛĴ": 5169,
      "ĠÙ¹Ø§Ù¾": 5170,
      "ÙħØ±ÛĮ": 5171,
      "Ø³ÛĮÙ¹": 5172,
      "Ø±ÛĮØ§Ø³Øª": 5173,
      "ĠØªØ®ÙĦÛĮÙĤ": 5174,
      "ĠÙ¹Ø§Ø±Ú¯": 5175,
      "ĠÚĪØ±Ø§Ø¦ÛĮ": 5176,
      "ĠØ¨Ø§ÙĦØ¢Ø®Ø±": 5177,
      "ĠÙĦÚ©Ú¾ØªÛĴ": 5178,
      "ews": 5179,
      "ĠÙħØªØŃØ¯": 5180,
      "ĠØ³ÛĮÙģ": 5181,
      "ĠÙĪØ§Ø¦ÛĮ": 5182,
      "ĠÙģØ§ØªØŃ": 5183,
      "ĠØ±Ú©Ú¾ÛĮÚº": 5184,
      "ĠØ¢Ú©Ø³ÙģÙĪØ±ÚĪ": 5185,
      "ĠØ¯Ø±ÙĪØ§Ø²ÛĴ": 5186,
      "ĠÚĨØ§ÙĨØ¯": 5187,
      "ĠÙħØ¶ÙħÙĪÙĨ": 5188,
      "ĠÚ©Ø§Øº": 5189,
      "ĠØ§ÙĪØ¨": 5190,
      "ĠÙħÙĦÚ©Ûģ": 5191,
      "Ú©ØªÛģ": 5192,
      "ÙĪØ§ÚĪ": 5193,
      "ĠØªØ¨Ø§ÛģÛĮ": 5194,
      "ĠÙ¾ÛĮÙ¾ÙĦØ²Ù¾Ø§Ø±Ù¹ÛĮ": 5195,
      "ØªØ±ÛĮÙĨ": 5196,
      "ĠÚ¯Ø§ÚĳÛĮÙĪÚº": 5197,
      "ĠØ¹Ø¯ÙĦÛĮÛģ": 5198,
      "age": 5199,
      "ÚĨÛĮÙĨØ¬": 5200,
      "ĠÚ¯Ú¾Ø±ÛĮÙĦÙĪ": 5201,
      "ĠÙĨØµØ¨": 5202,
      "ÙĨÚĪÛĴ": 5203,
      "ĠÙĪÚ©ÙĦØ§Ø¡": 5204,
      "ĠØ¹Ø²Øª": 5205,
      "²Û°": 5206,
      "ĠÚĪØ§ÙĦØ§": 5207,
      "ĠØ§ÙĦØ¹ÙĦÙĪÙħ": 5208,
      "ĠØ³ÙĨØ¬": 5209,
      "ĠØ³Ú©ÛĮ": 5210,
      "ĠÙ¾Ú¾ÙĪÙĦ": 5211,
      "ĠÙħÛĮØ²Ø§Ø¦ÙĦ": 5212,
      "ĠÙ¹Ú©Ø±": 5213,
      "ĠØ¹Øµ": 5214,
      "ĠÙĦÛģØ°Ø§": 5215,
      "ĠØ§ÙĦØ¨Ùħ": 5216,
      "ĠÚ©Ø±ÛĮÙĨÚ¯ÛĴ": 5217,
      "Ġ|": 5218,
      "Ø§ÚĨ": 5219,
      "Ø¨ÙĪÙĨ": 5220,
      "ĠÙħØ«ÙĦØ§": 5221,
      "ĠØ¯Ø§Ø±ÙĪÚº": 5222,
      "ĠØ§Ø´Ø¹": 5223,
      "ĠÙģØ§Ø¤ÙĨÚĪÛĮØ´ÙĨ": 5224,
      "Ø¸Ø±": 5225,
      "Ø¬ÛĮØ±ÛĮØ§": 5226,
      "ØªØŃØ±ÛĮÚ©": 5227,
      "ĠÙ¾ÛĮØ±ÙĪ": 5228,
      "ĠØ§ØºÙĪØ§": 5229,
      "ĠÙ¹Ú¾ÙĪØ³": 5230,
      "ĠØ¹Ø±Ø§ÙĤÛĮ": 5231,
      "ĠÚ©Ø´ÙħÛĮØ±ÛĮÙĪÚº": 5232,
      "ĠØµØ§ÙĦØŃ": 5233,
      "ĠÙ¾ÙĪÚĨÚ¾Ø§": 5234,
      "ĠØ¢Ø±ÚĪØ±": 5235,
      "ĠÙħØ§Ø³Ù¹Ø±": 5236,
      "ÙģÛĮÙĨ": 5237,
      "ĠÚĨÛĮÙĨÙĦ": 5238,
      "ĠÙħØ§Ø±Ø§": 5239,
      "Ø§Ø¯ÛĮØ§": 5240,
      "ØªØ±ÛĮ": 5241,
      "ĠØ®Ø§Ø·Ø±": 5242,
      "ĠÚ©Ù¹": 5243,
      "ĠÙĦÚ¯ØªØ§": 5244,
      "ÙĪØ®": 5245,
      "ĠØ§ÙĦÙħÙĨ": 5246,
      "ĠÙħØŃØ§ÙģØ¸": 5247,
      "ĠÙ¾Ø±ÚĨÙħ": 5248,
      "ĠÙĦÚ¯Ø§Ø¦ÛĴ": 5249,
      "Ø¬ÙĪÙĨ": 5250,
      "ĠØ³ÛĮÚ©ÙĨÚĪ": 5251,
      "ĠÙħØ§Ø¦ÛĮÚ©ÙĦ": 5252,
      "ĠÚ¯ÛĮØ±": 5253,
      "ĠÙħÛĮØ²Ø¨Ø§ÙĨÛĮ": 5254,
      "ĠÚ©ÙĪØ±ÛĮ": 5255,
      "ĠÙħØ³Ø§ÙģØ±": 5256,
      "ĠØ·ÛĮØ§Ø±Ûģ": 5257,
      "Ġ1978": 5258,
      "ĠÙħØ·Ø§ÙĦØ¨": 5259,
      "ĠÙĪØ±Ø¬ÛĮÙĨÛĮØ§": 5260,
      "ĠØ§ÚĨÚ¾ÛĴ": 5261,
      "ina": 5262,
      "ÙħÛĮØ´ÙĨ": 5263,
      "ĠØ¹Ø²Ùħ": 5264,
      "ĠÙĤØ§Øª": 5265,
      "eg": 5266,
      "ĠØ³ÙĪØ§ÙĨ": 5267,
      "ĠØ§ÛĮÙĪØ§Ø±ÚĪØ²": 5268,
      "ĠÚĨØ§ÛģØªÛĮ": 5269,
      "ĠØ¨ÛĮÚ¯Ùħ": 5270,
      "2013": 5271,
      "ÙħÙĪØ¬ÙĪØ¯": 5272,
      "ĠØŃØ§ÙħØ¯": 5273,
      "ĠÙħÙĦØ§Ø¦ÛĮ": 5274,
      "ĠÚ©Ù¾Øª": 5275,
      "Ġ2025": 5276,
      "ĠÙħØŃØ¨": 5277,
      "ĠÙĨÛĮØ¨": 5278,
      "ĠØ¯ÙģØ¹Ûģ": 5279,
      "ĠØªØ°Ú©Ø±Ûģ": 5280,
      "ob": 5281,
      "ĠÚĨÙĦÙĨÛĴ": 5282,
      "ĠØ¬ÙĨØ§ØŃ": 5283,
      "ĠSh": 5284,
      "ĠÐ": 5285,
      "Ø³Ù¹ÛĮ": 5286,
      "Ø´ÛĮØ±": 5287,
      "ĠÙĦÙĪÚ©": 5288,
      "ĠÙħØµØ·ÙģÛĮ": 5289,
      "ĠØ§ÙĨÚ¯ÛĮ": 5290,
      "ĠØ§Ø³Ù¹Ø±": 5291,
      "Ġ1947": 5292,
      "ĠÙĨÛĮÙħ": 5293,
      "ĠØŃØ±Ø§Ø³Øª": 5294,
      "ĠÙĤØ¨ÛĮÙĦÛĴ": 5295,
      "Ú©Ø±ÙĪÚĳ": 5296,
      "ĠØ³ÛĮÚ©Ù¹Ø±": 5297,
      "Ġ1983": 5298,
      "Ġ1977": 5299,
      "ĠØ¯ÙħØ´ÙĤ": 5300,
      "Ø³Ù¹Ø±ÛĮÙĦ": 5301,
      "Ù¹Ú¾ÛĮ": 5302,
      "Ø±ÙĪØ²": 5303,
      "ĠÙħØ³Ø¦ÙĦÛĴ": 5304,
      "ĠØªÛĮØ±": 5305,
      "Ġ37": 5306,
      "Ġ1950": 5307,
      "ØªÛĮÛģ": 5308,
      "ĠÙħÙĨØ´ÛĮ": 5309,
      "ĠØ¬ÙħÙĪÚº": 5310,
      "ĠØºØ²": 5311,
      "ĠØ·ÛĮØ§Ø±ÛĴ": 5312,
      "ĠØŃØ¶ÙĪØ±": 5313,
      "ÚĨÚ©": 5314,
      "ĠÙģÛĮØ¶": 5315,
      "ÙĪÙĨÛĴ": 5316,
      "ĠÚ©ÛĮØªÚ¾": 5317,
      "ĠØ§ÙħØ¯Ø§Ø¯ÛĮ": 5318,
      "ĠÚĪØ¨ÙĦ": 5319,
      "ĠØ§Ø³Ù¹Ø§Ú©": 5320,
      "ÙħÙĦÛģ": 5321,
      "ĠØ±Ø§Ø¬Ûģ": 5322,
      "ĠØŃÙĪØµÙĦÛģ": 5323,
      "ĠØĵ": 5324,
      "ĠØ¢Ø±Ùħ": 5325,
      "ĠØ³Ø±ÙĪØ±": 5326,
      "Ø§Ø·ÛĮÙĨÛĮ": 5327,
      "Ø±Ø§Ø¨": 5328,
      "ĠÚ¯ÛĮÙħ": 5329,
      "Ø¨Ø±Ø·": 5330,
      "Ø±Ø¨Ø§Ø¦ÛĮØ¬Ø§ÙĨ": 5331,
      "Ø§ÙĤØ¨": 5332,
      "ĠÙħÙĨÚĪÛĮ": 5333,
      "day": 5334,
      "ĠØ³ÚĳÚ©ÙĪÚº": 5335,
      "ĠÙĦÛĮÚ©Ø³": 5336,
      "ĠÛģÚĳ": 5337,
      "ĠÙģØ¶Ø§Ø¦ÛĮÛģ": 5338,
      "ÙĨÚ©": 5339,
      "ĠØ§Ø³Ù¾ÙĪØ±Ù¹Ø³": 5340,
      "ĠØ¨Ø§Ø¤ÙĦØ±": 5341,
      "Ø§Ø«Ø±": 5342,
      "ĠÙħØŃÙĪØ±": 5343,
      "ĠÚ©Ø§ÙĦÙĪÙĨÛĮ": 5344,
      "ĠÙĤØ§Ø¯Ø±ÛĮ": 5345,
      "Ø¯Ø±Ø¢ÙħØ¯": 5346,
      "ĠØ¬Ú¾ÛĮÙĦ": 5347,
      "ter": 5348,
      "Ø³Ù¹ÙĨÙ¹": 5349,
      "Ú©ÙĪØ±Ûģ": 5350,
      "ÙĪÙĨÛģ": 5351,
      "ĠØ¯Ú©Ú¾Ø§ÛĮØ§": 5352,
      "ĠÙħÛĮÙĪÙĨ": 5353,
      "ĠØ´Ø¹ÛĮØ¨": 5354,
      "ĠØ³ÙģØ§Ø±Ø´": 5355,
      "Ø®ÙĦ": 5356,
      "ÙģÛĮÙĦÚĪ": 5357,
      "ÙģØ±Ø¯": 5358,
      "ĠZ": 5359,
      "ĠØ§ÙĨÚ¯ÙĦØ³ØªØ§ÙĨ": 5360,
      "Ú©ÙĪÚ©": 5361,
      "ĠÙħØ³ÛĮØŃÛĮ": 5362,
      "ĠÙĪØ§Ø¦Ù¹": 5363,
      "ical": 5364,
      "ĠØ²ÛĮØ¯": 5365,
      "ĠÚ©Ø§Ø±Ù¾ÙĪØ±ÛĮØ´ÙĨ": 5366,
      "ĠØ¨ÚĨØ§ÙĨÛĴ": 5367,
      "ubl": 5368,
      "ÛĮØ±Øª": 5369,
      "ĠØ§Ø¶Ø§ÙģÛĮ": 5370,
      "ÙħØ§ÙĨÛĮÛģ": 5371,
      "ĠØ§Ù¹Ú¾Ø§ÛĮØ§": 5372,
      "08": 5373,
      "ĠÙħØ§Ø®": 5374,
      "ĠØ³ÙħØ±": 5375,
      "ĠØ¬Ø§Ù¾Ø§ÙĨÛĮ": 5376,
      "Ø±ÛĮÙĪ": 5377,
      "ĠÙ¹Ú©": 5378,
      "ĠØ¬ÙĪÛģØ±ÛĮ": 5379,
      "ĠÙ¾ÙĪÙĦÛĮÙĪ": 5380,
      "ĠÙĤØ¨Ø±Ø³ØªØ§ÙĨ": 5381,
      "rchive": 5382,
      "ĠØ¯ÛĮØ¯ÛĮ": 5383,
      "ĠØ±Ø¨ÛĮ": 5384,
      "Ø¹Ø¯Ùħ": 5385,
      "Ø¨Ø·": 5386,
      "ĠÙħÙĪØ¯ÛĮ": 5387,
      "Ø¬Ú¾": 5388,
      "ĠØªÛģØ±Ø§ÙĨ": 5389,
      "ĠØ§ØŃØ³ÙĨ": 5390,
      "ĠØ§Ø³Ø¯": 5391,
      "ĠÙ¾ÛĮØ³ÛĴ": 5392,
      "ĠØ¨Ø§ÙĨ": 5393,
      "ÙĨÚ¯Ø±": 5394,
      "not": 5395,
      "ĠØ³Ø±Ø¯": 5396,
      "ĠØ§ØŃØ§Ø¯ÛĮØ«": 5397,
      "ĠØ¯Ø§Ø±Ø§ÙĦØŃÚ©ÙĪÙħØª": 5398,
      "ĠÛģØ¯Ùģ": 5399,
      "ĠÙħØŃØ¯Ø«": 5400,
      "ĠÙĨÙĪØ§Ø²Ø´Ø±ÛĮÙģ": 5401,
      "ĠØ¹Ø³Ú©Ø±ÛĮ": 5402,
      "ĠØ§ØŃÚ©Ø§ÙħØ§Øª": 5403,
      "ĠÚ©Ø±Ø±ÛģÛĮ": 5404,
      "ĠØ§ï·²": 5405,
      "ĠÙĪÙĨÚĪ": 5406,
      "ØµÛĮÙĦÛĮ": 5407,
      "ÙĪÙ´": 5408,
      "ĠØ¨Ø±Ø§Ø²ÛĮÙĦ": 5409,
      "ĠØ®Ø§ÙĦÛĮ": 5410,
      "Ø²Ø§Ø¯ÛĮ": 5411,
      "ĠÙħØ·ÙĦÙĤ": 5412,
      "ĠÙ¾Ø³ÙĨØ¯ÛĮ": 5413,
      "ĠÙĦÛģØ±": 5414,
      "ĠÙĦÛĮÙģ": 5415,
      "Ø§Ø¯Ø§Ú©": 5416,
      "ĠØ³Ø±Ù¾Ø±": 5417,
      "Ø§ØªÚ¾Ø§": 5418,
      "Ø¯ÛĮÛģ": 5419,
      "ĠØ¨Ø§Ø¤ÙĦÙĨÚ¯": 5420,
      "ĠØ³Ø§ØŃÙĦ": 5421,
      "Ø¨Ú©": 5422,
      "ĠØªÙĤØ±ÛĮØ±": 5423,
      "ĠÙģÛĮÚĪØ±ÛĮØ´ÙĨ": 5424,
      "ĠØ¨Ú¾Ú¯": 5425,
      "ÙħØŃÚ©": 5426,
      "Ú¯Ø§ÙĦÛĮ": 5427,
      "ÚĨØ±Ø²": 5428,
      "ĠØ±Ø§ÙĪÛĮ": 5429,
      "ĠØªÛĮÙħ": 5430,
      "ØŃÛĮØ¯": 5431,
      "ĠØŃØ±Ø§Ø±Øª": 5432,
      "Ú¯ÛĴ": 5433,
      "ĠÙĪØ²ÛĮØ±Ø³ØªØ§ÙĨ": 5434,
      "Ġ1973": 5435,
      "ĠØ§ÙĨÙĪ": 5436,
      "ĠÙħÛĮÚ©Ø³ÛĮÚ©ÙĪ": 5437,
      "Ù¹ÛĮÙĨÙĨÙ¹": 5438,
      "ĠØ³Ø³ÛĮÚ©Ø³": 5439,
      "ÙħØ®Øª": 5440,
      "Ø´Ø§Ùħ": 5441,
      "àª": 5442,
      "ĠØ§ÛĮÚ©Ù¹": 5443,
      "ĠØ±ÙĪÙĦ": 5444,
      "ĠÙħØ³Ø§Ø¬Ø¯": 5445,
      "Ø¬ÙĨÙĪØ¨ÛĮ": 5446,
      "ĠØ¹Ø¯Ø¯": 5447,
      "ĠØ§ÙħÙ¾Ø§Ø¦Ø±": 5448,
      "ĠØ§ÛĮÚ©Ø³ÚĨÛĮÙĨØ¬": 5449,
      "ĠÚ©Ù¾ØªØ§ÙĨÛĮ": 5450,
      "ĠÙ¾Ø±ÙĨØ³": 5451,
      "ÙĨØ¯ÙĪ": 5452,
      "Ø¬Ø³Ù¹": 5453,
      "ĠØ§ÙĤØ³Ø§Ùħ": 5454,
      "ÙĪØ±ÛĴ": 5455,
      "ĠØ³Ø±ÚĨ": 5456,
      "ĠÙħØªØŃØ±Ú©": 5457,
      "ĠÚ©ÛĮÚĨ": 5458,
      "ĠØŃØ§Ø¯Ø«ÛĴ": 5459,
      "ĠÙħØ´ÙĪØ±Ûģ": 5460,
      "ĠÙħÙĨØµØ¨": 5461,
      "ĠÙģÙĦØ§ØŃ": 5462,
      "09": 5463,
      "ÙħÙĪ": 5464,
      "Ġpp": 5465,
      "ĠØ¨Ø±Ûģ": 5466,
      "ĠØ§ÛĮÙ¹ÙħÛĮ": 5467,
      "ipedia": 5468,
      "our": 5469,
      "ĠØŃØ¨ÛĮØ¨": 5470,
      "ong": 5471,
      "Ø§ÙĨØ¯Ú¾ÛĮ": 5472,
      "ĠØ±Ú©Ú¾ÙĨØ§": 5473,
      "ĠØªÛĮØ³Ø±Ø§": 5474,
      "ĠÙĦØ§Ú©Ú¾ÙĪÚº": 5475,
      "ÙħØŃÚ©ÙħÛģ": 5476,
      "ĠØµÙĨØ¹ØªÛĮ": 5477,
      "Ú¯ÙĪØ¯": 5478,
      "ĠØ¢Ø³Ø§ÙĨÛĮ": 5479,
      "ĠÙĦØ§Ø¦Ø¨": 5480,
      "ĠÙģØ·": 5481,
      "ĠÛĮØ§Ø³": 5482,
      "Ú¯ÙĪØ±ÙĨ": 5483,
      "ĠÙĨÛĮÚ©": 5484,
      "ÚĪÙĪÙĦ": 5485,
      "ĠÙĨØ§Ø¦ÛĮ": 5486,
      "ĠÙħØ¸ÙģØ±": 5487,
      "ĠØ¨ÙĪØ¯": 5488,
      "ĠØ®Ø§Ú©": 5489,
      "ĠØ¨Ø±ÛĮÙģ": 5490,
      "ĠØ±ÙĪÙĨ": 5491,
      "ĠØ¯ÛĮÙĪÛĮ": 5492,
      "ĠØŃØ³Ø§Ø¨": 5493,
      "ĠØ¹Ø¯Ø§ÙĦØªÛĮ": 5494,
      "ĠØ¨ÛģØ§Ø¯Ø±": 5495,
      "Ø¹Ú©Ø³": 5496,
      "Ú©ÙĪØ¦": 5497,
      "ĠÙĨØ§Ù¹": 5498,
      "Ġ1975": 5499,
      "ĠØ§Ø³ÙĦÙħ": 5500,
      "ĠÚĺ": 5501,
      "ĠØ³ÙĨØ³": 5502,
      "Ġ1974": 5503,
      "ĠÙħÙĤØ¨Ø±": 5504,
      "ĠÙ¾ÚĳÚ¾ÙĨÛĴ": 5505,
      "ĠØ¬ÙĨÚ¯Ø¬ÙĪ": 5506,
      "ĠÙģÛĮØ±": 5507,
      "ĠDistrict": 5508,
      "ĠØ§ÛĮØ¬ÙĪÚ©ÛĮØ´ÙĨ": 5509,
      "ĠØ¬Ø¹ÙĦÛĮ": 5510,
      "ĠØ§ÙĦØ§Ø³": 5511,
      "ĠØ¬Ø§ÙĨÙĪØ±ÙĪÚº": 5512,
      "ĠÚ©Ø±ÙĪÚº": 5513,
      "ÙħØ§Ø±ÚĨ": 5514,
      "Ú©Ø³ÙĨ": 5515,
      "ÙĪØ±ÛĮÙĨ": 5516,
      "Ø¦ÛĮØ³": 5517,
      "ĠØŃØ²Ø¨": 5518,
      "ĠÚ¯ÛĮØª": 5519,
      "ĠØ¨ÙĨØ§Ø¦ÛĮÚº": 5520,
      "ĠÙħÙĨØµÙĪØ±": 5521,
      "ĠÙħØ²Ø§ØŃÙħØª": 5522,
      "ĠÚĨÙĦØ§ÙĨÛĴ": 5523,
      "ĠÛģÙĪÙĨÚ¯ÛĴ": 5524,
      "ĠÚ©Ú¾ÚĳØ§": 5525,
      "ĠØ§Ø®Ø¨Ø§Ø±Øª": 5526,
      "ÙĪÙ¾ÙĪÙĦÛĮ": 5527,
      "ĠØ¨ÚĨÛģ": 5528,
      "Ø§ÛĮÙģ": 5529,
      "Ø¯Ø³ÙħØ¨Ø±": 5530,
      "ÙĦØ§Ø¦ÛĮ": 5531,
      "ĠÙħÛĮÚĪ": 5532,
      "ĠØ§Ø±Øª": 5533,
      "ÙĪÛĮØ´": 5534,
      "02": 5535,
      "ĠØ°ÙĪØ§ÙĦ": 5536,
      "Ú©Ù¹Ø±ÛĮ": 5537,
      "ĠØ§Ø³Ù¹Ø±ÛĮÙ¹": 5538,
      "Ù¹Ø±ÙĨ": 5539,
      "ph": 5540,
      "ĠØªÙĨØ®ÙĪØ§Ûģ": 5541,
      "ĠÙ¾Ø§ÙĨÚĨÙĪÛĮÚº": 5542,
      "ÙĪØ±ÛĮÚĪØ§": 5543,
      "ĠØªÙħØº": 5544,
      "2014": 5545,
      "Ù¾ÛĮÙ¾ÙĦØ²": 5546,
      "ÚĺØ§Ø¯": 5547,
      "ĠØ§ØŃØªØ³Ø§Ø¨": 5548,
      "ÛĮØ¹ÙĨÛĮ": 5549,
      "ĠØ§ÙĨØªÛģØ§": 5550,
      "Ú©Ù¾": 5551,
      "Ġ38": 5552,
      "ĠÙĨØ¨ÙĪÛĮ": 5553,
      "ĠØ¯ÙĪØ³ØªÛĮ": 5554,
      "Ú©ÙĪÙĨØ³ÙĨ": 5555,
      "ĠØ§ÛĮÚĪÛĮØ´ÙĨ": 5556,
      "Ù¾ÛĮØ´": 5557,
      "Ú¾Ø±Ø§": 5558,
      "ĠÙĨÙģØ³ÛĮ": 5559,
      "ie": 5560,
      "Ø§Ø±Ø«": 5561,
      "Ø¨Ø±Ù¹": 5562,
      "Ø¹Ø±": 5563,
      "ĠÚ©Ø±Ø§Ø¦ÛĴ": 5564,
      "ĠÙħÙĪØ«Ø±": 5565,
      "ĠØ¨ØŃØ±ÛĮÛģ": 5566,
      "ĠØªØµØ§ÙĪÛĮØ±": 5567,
      "ĠÚ¯Ø±ÛĮÚĪ": 5568,
      "ĠÚĨÚ©Ø±": 5569,
      "\".": 5570,
      "ĠØ³Ø§Ø¦Ù¹": 5571,
      "ue": 5572,
      "ĠÚĨØ§ÙĨ": 5573,
      "Ø§ÛĮØ§Øª": 5574,
      "ĠÂ°": 5575,
      "ĠCom": 5576,
      "ĠÚ©ÛĮÙģ": 5577,
      "Ø´Ù¾": 5578,
      "\"ØĮ": 5579,
      "ĠUn": 5580,
      "ĠØ¶ÙĦØ¹ÛĮ": 5581,
      "ĠØ®Ø·Ø±": 5582,
      "ĠÙħÙĪØ³ÛĮÙĤØ§Ø±": 5583,
      "han": 5584,
      "Ø§ÛĮØ±": 5585,
      "ĠØ§Ø·Ø§ÙĦÛĮÛģ": 5586,
      "Ø§ÛĮÚĪ": 5587,
      "ĠØ¯ÛĮÚ©Ú¾ØªÛĴ": 5588,
      "ÙħÙĪØ¬ÙĪØ¯Ûģ": 5589,
      "ĠØ¯ÙĦÛĮ": 5590,
      "Ø§Ø³Ù¹Ø±": 5591,
      "ĠØ³Ù¾Ø±Ø¯": 5592,
      "Ġ1976": 5593,
      "Ġby": 5594,
      "Ú©ÙĪÚº": 5595,
      "ĠØ§Ø¯ÛĮØ¨": 5596,
      "ØĴ": 5597,
      "ĠÙĤØ³": 5598,
      "ĠØ¯Ú¾ÙħÚ©ÛĮ": 5599,
      "ĠØ¨Ú¾Ø§Ø¦ÛĮÙĪÚº": 5600,
      "ĠØ²ÙĪÙĨ": 5601,
      "Ø§ÙĦÙĤ": 5602,
      "ĠÙĨØ§Ø±ÙĪÛĴ": 5603,
      "ĠØ³ÛĮØ§Ø±ÚĨÛĴ": 5604,
      "ĠÙĦØ¨ÙĨØ§ÙĨ": 5605,
      "ĠØ³ÙĪØ§Øª": 5606,
      "wikipedia": 5607,
      "ĠØ§ÙĦÙĤØ±Ø¢ÙĨ": 5608,
      "Ø¨ÙĨÚ¯": 5609,
      "Ø§Ø¸Ø±": 5610,
      "wiki": 5611,
      "ØªÙĤØ±ÛĮØ¨": 5612,
      "Ø³Ù¾Ø±ÛĮÙħ": 5613,
      "ĠØ®ÙĪØ±Ø§Ú©": 5614,
      "ĠØ³Ø§ØªÚ¾ÛĮÙĪÚº": 5615,
      "ĠØ¢ÛģØ³ØªÛģ": 5616,
      "ĠÙħØ§ÙĦÛĮØ§ØªÛĮ": 5617,
      "ĠØªØ§Ø¦ÛĮ": 5618,
      "'s": 5619,
      "Ø§ÙĪØ±Øª": 5620,
      "ĠÙģØ§ØµÙĦÛĴ": 5621,
      "ĠÙ¾ÛĮØ§Ø±": 5622,
      "Ø³ØªÙħØ¨Ø±": 5623,
      "ĠØ§ÙħØªÛĮØ§Ø²": 5624,
      "ĠÙħØ¨Øª": 5625,
      "ĠØ§ÙĦÙħÙĦÚ©": 5626,
      "ĠÛĮÙĪÙĨØ³": 5627,
      "ĠØ¬ÙĪÙĨÛĮ": 5628,
      "ĠØ§Ø³Ù¹ÙĪ": 5629,
      "ĠØ¨Ø§ØªÛĮÚº": 5630,
      "ĠÙĪØ³Ú©ÙĪÙĨØ³ÙĨ": 5631,
      "ĠØ¨Ø±ÛĮÚ©": 5632,
      "ĠØ§ÙħÛĮÙĨ": 5633,
      "ĠÙģØ®Ø±": 5634,
      "ĠÚĨØ´": 5635,
      "Ø³Ù¾ÙĦ": 5636,
      "Ø¹ÛĮÙĨ": 5637,
      "ÛĮØ³ÙĨ": 5638,
      "ĠÙĪØ¬ÙĪÛģ": 5639,
      "ĠÙħØ¹ÛĮØ§Ø±ÛĮ": 5640,
      "Ø§ÙĦÙĪÛĮ": 5641,
      "ĠÚ©ÛĮØ±ÙĪÙĦØ§Ø¦ÙĨØ§": 5642,
      "ĠØ¢Ø°Ø±Ø¨Ø§Ø¦ÛĮØ¬Ø§ÙĨ": 5643,
      "ĠØ¯Ø±Ø§ØµÙĦ": 5644,
      "ØµØŃ": 5645,
      "ĠØ§Ø±Ø§Ø¯Ûģ": 5646,
      "Ø³Ø¹ÙĪØ¯ÛĮ": 5647,
      "ĠØ¹Ø¬": 5648,
      "Ø±Ú©Ø§Ø±": 5649,
      "Ø¨ØªÛģ": 5650,
      "ĠÛĴ": 5651,
      "ĠÙ¾ÚĳÛĮ": 5652,
      "ĠÙĪØ³ÛĮÙħ": 5653,
      "ĠÙĦØ§Ø³": 5654,
      "ĠÙħÙĨØ²ÙĦ": 5655,
      "Ġ42": 5656,
      "Ú©Ø§ÙĦ": 5657,
      "ÙĪÙħÙĨÙ¹": 5658,
      "ĠÙħØ¹ÙħÙĪÙĦ": 5659,
      "Ġ1972": 5660,
      "ĠØ´ÛģØ²Ø§Ø¯": 5661,
      "âĢĻâĢĻ": 5662,
      "ĠØ±ØŃÙħ": 5663,
      "Ø´ÙĪ": 5664,
      "ĠØ§ÙĦÙĤØ§Ø¯Ø±ÛĮ": 5665,
      "ĠØªÙĤØ±Ø±ÛĮ": 5666,
      "ĠÙħÙģØª": 5667,
      "ĠÙĦØ§Ú¯": 5668,
      "ĠÙħØŃÛĮ": 5669,
      "ÙĨØ¯Ø±ÛĮ": 5670,
      "ĠØ®ÙĪØ¯Ú©Ø´": 5671,
      "ĠØ¨Ø±Ùģ": 5672,
      "):": 5673,
      "ĠØ±Ø³Ùħ": 5674,
      "Ø¹ÙĪØ§Ùħ": 5675,
      "ĠØªØ§Ø¬Ø±": 5676,
      "ĠÚ¯ÙĦÙĪÚ©Ø§Ø±": 5677,
      "ĠÚ¯ÙĪØ¬": 5678,
      "ĠÙĦØ¨Ø§Ø³": 5679,
      "ĠØµØŃØ§Ø¨Ûģ": 5680,
      "ĠØ¬Ø³ÙħØ§ÙĨÛĮ": 5681,
      "Ú©ÙĪØ¦ÛĮ": 5682,
      "Ø³ÙĨÚ¯": 5683,
      "ĠØ±ÙĪÙ¾": 5684,
      "ĠÙ¾ÛĮØ´Ú©Ø´": 5685,
      "ies": 5686,
      "ĠØ±Ø§Ø¤": 5687,
      "ĠØŃÙĦÙģ": 5688,
      "ĠÙĪØ§Ø±Ø¯": 5689,
      "Ø§Ø¦ÙĦÙ¹": 5690,
      "ĠØ´Ø¹Ø±": 5691,
      "ĠØ±Ú¯": 5692,
      "ĠÙ¹Ú¾ÛĮÚ©": 5693,
      "ĠØ§ØªØ§Ø±": 5694,
      "Ø¨ÙĪØ¯": 5695,
      "ĠØ¹Ø¨Ø¯Ø§ÙĦÙĦÛģ": 5696,
      "ĠØ¨ÙĦØª": 5697,
      "ĠØ´ÙħØ³": 5698,
      "ØµÛģ": 5699,
      "ĠÙĦØ§Ù¾": 5700,
      "ĠØ¬ÙĨÙħ": 5701,
      "ĠØ´Ø§ÛģØ±Ø§Ûģ": 5702,
      "ĠÛģÙĪÚĨ": 5703,
      "ĠØ¯Ø§ÙĨØ´": 5704,
      "Ø§Ø®ÛĮØ±": 5705,
      "ĠÙģØ±ÙħØ§ØªÛĴ": 5706,
      "ĠØ§ÙĨÚĪÙĪÙĨÛĮ": 5707,
      "Ø®Ùħ": 5708,
      "ĠØ§Ø´Ø§Ø±Ûģ": 5709,
      "Ġ48": 5710,
      "Ú©Ø§Ø±Ûģ": 5711,
      "Ù¾ÙħÙĨÙ¹": 5712,
      "ÚĳÛĮØ§Úº": 5713,
      "Ø§Ø¨Ø¯": 5714,
      "Ø¹Ùħ": 5715,
      "ĠØ§ÚĨØ§ÙĨÚ©": 5716,
      "ĠÛģÙĪØ³": 5717,
      "ĠØ²Ø¨Ø±Ø¯Ø³Øª": 5718,
      "ĠØ¹Ø¨ÛĮØ¯": 5719,
      "ĠØ§Ø®Ø¨Ø§Ø±ØªØ§Ø²Ûģ": 5720,
      "Ù¹Ùħ": 5721,
      "ĠÙħØŃÚ©Ùħ": 5722,
      "ĠÚ©ÛĮØ³Ø§ØªÚ¾": 5723,
      "Ø§Ø¤Ø¯": 5724,
      "Ø§Ø·ÛĮ": 5725,
      "ĠØ±ÙĪÙħÛĮ": 5726,
      "ĠØ±ÛĮØ§Ø¶ÛĮ": 5727,
      "ÙĪÙĦØ±": 5728,
      "Ġ,": 5729,
      "ĠÚ¯ÛĮÙħØ²": 5730,
      "Ġ75": 5731,
      "ĠÙĦØ§Ø¦ÛĮ": 5732,
      "ĠÙĪÙĤÙģ": 5733,
      "Ø¯Ø§Ø¦ÛĮÚº": 5734,
      "ĠÙĨØ´Ø±": 5735,
      "ĠØ¨ÙĨÛĮØ§Ø¯ÙĪÚº": 5736,
      "Ø¨ÛĮÙĦ": 5737,
      "ass": 5738,
      "ĠØ§ÙĨÚĨ": 5739,
      "ĠÚ©Ú¾Ø§ÙĨØ§": 5740,
      "Ġ1948": 5741,
      "ĠÙĨØ³Ø®": 5742,
      "ĠÙģØ§Ø±Ø³": 5743,
      "ĠØ®Ø±Ø§Ø³Ø§ÙĨ": 5744,
      "ØªÛĮÚº": 5745,
      "ÙĪÙģØ§Øª": 5746,
      "ĠØ³Ø±Ø¨": 5747,
      "ĠÛģØ§Ø´ÙħÛĮ": 5748,
      "ĠÙħÛĮØª": 5749,
      "ĠÙħÙĪØ¶ÙĪØ¹Ø§Øª": 5750,
      "ĠØ¨Ø²ÙĨØ³": 5751,
      "ĠØ§Ú©Ù¹": 5752,
      "ĠÙĨØ¸Ø±ÛĮØ§Øª": 5753,
      "ĠØ¢Ø±Ú©": 5754,
      "ĠÙ¾ÚĳØªØ§": 5755,
      "ĠÙĪØ²Ø±Ø§Ø¡": 5756,
      "ÙĨÙĪØ§Ø²": 5757,
      "300": 5758,
      "ĠØ´Ø±Ú©": 5759,
      "ĠÙģØ§ÙĦ": 5760,
      "Ø¹ÙĤÙĪØ¨": 5761,
      "ĠØ¨ÙĦØ¯ÛĮØ§Øª": 5762,
      "ĠÙħÛĴ": 5763,
      "ĠÙħÛĮØªÚ¾": 5764,
      "ÚĪÛĮÙĪØ²": 5765,
      "ĠØ®Ø±Ø§Ø¬": 5766,
      "ĠØ¯ÙģØ§ØªØ±": 5767,
      "ÛĮÙĨÚ¯ÛĴ": 5768,
      "ĠÙ¾Ø§Ø¦": 5769,
      "ĠØªØ¯": 5770,
      "ĠÙ¾Ø±Ø§ÙĨÛĴ": 5771,
      "ĠÙ¾Ø±ÙĪÚĪÚ©Ø´ÙĨ": 5772,
      "²Û°Û±": 5773,
      "ai": 5774,
      "ĠÙĨØ§Ø¦": 5775,
      "ĠØªÙģØµÛĮÙĦÛĮ": 5776,
      "ĠÚ¯ÙĦÚ¯Øª": 5777,
      "ĠØ§ÛĮÙ¾": 5778,
      "ĠÙħÙ¹ÛĮ": 5779,
      "ĠÙĦÚ©Ú¾ÙĨ": 5780,
      "Ġ1969": 5781,
      "Ã©": 5782,
      "ĠÙ¾Ú¾Ø§ÙĨØ³ÛĮ": 5783,
      "ĠØ¬Ø§Ø±Ø¬ÛĮØ§": 5784,
      "ÙħÙĪØ±": 5785,
      "ĠØ¹ÛĮØ³ÛĮ": 5786,
      "ĠØ§Ø³Ù¾ÙĨ": 5787,
      "ĠÙ¾ÚĨØ§Ø³": 5788,
      "ĠØ¹ÙĪØ¶": 5789,
      "ĠØ¨Ø±Ø¹Ú©Ø³": 5790,
      "ĠØ´ÛģØ¯": 5791,
      "ĠÙħØ¨ØªÙĦØ§": 5792,
      "ĠØ§ÙħØª": 5793,
      "ĠÙĪØ§Ø³": 5794,
      "ĠØ¬ÙĦØ§ÙĦ": 5795,
      "ne": 5796,
      "ount": 5797,
      "ĠØ³Ø¨Ø²": 5798,
      "ĠÙħÛģØ±": 5799,
      "ĠÙĨÛĮØ¯": 5800,
      "ĠÚ©ÙħØ§ÙĨÚĪ": 5801,
      "ĠÙĨÛĮÙ¾Ø§ÙĦ": 5802,
      "ĠÚĨÙĦØªØ§": 5803,
      "ĠÚĪØ§Ú©": 5804,
      "ĠÚ©Ø§Ø¨ÙĦ": 5805,
      "ĠØ§Ø³ÙĦØ§ÙħÛĮÛģ": 5806,
      "Ø¨Ø±Ø¯Ø§Ø±": 5807,
      "ĠÚ©Ø§Ø±Ø±ÙĪØ§Ø¦ÛĮÙĪÚº": 5808,
      "ØªÚ©": 5809,
      "ĠÙħÙĨÙģÛĮ": 5810,
      "ĠØ¨Ø´ÙħÙĪÙĦ": 5811,
      "ĠÙĦØ§Ø¦Ø¨Ø±ÛĮØ±ÛĮ": 5812,
      "ĠØĽ": 5813,
      "ĠÚ¯Ø§Ø±": 5814,
      "ĠØ¯Ú¾ÙĪ": 5815,
      "Ø¬ÙĨØ±ÙĦ": 5816,
      "ĠØ¨Ø§Ø¨Ø§": 5817,
      "Ø¨Ø³": 5818,
      "ĠØ¨Ø³ØªÛĮ": 5819,
      "ĠÚ©Ú¾ÛĮÙĦØªØ§": 5820,
      "ĠÙĦÛĮØ³": 5821,
      "out": 5822,
      "Ù¹Ø²": 5823,
      "ĠÙĪØ¹Ø¯Ûģ": 5824,
      "ĠØ¨Ø§Ø¨Ø±": 5825,
      "ĠÙģÙĤ": 5826,
      "az": 5827,
      "ĠÙħÛĮÙĪØ²Ú©": 5828,
      "ĠØ¬ÙĪÚĳ": 5829,
      "ĠØ³ÛĮÙħÛĮ": 5830,
      "ĠØ¦ÛĮ": 5831,
      "ĠÙĦØ§Ø¦": 5832,
      "ĠØ¨ÙĦØªØ³ØªØ§ÙĨ": 5833,
      "ÙħØ§Ùħ": 5834,
      "ĠØ³ÚĨ": 5835,
      "Ø±Ø¨Øª": 5836,
      "ĠØ¯ÙĪØ¯Ú¾": 5837,
      "ĠQ": 5838,
      "ĠØ´ÙĪÚ©Øª": 5839,
      "ĠØ¬Ø²Ø§Ø¦Ø±": 5840,
      "ĠÙ¾ÙĪØ¯": 5841,
      "ĠØ®Ø·Ø±ÛĴ": 5842,
      "ĠØ·ÙĪÙģ": 5843,
      "ĠØ±ÚĨØ±ÚĪ": 5844,
      "ĠØ®Ø§Ø±Ø¬": 5845,
      "ĠØ´Ø±ÛĮØ¹Øª": 5846,
      "Ø¨Ù¹": 5847,
      "ĠÙģØ§ØµÙĦÛģ": 5848,
      "Ø§Ø¦Ø´Ûģ": 5849,
      "Ø§Ø´Ù¹Ø±": 5850,
      "ĠØ¨Ø±ÛĮÙģÙĨÚ¯": 5851,
      "Ø¯ÙĪÙĨÙĪÚº": 5852,
      "Ø§Ø¬Ø§Ø¦ÛĴ": 5853,
      "ĠØ¯Ø±Ø¯": 5854,
      "ĠØ¯ÛĮÚ©Ú¾ÛĮ": 5855,
      "ĠØŃÙĦÙĤÙĪÚº": 5856,
      "ĠÙģÙĨÚĪØ²": 5857,
      "ĠØ§ÙħØ¬Ø¯": 5858,
      "ĠÙ¾ÛģÙĨÚĨØ§ÛĮØ§": 5859,
      "ĠÚ©ÛģØªØ§": 5860,
      "ĠØ¨ÚĨÙ¾ÙĨ": 5861,
      "Ø§Ø³ÛĴ": 5862,
      "ĠØ¹Ø«ÙħØ§ÙĨÛĮÛģ": 5863,
      "ĠÙ¾ÙĪÚĨÚ¾": 5864,
      "ton": 5865,
      "ĠÙħØªØ¨Ø§Ø¯ÙĦ": 5866,
      "reat": 5867,
      "cl": 5868,
      "ĠÙħØ§ÙĨÛĮ": 5869,
      "ĠÚ©Ø§Ù¹": 5870,
      "ĠØ§Ø¹Ø¬Ø§Ø²": 5871,
      "ÙħÛĮÚĪÛĮØ§": 5872,
      "ĠØ§ÛĮØ´ÛĮØ§Ø¦ÛĮ": 5873,
      "ĠØ¨ØŃØ±": 5874,
      "ĠÙĨÚĺØ§Ø¯": 5875,
      "ĠØ¨ÙĦØ§ÛĮØ§": 5876,
      "ĠØ§ÙĨÚ¯ÛĮØ²": 5877,
      "ĠÛĮÛģÙĪØ¯": 5878,
      "ĠÚ¯ÙĪØ´Øª": 5879,
      "ĠØ®ØµÙĪØµÛĮØ§Øª": 5880,
      "ĠÙĨØ¬Ø§Øª": 5881,
      "ØºÛĮ": 5882,
      "ĠÙĨØ§Ú©Ø§ÙħÛĮ": 5883,
      "ĠØ¦ÛĴ": 5884,
      "ĠØ¯Ø§Ø¯Ø§": 5885,
      "ĠÙ¾Ø±ÙģØ§Ø±Ùħ": 5886,
      "ĠÙ¾ÛĮÚĨ": 5887,
      "ĠÙħØ®ØªØµ": 5888,
      "ĠÚĨÚĨØ§": 5889,
      "ĠÙģØª": 5890,
      "Ø±Ø®": 5891,
      "ĠØ³ÛĮØ§ØŃØªÛĮ": 5892,
      "ĠÙħØ´ÛĮÙĨ": 5893,
      "Ġ1965": 5894,
      "ĠØ¬ÙħØ¹Ø±Ø§Øª": 5895,
      "ĠÚ¯Ø±Ø¯Ø´": 5896,
      "Ú¯Ø²Ø´ØªÛģ": 5897,
      "note": 5898,
      "ĠÚ¯Ø§ÙĨÛĴ": 5899,
      "Ø§Ø¹Ø´": 5900,
      "ĠØ§Ø®ØªÙĦØ§ÙģØ§Øª": 5901,
      "uk": 5902,
      "ĠÙ¾Ø§Ù¾": 5903,
      "ĠØ²ÙħØ§ÙĨ": 5904,
      "ĠÙħÛĮÚ¯Ø§": 5905,
      "ÙģÙĤØ§Ø±": 5906,
      "ĠØ§ÛĮÙĨØ¬": 5907,
      "ĠÙģÙĦÙĪØ±ÛĮÚĪØ§": 5908,
      "ÙĤØ³Ùħ": 5909,
      "ĠØ§ÙĦÙĪ": 5910,
      "ĠØ¨Ø§Ø´ÙĨØ¯ÙĪÚº": 5911,
      "ÙĦÛĮÚ©Ø³": 5912,
      "ĠÚ©ÛģÙĨÛĴ": 5913,
      "ÙĦÛĮÚĪ": 5914,
      "ĠØ§Ø³ØªÙģ": 5915,
      "ĠØ§Ø³ØªÙĤ": 5916,
      "2010": 5917,
      "cite": 5918,
      "ĠØªØ§Ø®ÛĮØ±": 5919,
      "ĠÚ©ÙĪØ§Ø±Ù¹Ø±": 5920,
      "Ø¹ÙĦÙħ": 5921,
      "ĠÚ©Ø±Ø´ÙĨ": 5922,
      "ĠÙħÙĨØ§ÙģØ¹": 5923,
      "ÙĪÚĳØ§": 5924,
      "ĠØ¨ÙħØ¨": 5925,
      "ĠØ§Ø³Ù¹Ø§Ø±": 5926,
      "ĠØ´ÙĪØ±": 5927,
      "ĠÙģØ§Ø±Øº": 5928,
      "ĠÙħÙĨØ¹ÙĤØ¯Ûģ": 5929,
      "ĠØ±ÙģÛĮÙĤ": 5930,
      "ĠØ¹ÙĦÙħØ§Ø¡": 5931,
      "land": 5932,
      "ĠÙ¾Ø±ÙĪØ±Ø´": 5933,
      "Ø§Ø¦ÛĮÚ©ÙĦ": 5934,
      "ĠØ³ÛĮÚ©Ø³": 5935,
      "ĠØ®Ø§ÙĨØ¯Ø§ÙĨÙĪÚº": 5936,
      "ĠÚ©Ø§Ø´": 5937,
      "ĠÚ©Ø§Ø³": 5938,
      "ĠØ´ÙģØ§Ùģ": 5939,
      "ĠÙģØ§Ø³Ù¹": 5940,
      "Ø±Ø¯Ûģ": 5941,
      "ĠÙħØ¬ÛĮØ¯": 5942,
      "ĠÙĨÛĮØ¯Ø±ÙĦÛĮÙĨÚĪ": 5943,
      "ĠÙĨÚĨ": 5944,
      "ĠÛģØ§": 5945,
      "ĠÙĨØ§ØªÚ¾": 5946,
      "ĠÙĪØ§Ù¹Ø±": 5947,
      "ĠØ¢Ø¨Ø§Ø¦ÛĮ": 5948,
      "ĠÚ¯ÙĨØ¯": 5949,
      "ĠØ¹Ø±ÙĪØ¬": 5950,
      "Ú¯Ø§ÙĦ": 5951,
      "Ø¹ÙĦÛĮÛģ": 5952,
      "own": 5953,
      "ÙĦÙĪÛĮ": 5954,
      "ĠØ¨ÛĮÙ¹Ú¾ÛĴ": 5955,
      "ĠÙĪØ§Ø¦Ø±Ø³": 5956,
      "ÙħØ¦ÛĮ": 5957,
      "Ø±ÛĮÙ¹": 5958,
      "ĠÙĪÙģØ§ÙĤ": 5959,
      "ĠÙħÙĨÚ¯ÙĦ": 5960,
      "ĠÙħÙģØ§Ø¯Ø§Øª": 5961,
      "ĠÛĮØ²ÛĮØ¯": 5962,
      "ĠÙĤÙĪ": 5963,
      "ĠØ³Ø§Ø¦ÙĨØ³ÛĮ": 5964,
      "ĠØ®ÛĮÙĦ": 5965,
      "ĠØ±Ø¬ØŃØ§ÙĨ": 5966,
      "Ġ55": 5967,
      "ĠØªØ¯Ø±ÛĮØ³": 5968,
      "ach": 5969,
      "ĠØ§ÛĮÙĪØ¨": 5970,
      "ĠØ¢ÙģØ±ÛĮØ¯ÛĮ": 5971,
      "Ø§Ú©Ùħ": 5972,
      "ĠØ¢ÙģØª": 5973,
      "ÚĨÙĪÚº": 5974,
      "ĠÙħØ´Ø§ÙĪØ±Øª": 5975,
      "Ø§ÙĨØªØ¸": 5976,
      "Ø¯Ú¾ÛĮ": 5977,
      "ĠInd": 5978,
      "ĠÙģÙĦÙ¾Ø§Ø¦ÙĨ": 5979,
      "ÙĪØ¬Ú¾": 5980,
      "ĠÚĨÙĪØ±": 5981,
      "ĠÙħØ¹Ø§ÙĪÛĮÛģ": 5982,
      "ĠÙħØ¶Ø§Ùģ": 5983,
      "ĠØ§ÙĦØ·Ø§Ùģ": 5984,
      "ĠÙħØ¹Øª": 5985,
      "Ø¬ÙĨÙĪØ±ÛĮ": 5986,
      "ĠÙħÛĮØ¬Ø±": 5987,
      "ĠÙ¾Ø±Ø³": 5988,
      "Ø¨Ø±Ø§": 5989,
      "ĠÚ¯Ø§ÙĨØ¯Ú¾ÛĮ": 5990,
      "ĠØ¢ØªØ´": 5991,
      "ÙĤØ§Ùħ": 5992,
      "ĠÙĨÙĪØ¹ÛĮØª": 5993,
      "if": 5994,
      "ÛģÛĮÙĨ": 5995,
      "ĠÚ©ÛĮÙħØ±": 5996,
      "ĠÙ¾ÛĮÙ¹": 5997,
      "ĠPr": 5998,
      "Ø§Ø±Ø¯": 5999,
      "ĠØ¢Ú©Ø±": 6000,
      "ĠÙĦØ§Ø±": 6001,
      "ĠÙħØ§Ø¯": 6002,
      "ĠÙģØ§": 6003,
      "ĠÙĨØ³ÙĦÛĮ": 6004,
      "ÙħØ§Ûģ": 6005,
      "Ø§ÙĨÚ¯ÛĮØ±": 6006,
      "ĠØªÚ¾Ø§Ø¦ÛĮ": 6007,
      "ĠÙ¹Ø±Ø§ÙĨØ³Ù¾": 6008,
      "ĠÙħÛĮÙĪÙĨØ³Ù¾ÙĦ": 6009,
      "ÙħØº": 6010,
      "Ù¹ÙħÙĨÙ¹": 6011,
      "ĠÚ©Ø§ÙĦÙħ": 6012,
      "ĠØ®Ø´Ú©": 6013,
      "ÙĦØ§ÛĮØ§": 6014,
      "ĠÛģÚĳØªØ§ÙĦ": 6015,
      "ĠÙĪØ¢": 6016,
      "ĠØªØŃØ³ÛĮÙĨ": 6017,
      "ĠØ¢Ø³Ù¹Ø±ÛĮØ§": 6018,
      "ØŃØ§Ø¨": 6019,
      "ĠÛĮÚ©Ø³": 6020,
      "ĠÙħØŃÙĦÛģ": 6021,
      "ĠÙħÙĤØ¯ÙħÛĴ": 6022,
      "ĠÙħØ¹Ø°": 6023,
      "ĠØ³ÙĦÙĪÚ©": 6024,
      "ĠÙģÛĮÙĦ": 6025,
      "ĠÙħÙĦØªÛĴ": 6026,
      "ĠÚĨÙĪØªÚ¾ÛĴ": 6027,
      "ĠÚĨÙ¹": 6028,
      "Ġ39": 6029,
      "ĠÚĨØ§Ø±ÙĪÚº": 6030,
      "ĠØ§ÛĮÚ©Ø³Ù¾Ø±ÛĮØ³": 6031,
      "Ú©Ù¹Ø³": 6032,
      "ÛĮÛģØ§Úº": 6033,
      "ĠØ®Ø³": 6034,
      "ĠØŃÚ©ÙĪÙħØªÙĪÚº": 6035,
      "Ø§Ù¾Ø±ÛĮÙĦ": 6036,
      "Ø¹Ø¨Ûģ": 6037,
      "ĠÙĤØ§Ø¨": 6038,
      "ĠÙħØ±Ú©ÙĪØ²": 6039,
      "ĠÙħØ¨Ø§Ø±Ú©Ø¨Ø§Ø¯": 6040,
      "ĠØ¨ØŃÛĮØ±Ûģ": 6041,
      "ĠØªÚ©ÙĨÛĮ": 6042,
      "ĠØ±ÛĮØ²": 6043,
      "ĠØ§ÙĪÙĦÛĮÙĨ": 6044,
      "ĠØ§Ø®Ø±Ø§Ø¬Ø§Øª": 6045,
      "2011": 6046,
      "lay": 6047,
      "ĠØ³ÛĮÚ©Ú¾": 6048,
      "ĠØ®ÙĪØ±Ø´ÛĮØ¯": 6049,
      "ĠØ§Ù¹Ú¾Ø§ÙĨÛĴ": 6050,
      "ĠØ¯Ø±Ø¬ÙĨ": 6051,
      "ĠÙ¾Ø§Ø´Ø§": 6052,
      "ĠØªÙĨÚ¯": 6053,
      "ï·º": 6054,
      "Ø³Ø±ÛĮ": 6055,
      "Ú©Ø±Ù¾": 6056,
      "Archive": 6057,
      "Åį": 6058,
      "ĠAr": 6059,
      "ĠÛĮØ§Ø¯Ú¯Ø§Ø±": 6060,
      "Ø¯ÙĪÙħ": 6061,
      "ĠÙħÙĪÚĳ": 6062,
      "ĠØ§Ø²ÛĮÚº": 6063,
      "Ø§ÙĦØ¯ÛĮÙĨ": 6064,
      "ĠÙĨØ§ÙħÙĪØ±": 6065,
      "ĠØ§ÙĨÚ¯ÙĦØ´": 6066,
      "ĠØ¨Ú¾Ø±ØªÛĮ": 6067,
      "ØµÙĪÙħ": 6068,
      "Ù¾Ø±ÛĮ": 6069,
      "Ġ41": 6070,
      "ĠØ§ØµÙĦØ§": 6071,
      "ĠØ§Ø³Ú©Ø±ÛĮÙĨ": 6072,
      "ĠÚ©ÛģÛĮ": 6073,
      "ĠØ§ÙĦØ±ØŃÙħØ§ÙĨ": 6074,
      "ĠØ¹ÙĪØ±ØªÙĪÚº": 6075,
      "ĠÙ¾Ø§Ø¦ÙĦÙ¹": 6076,
      "Ú©ÚĨÚ¾": 6077,
      "Ø¢Ø²Ø§Ø¯": 6078,
      "ĠØ³ÙģØ§Ø±ØªÛĮ": 6079,
      "ĠÙħÙĨÚĨ": 6080,
      "ĠØ±ÛĮØ¬ÙĨ": 6081,
      "ĠÙĨÙģØ§Ø°": 6082,
      "Ø±Ø§Ø²": 6083,
      "ÙħÛĮØ§Úº": 6084,
      "ÚĪÛĮÙĦ": 6085,
      "ØŃØ¯ÛĮ": 6086,
      "ĠÙ¾Ø±ÛĮØ´Ø§ÙĨ": 6087,
      "ĠØ¨ÛĮØ§ÙĨØ§Øª": 6088,
      "ĠÚ©Ø§Ø¦ÙĨ": 6089,
      "ĠÙĪÙĪ": 6090,
      "ĠÚĪØ±ÙĪÙĨ": 6091,
      "ĠØ§ÛĮÙħØ±": 6092,
      "ou": 6093,
      "ĠØªØŃÙĤÛĮÙĤÛĮ": 6094,
      "ĠØ±Ùģ": 6095,
      "ĠÙģÙĦÚ©ÛĮ": 6096,
      "ĠÙĩÙħ": 6097,
      "Ú¾ÙĪ": 6098,
      "ĠÛģÙĪÙĦ": 6099,
      "ĠÙĤØ§ÛģØ±Ûģ": 6100,
      "ĠÙģØ§Ø·ÙħÛģ": 6101,
      "ĠØ±ÛĮØ³Ø±": 6102,
      "ĠØ¶ÛĮØ§Ø¡": 6103,
      "Ġh": 6104,
      "ĠÙħØ±Ø§Ú©Ø²": 6105,
      "ĠÙħØ§Ùħ": 6106,
      "ĠØ¨Ø±Ù¹": 6107,
      "ĠØ³ÙĨÚĨØ±ÛĮØ§Úº": 6108,
      "ĠÙħÙĪØ³ÙħÛĮ": 6109,
      "ĠÛģÙĪØ¬Ø§Ø¦ÛĴ": 6110,
      "ĠÙĤØ±Ø¨Ø§ÙĨÛĮ": 6111,
      "ĠÙĨØ§Ø¸Ùħ": 6112,
      "ĠÙħÙĦØ§Ø¦ÛĮØ´ÛĮØ§": 6113,
      "Ø³Ù¹Ú©": 6114,
      "ÙħÛĮÙ¹ÚĪ": 6115,
      "ĠØ§ÙĦÙĤØ§Ø¹Ø¯Ûģ": 6116,
      "ĠØ³Ù¾Ø§ÛģÛĮ": 6117,
      "ĠØ¨ÛĮØ¹Øª": 6118,
      "ĠÙĦÚ©Ú¾ÙĨÛĴ": 6119,
      "ĠÙħÙĤØ§Ø¨ÙĦÙĪÚº": 6120,
      "Ú©ÛĮÙĨ": 6121,
      "ĠÛģØ§Ø±ÙĪÙĨ": 6122,
      "ĠØ¨ÙĪØ±": 6123,
      "ÚĳÙ¾": 6124,
      "ĠØ§Ø¨Ø§ÙĦ": 6125,
      "ĠØ³ÙħÛĮ": 6126,
      "ĠÛģÛĮÙĦØªÚ¾": 6127,
      "ÙĤØ¯": 6128,
      "ĠÙĤØ§Ùģ": 6129,
      "Ø¨Ú¾ÛĮ": 6130,
      "Ø¨ÙĦÙĪÚĨ": 6131,
      "ĠØ¹Ø§Øµ": 6132,
      "ĠÙ¾Ø±Ø³ØªÛĮ": 6133,
      "ĠØ´ÙĪÙĤ": 6134,
      "ĠÙħÙĨÙģØ±Ø¯": 6135,
      "ĠØ¬ÙħÛĮ": 6136,
      "ĠÙ¹Ø±Ú©": 6137,
      "ĠÚĪØ§ÙĦÙĨÛĴ": 6138,
      "ĠÙģØ±Ø¶": 6139,
      "ind": 6140,
      "ĠÛģØ¯Ø§ÛĮØ§Øª": 6141,
      "ĠØ§ÙħÛĮ": 6142,
      "ĠØ¨ÚĳÚ¾ØªÛĮ": 6143,
      "ĠÙħØŃØ§Øµ": 6144,
      "Ø³ÙĪØ±": 6145,
      "Ú¯ÙĪÙĨ": 6146,
      "Ø¹Ø±Ø¨ÛĮ": 6147,
      "ond": 6148,
      "Ġ1930": 6149,
      "ĠØ§ÙĨÛģÛĮ": 6150,
      "ĠÚ¯Ø±Ø§ÙĨ": 6151,
      "ĠØ¨ÙĪÙĦÙĨÚ¯": 6152,
      "ĠÙĪØ¬ÙĪÛģØ§Øª": 6153,
      "ĠØ³Ø§ØŃ": 6154,
      "ĠØ§ÙĨÙ¹ÛĮÙĦÛĮ": 6155,
      "ĠÙħØ§ÙĦÛĮØª": 6156,
      "ĠØ§ÙĪÙĦÛĮ": 6157,
      "ĠÚ©Ø§ÙĦØ¹Ø¯Ùħ": 6158,
      "ĠØ¬Ø±Ø³ÛĮ": 6159,
      "Ø¯ÙĨÛĮØ§": 6160,
      "ĠÙħÛĮÙħ": 6161,
      "ĠØ¨ÛģØ±": 6162,
      "ĠØªÙħÙĦ": 6163,
      "ĠØ¯Ú©Ø§ÙĨ": 6164,
      "ĠÙĦÛĮÚ©Ø±": 6165,
      "ĠØ¯ÙĪÚĳ": 6166,
      "ĠØ³Ú©Ø§Ù¹": 6167,
      "ĠØ³Ù¾ÛĮÚ©Ø±": 6168,
      "Ġ43": 6169,
      "ÙģØ±ÙĪØ±ÛĮ": 6170,
      "ĠÙ¾Ú¾ÛĮÙĨÚ©": 6171,
      "Ġ''": 6172,
      "ĠØ¹ÙħÙĦØ¯Ø±Ø¢ÙħØ¯": 6173,
      "ĠØªØ±Ø¨ÛĮ": 6174,
      "ĠÚĨÚ¾Ù¹ÛĮ": 6175,
      "ĠÚĪÚ¾Ø§Ú©Ûģ": 6176,
      "ĠØ¨ÙĪÙĨ": 6177,
      "ĠØªÚ¾Ø±": 6178,
      "Ġ44": 6179,
      "Ø³ÛĮÙĨÛĮÙ¹Ø±": 6180,
      "ØªØ¹": 6181,
      "ĠØ²Ø¯": 6182,
      "ĠØ¹ÛģØ¯ÛĮØ¯": 6183,
      "ØªÛĮÙĨ": 6184,
      "Ø±ØªÛĮ": 6185,
      "ĠØ¨ÚĨÛĮ": 6186,
      "Ø¹ÙĪ": 6187,
      "ĠØ¢ÛĮØ§Øª": 6188,
      "Ø¬ÙħØ§Ø¹Øª": 6189,
      "ĠØ¹ÙħÙĪÙħØ§": 6190,
      "ĠØŃØ±ÙĪÙģ": 6191,
      "ĠÛĮØ¹ÙĤÙĪØ¨": 6192,
      "ĠÙĤÛĮÙħØªÛĮ": 6193,
      "Ø§Ø¦Ø±Ùħ": 6194,
      "ĠÚĪÛĮØ±Ûģ": 6195,
      "ĠØªØ´ÙĪÛĮØ´": 6196,
      "ĠÚ©Ø±ÙĨØ³ÛĮ": 6197,
      "ĠØªØ¨Øµ": 6198,
      "ĠÙģØ³": 6199,
      "ĠØ¨ÙĦÙĪ": 6200,
      "ĠØ¯Ø§Ø®ÙĦÛĮ": 6201,
      "ĠÙĦØ·ÛĮ": 6202,
      "Ú¯ÙĪØ¯Ú¾Ø§": 6203,
      "Ġ46": 6204,
      "ĠCricketArchive": 6205,
      "ĠØ²ÛĮØ§Ø¯ØªÛĮ": 6206,
      "ØŃÙħØ¯": 6207,
      "ex": 6208,
      "ĠÙģÙĪØ±ÚĪ": 6209,
      "ĠÙĨØ§Ø±Ø§Ø¶": 6210,
      "ĠØ§ÙģØªØªØ§ØŃÛĮ": 6211,
      "ØŃØ¯Ûģ": 6212,
      "Ø§ÙģØ¹ÛĮ": 6213,
      "ĠØ±Ø§Ø¤ÙĨÚĪ": 6214,
      "ĠÙ¹ÛĮÙĨ": 6215,
      "ĠØ¶ÙħÙĨÛĮ": 6216,
      "ĠØ§ÙĪÙĨÙ¹": 6217,
      "Ġ65": 6218,
      "ÙħØ³Ø¬Ø¯": 6219,
      "ĠÛĮØ§Ø±Ú©Ø´Ø§Ø¦Ø±": 6220,
      "Ø®ÙĪØ¯": 6221,
      "ĠØ¬ÙħØ§ÙĦ": 6222,
      "ĠÙĤØ§Ø¦ÙħÛģ": 6223,
      "ĠØ³ÛĮÚ©Ø±ÛĮÙ¹Ø±ÛĮ": 6224,
      "Ú©ÚĳÙĪÚº": 6225,
      "ĠØ¹ÙħÙĦÛĴ": 6226,
      "Ø¹Ø§": 6227,
      "ĠÙħÙģØ§Ø¯": 6228,
      "ĠÚ©ÙĪØ±Ø³": 6229,
      "ĠØ¢ÙĦØ§Øª": 6230,
      "ĠØ±Ø¬Ø³Ù¹Ø±": 6231,
      "ĠÙħÙĨØ´ÛĮØ§Øª": 6232,
      "ĠØ¬ÙĨØ§Ø²Ûģ": 6233,
      "ĠÙģÛĮÙħ": 6234,
      "Ù¹ÛĮÙģ": 6235,
      "ĠØ¹Ø¸ÙħÛĮ": 6236,
      "ĠØ¨Ø±Ú¯": 6237,
      "ĠØ¹Ø¯Ø§ÙĦØªÙĪÚº": 6238,
      "ĠÙĦÛĮÚ©": 6239,
      "Ø§ÚĳÚ¾ÛĴ": 6240,
      "ĠØ§ÛģÙĦÛĮÛģ": 6241,
      "ĠÙĦÛĮÙģÙ¹ÛĮÙĨÙĨÙ¹": 6242,
      "pr": 6243,
      "2007": 6244,
      "ĠØ¨ÙĪÙĦÙĨÛĴ": 6245,
      "ĠØ§Ù¹ÙĦÛĮ": 6246,
      "ĠØµÙģØŃØ§Øª": 6247,
      "Ø§ÛģÙĪ": 6248,
      "ĠØ·ÙĦØ§ÙĤ": 6249,
      "ĠØ®Ø§ÙħÙĪØ´": 6250,
      "ĠØ¨Ø§Ø¬": 6251,
      "Ġ47": 6252,
      "ĠÚĨØ§Ø±ÙĦØ³": 6253,
      "ĠØ®ÛĮØ¨Ø±Ù¾": 6254,
      "ĠØªØµØ§Ø¯Ùħ": 6255,
      "ĠÙ¾Ø¨": 6256,
      "Ø¨ÛĮÛģ": 6257,
      "Ø¬ÛģØ§Úº": 6258,
      "ĠØ§ÛĮØ¬ÙĨÙ¹": 6259,
      "Ġ150": 6260,
      "ĠØ¬ÛģØ§Ø¯": 6261,
      "Ø§ÙħØ±ÛĮÚ©Ûģ": 6262,
      "ĠØŃØ§Ø¯Ø«Ûģ": 6263,
      "Ġ$": 6264,
      "Ø§ÙħØ§ÙĨ": 6265,
      "ĠÚ©ÙĨØ³Ø§Ø³": 6266,
      "ĠØ¨ÙĨØ¯Ø±Ú¯Ø§Ûģ": 6267,
      "ÛĮÙĪÙĨ": 6268,
      "ĠØ³Ø±ØŃØ¯ÛĮ": 6269,
      "ĠÙ¹Ø§Ø±Ú¯Ù¹": 6270,
      "ĠØ±ÙĪØ²Ø§ÙĨÛģ": 6271,
      "ĠÚĪÙĪÛĮÙĦ": 6272,
      "ĠØ¬ÙĪØ´": 6273,
      "ĠØµØ¯ÛĮÙĤ": 6274,
      "ĠØ±ÛĮØ³Ø±ÚĨ": 6275,
      "ĠÚĨÙĨØ¯Ø±": 6276,
      "Ø¢Ø³Ù¹Ø±ÛĮÙĦ": 6277,
      "ĠØ¨Ø±Ø³ÙĪÚº": 6278,
      "ĠØ¬Ø§Ø³Ú©ØªØ§": 6279,
      "Ù¾Ø±ÙĪ": 6280,
      "ĠÙĦÛĮØªØ§": 6281,
      "ÙĨÙģ": 6282,
      "ĠÙħØ¯Ø§Ø±Ø³": 6283,
      "ĠÙħØ¹Ø¯": 6284,
      "ĠÙĨØ§ÙħÙĪÚº": 6285,
      "ĠÙħÙĤØ¨": 6286,
      "ÙģÛĮØ¸": 6287,
      "Ú¯Ø±Ø¯": 6288,
      "Ø°Ø§Øª": 6289,
      "ĠÙĨÙĤØ·Ûģ": 6290,
      "ĠÙģØµÙĦ": 6291,
      "ĠØ¬Ø°Ø¨Ø§Øª": 6292,
      "Ø±ÛĮÙĨÛģ": 6293,
      "ĠÙ¹ÛĮÙĨØ³": 6294,
      "ĠÙģØ±ÙĤÛģ": 6295,
      "ÙĪÚĳÛĴ": 6296,
      "ĠÙħØ®ÙĦÙĪ": 6297,
      "ĠØ³ÙĪÙĦÛģ": 6298,
      "ĠÚ¯Ø°Ø±": 6299,
      "ÙĪØ±ØªÛĮ": 6300,
      "ĠØ±Ø§Ø¨Ø·ÛĴ": 6301,
      "ÚĪØ±ÙĪ": 6302,
      "ĠÙħØ¯ÛĮØ±": 6303,
      "ĠØ§ÙĨØªØ¸Ø§Ø±": 6304,
      "ĠÚ©Ø§Ù¾Ù¹Ø±": 6305,
      "Ġ1967": 6306,
      "à¥į": 6307,
      "ĠÙ¹Ø±Ø§ÙĨØ³": 6308,
      "ĠØ¬Ø§ÙĨØªÛĴ": 6309,
      "ĠØ±ÙĪØ²Ú¯Ø§Ø±": 6310,
      "ĠØ®Ø¨Ø±ÛĮÚº": 6311,
      "ĠÙ¾Ø§Ø¨ÙĨØ¯": 6312,
      "Ù¾ÛĮØ´ÙĦ": 6313,
      "ĠØµÙģØ§Ø¦ÛĮ": 6314,
      "ĠÚ©ÛģØ§Úº": 6315,
      "ÙĪÛĮØ§Øª": 6316,
      "ĠÚ¯Ø±ÙĨÛĴ": 6317,
      "ĠØ®Ø·Ø±ÙĨØ§Ú©": 6318,
      "Ġg": 6319,
      "Ø§ÙĨÚ¯Ø±ÛĮØ²ÛĮ": 6320,
      "ĠØ·ÙĦØ¨Ø§Ø¡": 6321,
      "ĠÙħØŃØªØ±Ùħ": 6322,
      "Ø§Ø¦Ø±ÙħÙĨÙ¹": 6323,
      "ĠØ®ØµÙĪØµØ§": 6324,
      "ĠØ¯Ø±ÙĪØ§Ø²Ûģ": 6325,
      "ÙĪÙ¾ÙĪÙĦÛĮÙ¹ÙĨ": 6326,
      "ĠØ±ÙĪØ¨": 6327,
      "ĠÙĨÙħØ§Ø¦ÙĨØ¯ÙĪÚº": 6328,
      "ĠØ¢ÙħØ¯ÙĨÛĮ": 6329,
      "ĠÛģÙĪØ±Ûģ": 6330,
      "ĠÙģÙĤÛĮÛģ": 6331,
      "ate": 6332,
      "Ù¾Ø±ÙĪÛĮ": 6333,
      "ĠØ³ÙĨØ¯Ú¾ÛĮ": 6334,
      "ĠÙħÙĪØµÙĪÙĦ": 6335,
      "ĠØ³ÙħØª": 6336,
      "ĠØ¬Ø³Ø§ÙħØª": 6337,
      "Ġ1949": 6338,
      "ĠÚĨØ§ÙĦÛĮØ³": 6339,
      "ĠØªØ§Ø±": 6340,
      "ĠØ¢Ø³ÙħØ§ÙĨ": 6341,
      "ĠÙ¾ÛģÚĨØ§ÙĨ": 6342,
      "Ø´ÛĴ": 6343,
      "ÙĨØ¯Ú¯Ø§ÙĨ": 6344,
      "ib": 6345,
      "ĠÙĨÙĪØ¨ÙĦ": 6346,
      "ØµÛĮ": 6347,
      "ÙĨÙ¹ÙĨ": 6348,
      "ĠÙħØ±ØŃÙĪÙħ": 6349,
      "ĠÙĦØ³Ø§ÙĨÛĮ": 6350,
      "ĠØºÙĦØ·ÛĮ": 6351,
      "Ø¦Ø±Ø²": 6352,
      "Ø§ÛģØ¨": 6353,
      "ĠØ³Ú©ÙĨØ¯Ø±": 6354,
      "ĠØ¯Ø§Ø¦Ø±Ûģ": 6355,
      "ĠØ§ÛĮÙĨÙ¹ÛĮ": 6356,
      "ĠØ³ÛĮÙĨÙ¹Ø±ÙĦ": 6357,
      "ĠÙĨØ§Ø¦ÛĮØ¬ÛĮØ±ÛĮØ§": 6358,
      "ĠØ¹ÙĤÛĮØ¯Øª": 6359,
      "ĠØ±ÛģØ§Ø¦ÛĮ": 6360,
      "ĠÙ¾Ø§ÙĦÛĮØ³ÛĮÙĪÚº": 6361,
      "ĠØ§ÙĦØ±ØŃÙħ": 6362,
      "ĠÚ©ÙĪØ§ÙĦÛĮÙģØ§Ø¦Ø±": 6363,
      "ĠÙħÙĤØ¨ÙĪÙĦÛĮØª": 6364,
      "ĠØ§ÙĨØ³Ø§ÙĨÛĮØª": 6365,
      "ont": 6366,
      "ĠØ³ÙĦÙħ": 6367,
      "ÙĪØ§Øª": 6368,
      "Ġ120": 6369,
      "Ø°ÛĮØ±": 6370,
      "ĠØ´Ø±Ø§Ø¨": 6371,
      "ĠÙĨÙħØ§Ø¦ÙĨØ¯Ûģ": 6372,
      "Ø²Ø®ÙħÛĮ": 6373,
      "Ú©Ø±Ú©Ù¹": 6374,
      "ĠØ¯Ø¦ÛĮÛĴ": 6375,
      "ÙĪÙĨÛĮØ§": 6376,
      "ĠÙħÛģÛĮØ§": 6377,
      "Ú©ÙĪØ¦Ù¹Ûģ": 6378,
      "ĠØ¨Ø§Ø±ÚĪØ±": 6379,
      "ĠÚĨØ§ÛģÛĴ": 6380,
      "ĠØ¨ÛĮØ¯": 6381,
      "Ø¨Ø§ØŃ": 6382,
      "Ú©ÙĪØ§ÙĦ": 6383,
      "ĠÙħØ§Ø±Ú©": 6384,
      "ÙĪÙĦÙĪ": 6385,
      "ĠÙħÛĮÙĦØ¨ÙĪØ±ÙĨ": 6386,
      "ÙģÛĮØµÙĦ": 6387,
      "ĠÙħÙĦØ§Ø²Ùħ": 6388,
      "ĠÙħØªÙĪÙĤØ¹": 6389,
      "Ø¯ÛĴ": 6390,
      "ĠØ±ÙĪÙħØ§ÙĨÙĪÛĮ": 6391,
      "Ġ300": 6392,
      "ĠÙħÚĨÚ¾": 6393,
      "ÙģÙĤÛģ": 6394,
      "ĠÚ¯ÛĮÙĨØ¯ÙĪÚº": 6395,
      "ĠØ±Ø§Ø¨Ø±Ù¹": 6396,
      "ĠÚĨÚ©": 6397,
      "Ġ1958": 6398,
      "ĠØ§ÙĨÙĤÙĦØ§Ø¨ÛĮ": 6399,
      "ĠØ¬Ø´ÙĨ": 6400,
      "ma": 6401,
      "ĠØ¯ÛĮÙĪØ¨": 6402,
      "ĠÙ¹Ú©Ù¹": 6403,
      "end": 6404,
      "Ø§Ø¬Ø§Ø¦Ø²": 6405,
      "ĠØ¶Ø±ÙĪØ±ÛĮØ§Øª": 6406,
      "ĠØ¹Ø³Ú©Ø±ÛĮØª": 6407,
      "ĠØ¬Ø§Ø±ØŃÛĮØª": 6408,
      "ĠØ³Ø§ÚĳÚ¾ÛĴ": 6409,
      "ĠØ¨ÙĪØ±ÙĪ": 6410,
      "ÙĪØ³Ø·": 6411,
      "ĠØµÙĦØ§ØŃÛĮØªÙĪÚº": 6412,
      "ĠÙħÛģØ§Ø¬Ø±ÛĮÙĨ": 6413,
      "ØŃØ©": 6414,
      "ĠØ´ÛĮÚĪÙĪÙĦ": 6415,
      "Ø±ÙĨØ²": 6416,
      "Ø´ÙĨØ²": 6417,
      "ĠÙħØ§Ø±ÛĮ": 6418,
      "ĠØ¨ÙĦØ§Ú©": 6419,
      "ĠÙ¾Ø±Ø§ÙĨÛĮ": 6420,
      "ĠØ¶Ø±Ø¨": 6421,
      "Ġ1956": 6422,
      "ĠØ¯Ø§": 6423,
      "ĠÚ©Ø±Ø§": 6424,
      "ĠØ§ÛĮÙĦÙĨ": 6425,
      "ĠØªÚ¾Ø§ÙĨÛģ": 6426,
      "ÚĪÛĮØ´ÙĦ": 6427,
      "ĠØ§Ø¬ØªÙħØ§Ø¹ÛĮ": 6428,
      "ĠÙħØ°Ú©ÙĪØ±Ûģ": 6429,
      "ĠÙĨØ§Ø¯Ø±": 6430,
      "Ø·Ø§ÙĨ": 6431,
      "ment": 6432,
      "Ø¹ÛĮØ§Øª": 6433,
      "ĠÚ¯Ø±ÙĦ": 6434,
      "Ù¹ÛĮØ³Ù¹": 6435,
      "Ø§ÙĨØªØ¸Ø§ÙħÛĮ": 6436,
      "Ġn": 6437,
      "ĠØ³Ø±Ø§ÛģØ§": 6438,
      "rans": 6439,
      "Ø±Ø§ÙģÛĮÛģ": 6440,
      "ĠØªØ¹ÙĦÛĮÙħØ§Øª": 6441,
      "ĠØ¨ÛģØ§ÙĪÙĦ": 6442,
      "ĠØ§Ø®ÙĦØ§ÙĤÛĮ": 6443,
      "ĠÚĪØ±Ø§Ø¦ÛĮÙĪØ±": 6444,
      "ĠÙ¾ÙĦØ§": 6445,
      "ĠØ§Ø¬ØªÙħØ§Ø¹": 6446,
      "Ú©Ø§Ùħ": 6447,
      "Ú¯Ø±ÙģØª": 6448,
      "Ġ1968": 6449,
      "ĠØ±ÛģÙĨÙħØ§Ø¦ÛĮ": 6450,
      "ĠÚ©Ø±ÙĪØ§": 6451,
      "ĠEn": 6452,
      "ĠÛģÙģØª": 6453,
      "ĠÛģÛĮÙĨ": 6454,
      "ÙĨÙĪÙħØ¨Ø±": 6455,
      "ĠØ¬Ø§Ø¦": 6456,
      "ĠÙħØŃØ§Ø°": 6457,
      "ĠØºÙħ": 6458,
      "ĠØ³Ú©ÙĪØ§ÚĪ": 6459,
      "ÛģÙĨØ¯ÙĪ": 6460,
      "ĠØ±ØŃÙħØ§ÙĨ": 6461,
      "ĠÚĨÛĮÙħØ¨Ø±": 6462,
      "Ø§ÙĨÛĮÙģ": 6463,
      "ĠØ¢ÙĨØŃØ¶Ø±Øª": 6464,
      "ĠØ±Ø¬ÙĪØ¹": 6465,
      "Ø§Ø¦Ø±ÛĮ": 6466,
      "ÚĪÛĮØ²": 6467,
      "ĠÙħØ·ÙĦ": 6468,
      "ĠØ§ØªÙĪØ§Ø±": 6469,
      "Ø¬ÙħØ¹": 6470,
      "ĠÚĪÙĪØ¨": 6471,
      "ĠÙĨÛĮØ¯Ø±ÙĦÛĮÙĨÚĪØ²": 6472,
      "ÙĤÙĦÛĮ": 6473,
      "ĠØ¨ÙĨÚ©": 6474,
      "ĠØ¢ØºØ§": 6475,
      "ĠØ¨Ø±Ø§Ø¯": 6476,
      "Ø§Ø³ÛĮÚ©ÛĮ": 6477,
      "Ú¯Ø±ÙĪ": 6478,
      "ĠÙĪÛĮØ±": 6479,
      "Ø¹Ø§ÙĦÙħÛĮ": 6480,
      "ĠØ§ÛĮÚĪÙĪØ±ÚĪ": 6481,
      "ĠÚĨÙĪØªÚ¾ÛĮ": 6482,
      "ĠØ¯ÙĦÛĮÙĦ": 6483,
      "ĠÙĪÙĤØ§Ø±": 6484,
      "ĠÙħÛĮÙĪØ²ÛĮÙħ": 6485,
      "ĠØ§ÙĨÚĪÙĪÙĨÛĮØ´ÛĮØ§": 6486,
      "Ø§ÛĮØ±Ø§ÙĨ": 6487,
      "ĠØ¨ÙĪØ¬Ú¾": 6488,
      "ĠØ·Ø§ÙĤØªÙĪØ±": 6489,
      "ĠØ¢Ø±Ù¹Ø³": 6490,
      "ĠÙħØ¸Ø§ÙĦÙħ": 6491,
      "Ø§ØªÙĪÚº": 6492,
      "2008": 6493,
      "ĠØ¬ÙĪØ§ÙĨ": 6494,
      "ĠØ´ÛģØ²Ø§Ø¯Ûģ": 6495,
      "ction": 6496,
      "ĠØ¯ÙĪØ³Ø±ÙĪÚº": 6497,
      "ĠØ¨ÙĨÚ¯Ø§ÙĦÛĮ": 6498,
      "ĠØªÛĴ": 6499,
      "ĠÙĪØ§Ø¦Ø³": 6500,
      "ĠRo": 6501,
      "ĠÚĨÚ¾ÙĪÚĳÙĨÛĴ": 6502,
      "Ø§ÙĦÙģ": 6503,
      "ĠØ³ÙĪØ§": 6504,
      "ĠØªØ´Ø±ÛĮÙģ": 6505,
      "ÙĦÛĮÙĨ": 6506,
      "ĠâĢĺâĢĺ": 6507,
      "ĠØ³Ù¹Ø±": 6508,
      "ĠÙħÛģØ¯ÛĮ": 6509,
      "Ø·Ø§Ø¨ÙĤ": 6510,
      "Ø§Ú©ØªÙĪØ¨Ø±": 6511,
      "Ø±ÙħØª": 6512,
      "ĠX": 6513,
      "Ø§Ù¾Ø³": 6514,
      "ÙĪÙĨÛĮÙĪ": 6515,
      "ĠØ³Ø³Øª": 6516,
      "ĠØ¬Ø²ÛĮØ±ÛĴ": 6517,
      "ÙĨØ³Ø±": 6518,
      "ĠØŃØ³Ø§Ø³": 6519,
      "ĠØ¯ÙħØ§Øº": 6520,
      "ÙĪØ§Ø¡": 6521,
      "ĠØ¹Ø§Ø±Ùģ": 6522,
      "ÙħÚ¯Ø±": 6523,
      "ĠÙħØ§ØªØŃ": 6524,
      "ÙĪÚ©Ù¹": 6525,
      "ĠÙĤÙĪÙĦ": 6526,
      "ĠØŃØ¬Ø±": 6527,
      "ĠØ¬ÙĨØ§Ø¨": 6528,
      "ĠØªÙĤØ±ÛĮØ¨Ø§Øª": 6529,
      "Ú¾Ø§ÙĨ": 6530,
      "ĠØªÛĮØ±Ûģ": 6531,
      "ĠÙģÛģ": 6532,
      "Ġ1964": 6533,
      "ĠØ§ÙĨØµØ§Ø±ÛĮ": 6534,
      "Ġ1940": 6535,
      "ĠØ§Ø³ØªÙĤØ¨Ø§ÙĦ": 6536,
      "ÙĦÙĪØ±": 6537,
      "ĠNew": 6538,
      "ĠÚĨÙĪØ¯Ûģ": 6539,
      "ÙħÙ¾Ù¹ÙĨ": 6540,
      "ĠØ§ÙĨØ¬ÙĨ": 6541,
      "ĠÙģÛĮØ¦Ø±": 6542,
      "ÙĪÚĳÛĮ": 6543,
      "Ø¹ÙģÛĮ": 6544,
      "ĠØ¬Ø§Ø³Ú©ÛĴ": 6545,
      "ĠØ¯Ø³ØªØ§ÙĪÛĮØ²Ø§Øª": 6546,
      "ĠØ§ÙĦØŃØ§ÙĦ": 6547,
      "ĠÙ¾ÙĪØ§Ø¦ÙĨÙ¹Ø³": 6548,
      "250": 6549,
      "ĠØ¹Ø§Ø´": 6550,
      "ĠØ§ÛĮØ¦Ø±Ù¾ÙĪØ±Ù¹": 6551,
      "Ø·Ø±": 6552,
      "ĠØ²ÙĪØ§ÙĦ": 6553,
      "ĠIs": 6554,
      "port": 6555,
      "Ø¬ÛģØªÛĮ": 6556,
      "ĠÙĪÛĮØ³": 6557,
      "ĠÙħØ·Ø¨": 6558,
      "ĠÙĨØ¹Ø±ÛĴ": 6559,
      "ĠØ¹Ø§Ø¦Ø´Ûģ": 6560,
      "Ġ1920": 6561,
      "ĠÙħÙĨØ¯Ø±Ø¬": 6562,
      "Ø¬Ø§Ø±Ø¬": 6563,
      "Ù¾Ú¾": 6564,
      "ĠÛĮÙĪÙĨØ§ÙĨ": 6565,
      "ØµÙĪØ¨Ûģ": 6566,
      "ĠÙĪÛĮÙĦÛĮ": 6567,
      "Ġ52": 6568,
      "ĠAU": 6569,
      "ĠØªØ¨ÙĦÛĮ": 6570,
      "ĠÚ¯Ø±ÛĮØ¬ÙĪÛĮØ´ÙĨ": 6571,
      "ĠÚ©Ø§Ø¦ÙĨØ§Øª": 6572,
      "ĠØ´Ø¬Ø§Ø¹Øª": 6573,
      "ĠØ¢Ù¾Ø³": 6574,
      "Ġ1962": 6575,
      "ĠÙ¾Ø§Ú©Ø³ØªØ§ÙĨÛĮÙĪÚº": 6576,
      "ĠØ³Ø²Ø§Ø¦ÛĴ": 6577,
      "Ø¸Ø§ÛģØ±": 6578,
      "ĠÙħØ´ØªØ¨Ûģ": 6579,
      "ĠØ§Ø´ØªØ±": 6580,
      "Ø®ÙĪØ§Ø¬Ûģ": 6581,
      "ĠØ¨Ø¯Ø¹": 6582,
      "Ø§ÙĨØ¯ÙĦÛĮ": 6583,
      "ĠÙĤØ§ØªÙĦ": 6584,
      "ĠØ§Ø³Ù¹ÛĮØ¬": 6585,
      "Ø±Ø§ÙĨÙĪØ§ÙĦÛģ": 6586,
      "ĠØ³ÙĨÛĮÙħØ§": 6587,
      "ĠÙĦÙĪÛģ": 6588,
      "ÙĪØ²Ø§Ø±Øª": 6589,
      "Ø¢Ø¦": 6590,
      "ĠØ¹ÛĮØ³Ø§Ø¦ÛĮ": 6591,
      "ĠÙħÛĮØ§ÙĨ": 6592,
      "ĠÙĨÙħÙ¹ÙĨÛĴ": 6593,
      "ĠÚ©ÙĪÚĪ": 6594,
      "2018": 6595,
      "ĠÙĪÛĮÙħ": 6596,
      "ĠÚ©Ø±Ø³Ú©ØªÛĴ": 6597,
      "Ø¬Ø±ÛĮ": 6598,
      "ĠØ¹ÙħØ§ÙĨ": 6599,
      "ĠÙ¾ÛĮÙĨÛĴ": 6600,
      "ĠØŃÙħÛĮØ¯": 6601,
      "ÙĨÛĮÛģ": 6602,
      "ĠØ±Ø¹": 6603,
      "ĠØ´Ø§Ø¦": 6604,
      "ĠØ§ÙģØ¶ÙĦ": 6605,
      "ĠØ®Ø·ÙĪØ·": 6606,
      "ØŃØ§ÙĦÛĮ": 6607,
      "Ø¶Ø±": 6608,
      "ĠØ°ÛģÙĨÛĮ": 6609,
      "ĠØ¢ÙĨØ¯": 6610,
      "ĠØ¨ÙĦØº": 6611,
      "ĠÙħØ¹ÛĮÙĨ": 6612,
      "ĠÙĪÙĦØ§Ø¯Øª": 6613,
      "ĠØ§ÙħØ±Ø§Ø¶": 6614,
      "ĠÙĨØ°Ø±": 6615,
      "ĠØ¢Ø±Ø§Ùħ": 6616,
      "2009": 6617,
      "ĠØ¨Ø§Ú©Ø³": 6618,
      "Ø§ÙħÛĮØ±": 6619,
      "Ø®Ø´": 6620,
      "Ð°": 6621,
      "ÙħÛĮÙĨÛģ": 6622,
      "ĠØªØµØ§ÙĨÛĮÙģ": 6623,
      "ØŃØ±": 6624,
      "ĠØªØ¬Ø²ÛĮÛģ": 6625,
      "ĠÚ©Ø±ÙĪØ§ÛĮØ§": 6626,
      "ĠØ¬Ø§ÙĨØ´ÛĮÙĨ": 6627,
      "ĠØ§ØŃØ§Ø·": 6628,
      "ĠØ³Ú©ÙĪÙĨ": 6629,
      "ĠPubl": 6630,
      "ĠØ¢Ø±Ûģ": 6631,
      "Ġ1963": 6632,
      "ĠØ´Ø§Ø±": 6633,
      "Ġ500": 6634,
      "ĠÚ©Ø´ØªÛĮ": 6635,
      "ĠØ±ÛĮÙ¹Ø§Ø¦Ø±ÙħÙĨÙ¹": 6636,
      "ĠÚ¯ÙĨØ¯Ùħ": 6637,
      "ĠÙħÙĨØ·": 6638,
      "ĠÙĪØ±Ø§ÙĨÛģ": 6639,
      "Ú¯ÙĪØ§Ø±": 6640,
      "ĠÙ¾Ú¾ÙĦ": 6641,
      "ĠØ§Ø¨ÙĦ": 6642,
      "ĠÙĪØ¢ÙĦÛģ": 6643,
      "ĠØ¬Ø§ÙĦ": 6644,
      "ack": 6645,
      "Ø¨ÙĦÙĪÚĨØ³ØªØ§ÙĨ": 6646,
      "ĠÚĨÛĮØ¦Ø±": 6647,
      "ĠØ³ÛĮÙĨÚ©ÚĳÙĪÚº": 6648,
      "ĠÙģØ§Ø³": 6649,
      "ĠÙĦØ§Ø²ÙħÛĮ": 6650,
      "ĠÙħÛģØ§Ø±Ø§Ø´Ù¹Ø±": 6651,
      "ĠÙħØ±ÛĮÙħ": 6652,
      "ĠÚ¯ÙĨØªÛĮ": 6653,
      "Ø´ÛĮÚĪÙĨÚ¯": 6654,
      "ĠØ³Ø§ÙĦÚ¯Ø±Ûģ": 6655,
      "ĠÛĮÙĪÚ©": 6656,
      "ĠØ¹Ø±Ø¶": 6657,
      "qu": 6658,
      "ĠØ¨Ø±ØµØºÛĮØ±": 6659,
      "ĠØ³Ø±ÙĪÛĴ": 6660,
      "ĠØ²ÙĦØ²ÙĦÛĴ": 6661,
      "ork": 6662,
      "ĠØ§ÙĨÙģØ±Ø§Ø¯": 6663,
      "ĠØ§Ø´Ø¹Ø§Ø±": 6664,
      "ĠØ±Ø§Ø¦ÛĮ": 6665,
      "ĠØŃØ§Ø±Ø«": 6666,
      "Ġï®Ĳ": 6667,
      "ĠÙ¾Ø±Ø§Ø¬ÛĮ": 6668,
      "ĠÛĮÙĪÚ¯": 6669,
      "ĠÙĪØ²ÙĨ": 6670,
      "ĠØ§ÙĦØ¨ØªÛģ": 6671,
      "ĠØ§ÙĨÙ¹Ø±ÙĨÛĮÙ¹": 6672,
      "ĠÙģÙĪØ±Ùħ": 6673,
      "ĠØ³ÙĨØ§Ø¦ÛĮ": 6674,
      "Ø¢Ø¨Ø§Ø¯ÛĮ": 6675,
      "ĠØ¬Ø§Ø±ÛģÛĴ": 6676,
      "ĠØ®Ø§Úº": 6677,
      "ice": 6678,
      "ĠØ¹Ú©": 6679,
      "ĠÙħØ§ÛģÛĮ": 6680,
      "Ġ1952": 6681,
      "ĠØ¯Ø§Ø³Øª": 6682,
      "ĠÙĨÙħÛĮ": 6683,
      "ĠØ¹Ø¨ÙĪØ±": 6684,
      "Ġde": 6685,
      "ĠÛģØªÚ¾ÛĮØ§Ø±ÙĪÚº": 6686,
      "ĠØ´Ú©Ø§ÛĮØª": 6687,
      "Ø³Ù¾Ú©Ù¹Ø±": 6688,
      "ĠTh": 6689,
      "ĠØ¹ÙĦÛĮØ§": 6690,
      "ĠØ±Ø¶ÙĪÛĮ": 6691,
      "ĠÚ¯ÛĮÙ¹": 6692,
      "ĠØ¹ÙħØ¯Ûģ": 6693,
      "ĠÙĦÚ©Ú¾ÙĨØ¤": 6694,
      "ÙĪÙĨÙ¹ÛĮ": 6695,
      "ĠØ³ÙĪØ¦": 6696,
      "ÙħÙĦØ²ÙħØ§ÙĨ": 6697,
      "ĠÚĪØ±Ø§ÙħÛĴ": 6698,
      "ĠÛģØ§Ø¦ÛĴ": 6699,
      "ĠÚĪØ§ÙĦÛĮ": 6700,
      "ĠØ¨Ú¾Ø§ÙĦ": 6701,
      "ĠØ³Ø±Ø§Ø¬": 6702,
      "Ġ1945": 6703,
      "ÙĪØ§ÙĦÛĮ": 6704,
      "Ø§Ø±Ø³": 6705,
      "Ø§ØªÙħ": 6706,
      "Ø§Ø¯Ú¾Ø±": 6707,
      "ĠØªÙĤØ§Ø¶": 6708,
      "ĠÙ¾Ù¹": 6709,
      "ĠÙ¾Ø±Ø§Ø¦ÛĮ": 6710,
      "ÛĮÙħØ§": 6711,
      "ĠØ¹Ø¨Ø±": 6712,
      "2012": 6713,
      "ĠÙħØŃØ±Ùħ": 6714,
      "Ù¾ÛĮÙĨ": 6715,
      "Ø±ÙĪØ¯": 6716,
      "Ø³Ù¹Ø±ÛĮØ´ÙĨ": 6717,
      "Ø³Ø±Ú©": 6718,
      "Ġ49": 6719,
      "ĠØ§Ù¹Ú¾Ø§Ø±Ûģ": 6720,
      "ĠÙĨØ§Ø¯": 6721,
      "Ø§Ø±ÛĮÙĪÚº": 6722,
      "ĠØ³Ù¹Ø§Ùģ": 6723,
      "ØªØ§ÛģÛĴ": 6724,
      "ĠØ§Ø³ØªÙĨ": 6725,
      "ld": 6726,
      "ĠØ§Ù¾ÙĨ": 6727,
      "ĠÙģÙĦØ³ÙģÛĮ": 6728,
      "ĠØ§ØµÙĪÙĦÙĪÚº": 6729,
      "Ø³ÛĮØ³ÛĮ": 6730,
      "ÙĪØ¬Ø§": 6731,
      "ge": 6732,
      "ĠØ²ÛĮØ¨": 6733,
      "ĠØ¢Ø¦ÙĦ": 6734,
      "ĠÙĨØ´Ø±ÛĮ": 6735,
      "ĠÙ¹Ø±ÛĮÚĪ": 6736,
      "ĠÙħÙħÙĨ": 6737,
      "ĠØ§ÚĪÛĴ": 6738,
      "ĠØªØ±Ø¨ÛĮØªÛĮ": 6739,
      "ĠÙ¾Ø±Ø§ÙħÙĨ": 6740,
      "ĠØ§ÙħÛĮØ¯ÙĪØ§Ø±ÙĪÚº": 6741,
      "ĠØ¹ÙĤØ§Ø¦Ø¯": 6742,
      "Ú¯ÙĪØ±": 6743,
      "Ġ54": 6744,
      "ÙĩØ±": 6745,
      "ĠÙħÚ©ØªØ¨": 6746,
      "ĠÚ©ÙĪÙģÛģ": 6747,
      "ĠØ¯ÛģØ§ÙĨÛĮ": 6748,
      "ĠØ³ÛĮØ´ÙĨ": 6749,
      "Ġ51": 6750,
      "ĠØ¨ÙĪÙĦØ±": 6751,
      "ĠÙģÙĪÙ¹ÙĪ": 6752,
      "Ø®ÙĪØ§ØªÛĮÙĨ": 6753,
      "ĠÙ¾ÛģÙĨÚĨÛĮ": 6754,
      "ĠÙħØ±ÛĮØ¶ÙĪÚº": 6755,
      "ĠÙħØ§ØªØŃØª": 6756,
      "ĠØ¨Ú¾Ù¹": 6757,
      "ĠØ¹ÙħØ§Ø±Ø§Øª": 6758,
      "ØŃØ¯ÙĪØ¯": 6759,
      "ĠÙ¾Ø®ØªÙĪÙĨ": 6760,
      "ĠØ§ÙĦÙħØ¯": 6761,
      "ĠØ¨Ø¯ÙĪÙĦØª": 6762,
      "ĠØ§ÙĦØ¬Ø²Ø§Ø¦Ø±": 6763,
      "ĠÙģØ±ÛĮÚĪ": 6764,
      "Ø¶Ø§": 6765,
      "Ġ53": 6766,
      "ĠÚ¯ÛģØ±ÛĮ": 6767,
      "ĠÙħÛĮÙ¹Ø±ÙĪÙ¾ÙĪÙĦÛĮÙ¹ÙĨ": 6768,
      "Ø®ÛĮØ¨Ø±": 6769,
      "ï®¯": 6770,
      "Ø§Ø³Ø§": 6771,
      "ÛĮÙĨÚĪÙĦ": 6772,
      "ĠØ³ÙĪØ§ÙĦØ§Øª": 6773,
      "ĠØ·ÛĮØ§Ø±ÙĪÚº": 6774,
      "ĠÙĤÙĦØ¹ÛĴ": 6775,
      "ohn": 6776,
      "ĠØ³ÙĨÚ¯ÛĮÙĨ": 6777,
      "ĠÙĦØ§Ø±ÚĪØ²": 6778,
      "Ø¨Ø¬": 6779,
      "ĠÙ¾ÙĪÙĦÙĨÚ¯": 6780,
      "ĠØ¨Ø±ÛĮÚ¯ÛĮ": 6781,
      "Ø§ÙĪØ²": 6782,
      "ĠÚ©Ú¾ÚĳÛĮ": 6783,
      "ĠØ§Ø®Ø°": 6784,
      "ĠÙħÙĨÛĮØ¬Ø±": 6785,
      "ich": 6786,
      "ĠÙ¾ÛĮØ±ÙĪÛĮ": 6787,
      "ĠØ´Ú©Ø±": 6788,
      "ĠÙĦÛĮÙĪÙĨ": 6789,
      "ĠÛĮÛģÙĪØ¯ÛĮÙĪÚº": 6790,
      "ĠÙģÛĮØ±ÙĪØ²": 6791,
      "ĠØ§ÙĪØ²": 6792,
      "ĠØ·Ø¨ÙĤÛĴ": 6793,
      "ĠÚĨØªØ±": 6794,
      "ĠØªÙĪÛģÛĮÙĨ": 6795,
      "ĠØ¯ÛģØ´ØªÚ¯Ø±Ø¯ÙĪÚº": 6796,
      "ĠØ¯Ø§Ø³": 6797,
      "Ġ1966": 6798,
      "ĠÙĪÙĪÙĦ": 6799,
      "ĠØºÙĨÛĮ": 6800,
      "Ù¹Ú¾Ø§": 6801,
      "ÛĮÙĪØ±": 6802,
      "ĠÚĪØ±Ø¨ÛĮ": 6803,
      "ĠÙģÛĮÚ©Ù¹Ø±ÛĮ": 6804,
      "ĠØ±ØŃÙħØª": 6805,
      "ĠØ¬ÛģØ§ÙĨÚ¯ÛĮØ±": 6806,
      "ĠÚĨÚ¾Øª": 6807,
      "ĠÙ¾Ú¾ÛĮÙĦØ§": 6808,
      "Ø¯Ø±ÙĨ": 6809,
      "ÚĨÛĮØ¦Ø±ÙħÛĮÙĨ": 6810,
      "ĠÚ¯ÙĪÙĦÚĪ": 6811,
      "ĠØ³Ø±ÙĪØ³Ø²": 6812,
      "ĠØ³Ø§ÙģÙ¹": 6813,
      "ĠØ¬ÛĮÚ©": 6814,
      "ĠØ§ÙĦÙħØ³": 6815,
      "ĠÚ©Ø§Ø±Ø±ÙĪØ§Ø¦ÛĮØ§Úº": 6816,
      "ĠÙĦØ§Ú¯Øª": 6817,
      "ĠØ³ÙĨÚ¯Ø§Ù¾ÙĪØ±": 6818,
      "ĠØ®Ø§ÙĨØ¯Ø§ÙĨÛĮ": 6819,
      "ĠØ³ÛģÛĮÙĦ": 6820,
      "ĠØ´Ø±ÙħØ§": 6821,
      "ĠØ§ÙĦØŃØ¯ÛĮØ«": 6822,
      "ĠØ²Ø§ÛģØ¯": 6823,
      "Ø·ÛĮÙĨÛĮ": 6824,
      "ÙģÛĮØ¹": 6825,
      "ĠÚ©Ø´ÙĪØ±": 6826,
      "ĠÙ¾ÛģÙĨÚĨØ§ÙĨÛĴ": 6827,
      "ĠÙħØ±Ø¶": 6828,
      "ĠØºØ²Ûģ": 6829,
      "ĠØ¨ÙĦØ§ÙĪÙĦ": 6830,
      "ĠÙ¹Ø§Ø¦Ù¹ÙĦ": 6831,
      "ÙģÛĮØ§ÙĨ": 6832,
      "ĠÚ©Ø±ÙĨÙĦ": 6833,
      "ĠÙħØ§Ø¤ÙĨÙ¹": 6834,
      "Ġ1961": 6835,
      "Ø±ÛĮÙĦÛĮ": 6836,
      "ĠØ¬Ú¾Ú¯": 6837,
      "ĠØ¢ÙģØªØ§Ø¨": 6838,
      "ĠØ§ÛĮÙĪÙĨÙ¹": 6839,
      "ĠØ§Ø«Ø§Ø«": 6840,
      "ÙħÛĮÙ¹": 6841,
      "ĠØºØ±Ø¨Øª": 6842,
      "ĠØ¬ÙĪÙĨÛĮØ¦Ø±": 6843,
      "Ø´ÙħØ§ÙĦÛĮ": 6844,
      "ĠÚ©ÙħÙ¾ÙĦÛĮÚ©Ø³": 6845,
      "ĠÙ¾Ú¾ÙĨØ³": 6846,
      "ÛĮÙĦÛĴ": 6847,
      "Ø¬Ø³Ù¹Ø³": 6848,
      "du": 6849,
      "ĠÙħØ¹Ø§Ø´Ø±ØªÛĮ": 6850,
      "Ø¹ÙĪÙĨ": 6851,
      "Ø¸ÛĮØ±": 6852,
      "Ġfor": 6853,
      "ĠØ°ÙĪØ§ÙĦÙģÙĤØ§Ø±": 6854,
      "ĠÙĨØ§ÙĨ": 6855,
      "Ø§Ú©ÛĴ": 6856,
      "ĠÙħÙĨØ¯Ø±Ø¬Ûģ": 6857,
      "ÙĪÚ©Ø³": 6858,
      "ĠØ¯Ø§Ø¤Ø¯": 6859,
      "ÙħØ¸": 6860,
      "ĠÙħØ§Ø³Ú©ÙĪ": 6861,
      "ÙħØ±Ú©": 6862,
      "ĠÙĨØµØ±": 6863,
      "ĠØªØ§ÙĦ": 6864,
      "ĠÙģÛĮÙĨ": 6865,
      "ĠØ±ÛģÙĨØ§": 6866,
      "ĠÙħØ¹ØµÙĪÙħ": 6867,
      "ĠØŃÚ©ÛĮÙħ": 6868,
      "Ø§ÛĮÙĪÚº": 6869,
      "ith": 6870,
      "ĠØ¹ÙħØ§Ø±ØªÙĪÚº": 6871,
      "ĠÙĦÙħÛĮÙ¹ÚĪ": 6872,
      "Ġat": 6873,
      "ĠÛģØ§ÙĨÚ¯": 6874,
      "ĠØªØ±Ø¯": 6875,
      "Ġ*": 6876,
      "Ø§Ø¦Ø²ÛĮØ´ÙĨ": 6877,
      "ĠØ³Ø§Ø¯Ûģ": 6878,
      "Ø§ÙĦÛĮÚ©Ø´ÙĨ": 6879,
      "Ø§ÙĨÚĨÛĴ": 6880,
      "ĠÙĦÚĳÙĨÛĴ": 6881,
      "ĠØ¯ÙĦØ§Ø¦ÙĦ": 6882,
      "Ġ1954": 6883,
      "ĠØ·Ø¨ÛĮØ¹ÛĮØ§Øª": 6884,
      "ĠÚ©ÙħØ±ÛĴ": 6885,
      "ĠÚ©Ø±ÙħØ§ÙĨ": 6886,
      "Ø§Ø¨Ø±ÛĮ": 6887,
      "ĠØ±ÛĮÙģØ±ÙĨØ³": 6888,
      "Ġ56": 6889,
      "Ġ1946": 6890,
      "ĠÙģÙĨÚ©Ø§Ø±": 6891,
      "ĠÙĦØ§Ù¾ØªÛģ": 6892,
      "ĠØ§ÙĨØ¬ÙħÙĨ": 6893,
      "ĠÙĪØ§Ø¬": 6894,
      "ĠÛģÙĨØ±ÛĮ": 6895,
      "ĠÙħØ¹Ø§ÙģÛĮ": 6896,
      "Ø¶Ø¨": 6897,
      "ĠÚ¯Ø±Ø§": 6898,
      "Ù¾Ø§Ø±Ù¹ÙħÙĨÙ¹": 6899,
      "ĠÛģÙĨÚ¯Ø§ÙħÛĮ": 6900,
      "ĠØ·ÙĪÙģØ§ÙĨ": 6901,
      "ÙĪÙĦÛĮÙĨ": 6902,
      "Ø³Ø§ÙĦÛģ": 6903,
      "ĠÙĨÙħØ§Ø¦ÙĨØ¯ÛĴ": 6904,
      "ĠÛģÙĪØ±": 6905,
      "ÚĪÙĪÙĨ": 6906,
      "ĠØ±ÛĴ": 6907,
      "ÚĪÛĮÙ¹": 6908,
      "ÙħØ¨Ø§Ø±Ú©": 6909,
      "ĠÙģÙĦØ³ÙģÛģ": 6910,
      "Ø§Ø¯ÙĪ": 6911,
      "ĠØ¬Ú¾ÚĳÙ¾": 6912,
      "Ú¯Ø²ÛĮÙĨ": 6913,
      "ĠØŃÙĤØ§Ø¦ÙĤ": 6914,
      "ĠØªØ§ØŃ": 6915,
      "Ø§ØªÚ¾ÛĮ": 6916,
      "ĠÚĪÙĪÛĮÙĦÙ¾ÙħÙĨÙ¹": 6917,
      "ĠØ§Ø¯ÙĪÛĮØ§Øª": 6918,
      "ĠØ§Ø³Ú©ÙĪÙĦÙĪÚº": 6919,
      "ĠØ§ÙĨÚ¯Ø±ÛĮØ²ÙĪÚº": 6920,
      "ĠØ´Ø§Ú¯Ø±Ø¯": 6921,
      "ĠÙħÛĮÙĨØ¬ÙħÙĨÙ¹": 6922,
      "Ø§ÙĪÛĮØ±ÛĮ": 6923,
      "ĠÚ©Ø±Ø¯Ø§Ø±ÙĪÚº": 6924,
      "ĠÚĪÛĮÙ¹Ø§": 6925,
      "ĠØ¢ÙĨÚ©Ú¾ÙĪÚº": 6926,
      "ĠÚĨÚĳ": 6927,
      "ĠÙĦÚĳÚ©ÛĮÙĪÚº": 6928,
      "ĠÙĤÛĮØ¯ÛĮÙĪÚº": 6929,
      "Ø³ÙĦØ§Ùħ": 6930,
      "ĠØ´Ø§ÙħÛĮ": 6931,
      "ĠØºØ²ÙĦ": 6932,
      "ĠØ³Ø±Ú©Ø§Ø±": 6933,
      "ĠØ¨ÛĮØ´": 6934,
      "ĠØŃÛĮØ§ØªÛĮ": 6935,
      "ĠØ°Ø®Ø§Ø¦Ø±": 6936,
      "Ú¯ÙĪØ±ÙĨØ±": 6937,
      "ĠØ§Ø·Ø§ÙĦÙĪÛĮ": 6938,
      "ĠÚ©Ø±Ø§Ø³": 6939,
      "rom": 6940,
      "Ġ1951": 6941,
      "ÚĪØ§Ø¦ÛĮ": 6942,
      "Ġ72": 6943,
      "ĠÙħØŃÙĤÙĤ": 6944,
      "ĠÚ©Ø§Ø³Ù¹": 6945,
      "ÙĪØ¨Ú©Ø±": 6946,
      "ÙĦÛĮØ¨ÙĪÙĨ": 6947,
      "ĠØ¯Ú¾Ø§ÙĨØ¯ÙĦÛĮ": 6948,
      "arl": 6949,
      "Ø§Ø¨ØªØ¯": 6950,
      "ĠÙĤÙħØ±": 6951,
      "ĠØ¢Ù¾Ø±ÛĮ": 6952,
      "ĠÚ¯Ø±ÙĪÛģÙĪÚº": 6953,
      "ĠØ¬ÛĮØªÛĴ": 6954,
      "ational": 6955,
      "ÙĪØ´ÛĮ": 6956,
      "ĠØ²Ø®Ùħ": 6957,
      "Ġ64": 6958,
      "ĠÙħØ¸Ø§ÛģØ±": 6959,
      "ĠØ§Ø±Ø¯ÙĨ": 6960,
      "ÙĨÙĦ": 6961,
      "ama": 6962,
      "ĠÚ©Ø±Ùħ": 6963,
      "ĠØŃØ§Ú©Ùħ": 6964,
      "ĠØ§Ø³Ø³Ù¹ÙĨÙ¹": 6965,
      "ĠÙģØ±ÙħØ§ÙĨ": 6966,
      "ĠØªÚ¾Ø§ÙħØ³": 6967,
      "ØŃØ³ÙĨ": 6968,
      "ĠØ¢ÙĨØ§": 6969,
      "ĠØ²Ø¨ÛĮØ±": 6970,
      "500": 6971,
      "ÙģÛĮÙĦ": 6972,
      "ĠØ¯Ú¾ÙħØ§Ú©ÙĪÚº": 6973,
      "ï»®": 6974,
      "ĠÙħÛĴÚº": 6975,
      "Ø±Ø§ÙĪÙĦÙ¾ÙĨÚĪÛĮ": 6976,
      "ĠØ±ÙĤØµ": 6977,
      "ĠÚ¯ÙĪØ¯": 6978,
      "Ø§Ø¦ÙĨÛģ": 6979,
      "Ú©ÙĦÛĮÙĨÚĪ": 6980,
      "Ġ63": 6981,
      "ĠÙĤÙĪØªÙĪÚº": 6982,
      "ĠÙħÙĪÙĨÙ¹": 6983,
      "ĠØ§ÙĨØ³Ø§ÙĨÙĪÚº": 6984,
      "ĠÙħÙĨÚ¯ÙĪÙĦ": 6985,
      "ĠÙĦÙĪÚĪØ´ÛĮÚĪÙĨÚ¯": 6986,
      "ÛĮÚ©Ùħ": 6987,
      "ÙħÚ©ÙĨ": 6988,
      "ĠÙħÚ©Ø±": 6989,
      "Ø§Ø¯ÙĦ": 6990,
      "ÙĪØ³Ù¹Ø³": 6991,
      "ÙĨÛģÛĮÚº": 6992,
      "Ú©Ø§Ø´Ø§Ø¦Ø±": 6993,
      "Ġ1955": 6994,
      "ĠØ§ÙĦØ§Ø³ÙĦØ§Ùħ": 6995,
      "ĠØ³ÙħÙĨØ¯Ø±ÛĮ": 6996,
      "Ġ62": 6997,
      "ĠÙħØ±Ø§": 6998,
      "Ġ58": 6999,
      "ĠÚ¯ÙĦÙĪØ³Ù¹Ø±": 7000,
      "ÙĪØ§Ûģ": 7001,
      "ĠØ¹Ø§ÙĦÛĮÛģ": 7002,
      "ĠØŃØ¨": 7003,
      "ĠØ¶Ø¨Ø·": 7004,
      "ĠØ±ÛĮÙĨ": 7005,
      "ĠÙħØ¸Ø§ÛģØ±ÛĮÙĨ": 7006,
      "Ø·Ûģ": 7007,
      "ĠÙĪØ§Ù¹": 7008,
      "Ú¯Ø§Ùĩ": 7009,
      "ĠØ¬ÙĪØ²": 7010,
      "Ġ1957": 7011,
      "ĠÚĪÛĮÙĪÙ¹ÛĮ": 7012,
      "ĠØªØµØ§ÙĪÛĮØ±ÛĮ": 7013,
      "ĠØ¯Ø§Ø¹Ø´": 7014,
      "ĠÙĦÚ¯ÙĨÛĴ": 7015,
      "ĠÚ©Ø±ÛĮÚ©": 7016,
      "ĠÚ©Ú¾ÙĦÛĴ": 7017,
      "ØŃØµØ§Ø±": 7018,
      "Ø³Ø³": 7019,
      "Ù¹Ø±ÙĪÙĦÛĮÙħ": 7020,
      "Ø±Ù¾ÙĪØ±Ù¹": 7021,
      "ĠÙĨØ±Ø³": 7022,
      "ĠØ§Ù¹Ú¾Ø§Ø¦ÛĴ": 7023,
      "ĠØ³ÛĮØ§ÙĦÚ©ÙĪÙ¹": 7024,
      "Ø¨Ø±ÙĪ": 7025,
      "ĠÙħÙĪØ§ØµÙĦ": 7026,
      "ØŃØ¯Ú¯ÛĮ": 7027,
      "Ù¾Ø±ÙĪÛĮØ²": 7028,
      "ĠØ¬Ø§ÙĨÙĪØ±": 7029,
      "ÙħÙģ": 7030,
      "Ø¬ÙĨÙ¹": 7031,
      "ĠØ¨Ø±ÙĤÛĮ": 7032,
      "iz": 7033,
      "ĠÙ¹ÛĮÙĦØ±": 7034,
      "ĠÙħÙģÛĮØ¯": 7035,
      "ĠØ¯ÙĪØ³ØªÙĪÚº": 7036,
      "ĠÚ¯ÙĦÙĪÚ©Ø§Ø±Ûģ": 7037,
      "ĠÚĪÛĮÙĪ": 7038,
      "ĠØ§Ú©Ø§Ø¤ÙĨÙ¹": 7039,
      "ĠÙħØ±ØŃÙĦÛģ": 7040,
      "ÙĨÛĮÙĦ": 7041,
      "ĠØ¬Ø¬ÙĪÚº": 7042,
      "Ø§Ø´Ø±": 7043,
      "ĠØ³Ø®ØªÛĮ": 7044,
      "ru": 7045,
      "Ø¯ÛĮÚ¯Ø±": 7046,
      "Ù¾ÛĮÚĪÛĮØ§": 7047,
      "ĠÙħÙĨÙĪØ±Ûģ": 7048,
      "Ø±Ú©ÛĴ": 7049,
      "ØµÙĪØ±": 7050,
      "ĠØ¨Ø§Ø²ÛĮØ§Ø¨ÛĮ": 7051,
      "ĠØ¯Ø±Ù¾ÛĮØ´": 7052,
      "ĠÙĨÙģØ±Øª": 7053,
      "ĠÙĨØ§Ø¬Ø§Ø¦Ø²": 7054,
      "ĠØ±Ø§Ø¶ÛĮ": 7055,
      "ĠØ®ÙĦÛĮÙĦ": 7056,
      "ĠÙĦÛĮØ¨Ø±": 7057,
      "ĠÚĪÙĨÙħ": 7058,
      "ĠØ±Ø§Ø´Ø¯": 7059,
      "ĠÙĪØ¬ÛĴ": 7060,
      "ial": 7061,
      "ĠÚ©ÙħÛĮÙĪÙĨØ³Ù¹": 7062,
      "ĠØ§Ø³Ù¾ÛĮÙĨ": 7063,
      "ĠØ±ÙĨØ¬": 7064,
      "ĠÙĨØ§Ø¦Ù¹": 7065,
      "ĠØ§Ø³Ù¾ÛĮÚ©Ø±": 7066,
      "ĠØŃÙĦÙĤÛĴ": 7067,
      "ĠÙħÙĪÙĪÙħÙĨÙ¹": 7068,
      "ĠÚ©ÙĪÛĮØª": 7069,
      "ĠÙ¹Ø§Ø¦ÛĮ": 7070,
      "ĠØ°ÛģÙĨ": 7071,
      "ĠÙħØ³ÙĪØ±ÛĮ": 7072,
      "ÙĪØ§Ø³": 7073,
      "ĠØ¬ÙĨÛģÙĪÚº": 7074,
      "ĠÚ¯ÙĨÛĮ": 7075,
      "ĠÚ¯ÛĮÙĨÚ¯": 7076,
      "ĠØ¹Ø§ØµÙħ": 7077,
      "ĠÙĨØ¹ÛĮÙħ": 7078,
      "ĠÛĮÚ©Ø¬ÛģØªÛĮ": 7079,
      "ĠÙģÙĪØª": 7080,
      "ĠÚ©ÙĦØ§": 7081,
      "à¤¾": 7082,
      "ĠÙģØ±Ø§ÙĨØ³Ø³": 7083,
      "Ú©ÙĦÛĮ": 7084,
      "ÙģÙĪØ±": 7085,
      "ĠÙħØ¸ÛģØ±": 7086,
      "ĠØ¹ÛģØ¯ÙĪÚº": 7087,
      "ĠÙħÙĪØ¬": 7088,
      "Ø®ÛĮØ±": 7089,
      "ĠÙħØ³ØªØ¹ÙģÛĮ": 7090,
      "ĠÙħÙħØ¨Ø±Ø§ÙĨ": 7091,
      "io": 7092,
      "îĢ": 7093,
      "ĠØ±ÛĮÙ¾": 7094,
      "ĠÙĦÛĮØ§ÙĤØª": 7095,
      "ĠÙģØ§Ù¹Ø§": 7096,
      "Ú©ÙĦÙĪ": 7097,
      "ĠÚ¯ÛģØ±ÛĴ": 7098,
      "Ø·Ø¨": 7099,
      "ĠÙģÙĦØ§": 7100,
      "ĠØ¢Ú¯ÛĮØ§": 7101,
      "ĠÙħØ¤Ø±Ø®": 7102,
      "ÙĪÛĮØ³Ù¹": 7103,
      "Ġ1935": 7104,
      "ĠÚ¯ÙĨØ¬Ø§Ø¦Ø´": 7105,
      "Ø¨Ø±Ø·Ø§ÙĨÙĪÛĮ": 7106,
      "Ú¾Ø§Ø¦ÛĮ": 7107,
      "ĠØ§ÙĦØ®Ø·": 7108,
      "ĠÚĪÙĨÙħØ§Ø±Ú©": 7109,
      "ĠØªÚ©ÙĦÛĮÙģ": 7110,
      "ĠØ¶ÙħÙĨ": 7111,
      "ĠÛģØ±Ùħ": 7112,
      "ĠCount": 7113,
      "ĠØ§ÛĮÚĪÛĮÙ¹Ø±": 7114,
      "ĠØ§Ø·Ø±Ø§Ùģ": 7115,
      "Ú¯Ø§Ø±ÛĮ": 7116,
      "ĠÙĦÛĮØ¦ÛĴ": 7117,
      "Ġ85": 7118,
      "ĠØ§ÙĨØ³Ù¾Ú©Ù¹Ø±": 7119,
      "ĠØ³ÛģØ§Ø±": 7120,
      "ĠØ¯Ø±ÙħÛĮØ§ÙĨÛĮ": 7121,
      "ÙĪØ´ÙĨ": 7122,
      "ÙĪÙĨÚ©": 7123,
      "ĠÙ¾Ø±ÛĮØ´": 7124,
      "ook": 7125,
      "ĠØªÙĨØ§Ø²Ø¹Ø§Øª": 7126,
      "ĠØ§ÙģØ²Ø§Ø¦ÛĮ": 7127,
      "ØªØŃØµÛĮÙĦ": 7128,
      "Ġ1953": 7129,
      "ĠØ²Ø®ÙħÛĮÙĪÚº": 7130,
      "ĠØ®ÙĦÛĮØ¬": 7131,
      "Ø®Ø§ÙĦ": 7132,
      "ĠØ¢ÙĨÙĨØ¯": 7133,
      "ØªÚ¾Ø±": 7134,
      "ĠÙĨØ§ÙħØ²Ø¯Ú¯ÛĮ": 7135,
      "Ø²ÛĮØª": 7136,
      "ĠØ§ÛĮÙĨØ¬ÙĦØ³": 7137,
      "ĠØ¢ÙĦÛģ": 7138,
      "ĠÙĤØ§Ø±ÛĮ": 7139,
      "ĠØªØ§Ø¬Ø±ÙĪÚº": 7140,
      "ĠÙ¾Ø°ÛĮØ±": 7141,
      "Ġ57": 7142,
      "Ġ61": 7143,
      "ĠÚĨØ§ÙĨØ¯ÛĮ": 7144,
      "ĠØŃÛĮØ±Øª": 7145,
      "ï¯¿": 7146,
      "ÙĪØ±Ø§ÙĨ": 7147,
      "ĠÙ¾Ø±Ø¯Ûģ": 7148,
      "Ø¬Ø±Ùħ": 7149,
      "ÙĦÙħÛĮÙĨ": 7150,
      "Ú¯Ø±Ø§ÙģØ±": 7151,
      "ĠØ¯ÛĮÙĪØ§ÙĨ": 7152,
      "ĠØ§ÙĨØ¬ÛĮÙĨØ¦Ø±ÙĨÚ¯": 7153,
      "Ù¾ÙĪØª": 7154,
      "ĠÙĦÙĨÚ©Ø§Ø´Ø§Ø¦Ø±": 7155,
      "Ø§Ø¦Ø·": 7156,
      "ĠØ¨Ø±Ø§ÛĮ": 7157,
      "ff": 7158,
      "ĠÚĪØ§Ú©ÙĪ": 7159,
      "ĠØ§Ø®Ø¨Ø§Ø±Ø§Øª": 7160,
      "ĠÙĨÚ©Ø§ÙĦÙĨÛĴ": 7161,
      "ĠØ§Ø±Ø´Ø§Ø¯": 7162,
      "ĠÙħØ¹Ø§Ùģ": 7163,
      "ĠÙ¾Ø±ÙĪØ¬ÛĮ": 7164,
      "ÙĪØ¨Ø§": 7165,
      "ĠÙĤØµØ¨ÛĴ": 7166,
      "ĠÚ©Ø±ÙĦ": 7167,
      "ĠÙħØ§Ø±ÙĨÛĴ": 7168,
      "ĠØ¹Ø§Ø¨Ø¯": 7169,
      "ĠÙħÙĨØªÙĤÙĦÛĮ": 7170,
      "Ø§ÙĦÚĪ": 7171,
      "Ø§ÙĤÙģ": 7172,
      "ĠÙģØ±Ø²": 7173,
      "Ø§Ø¶ÙĦ": 7174,
      "ĠØŃÙģØ¸": 7175,
      "ĠØ§Ø¹ÙĪØ§ÙĨ": 7176,
      "ĠØ§ÙĤÙĦÛĮØª": 7177,
      "ÙĨÙ¹ÛĮ": 7178,
      "Ø¯Ø§Ø®": 7179,
      "ĠÛĮÙĪØªÚ¾": 7180,
      "ĠÙ¾Ø±Ø§Ø¦Ùħ": 7181,
      "ĠØ§ÙĦØ¨Ø±": 7182,
      "ĠÙħØ³Ù¹Ø±": 7183,
      "ÙģÛĮÚ©ÚĨØ±": 7184,
      "ĠØ´Ø±Ùģ": 7185,
      "Ġ68": 7186,
      "ĠØ´Ø¨Ûģ": 7187,
      "ĠÚ©Ø±ÙĪØ§ÙĨÛĴ": 7188,
      "ÙħÚ©": 7189,
      "ĠØ§Ø³Ú©Ø§Ù¹": 7190,
      "ĠØ¢Ø´": 7191,
      "ĠØºØ§Ø¦Ø¨": 7192,
      "ĠØ¹ÙħÙĦÛģ": 7193,
      "ĠØ¨Ø´ÛĮØ±": 7194,
      "ĠØ³Ø±Ø¯ÛĮ": 7195,
      "Ø§ÙģØºØ§ÙĨØ³ØªØ§ÙĨ": 7196,
      "ĠØ³ÙĪØ§ÙĨØŃ": 7197,
      "ĠØ³ÛĮØ±ÛĮÙĦ": 7198,
      "ĠÚ©ÙĦÚ©": 7199,
      "orth": 7200,
      "Ù¾ÛģÙĦÛĴ": 7201,
      "Ø¯ÛĮØ±": 7202,
      "Ø³ÛĮØ§": 7203,
      "ĠØªÙĪÙ¾": 7204,
      "ØºØ±Ø§ÙģÛĮ": 7205,
      "ĠØªÙģØ±ÛĮ": 7206,
      "ĠØµÙģØ±": 7207,
      "ĠØ§ÙĨÙģØ±Ø§Ø¯ÛĮ": 7208,
      "ÙĨÙ¹Ø³": 7209,
      "ĠØ¬ÙĪÚĪÛĮØ´ÙĦ": 7210,
      "Ø§Ø¦ÙĦÚĪ": 7211,
      "ĠØ¨ÙĨØ§ØªÛĴ": 7212,
      "Ġ1939": 7213,
      "ĠØ²ÙħÛĮÙĨÛĮ": 7214,
      "Ġ1959": 7215,
      "Ø§Ú¯Ø±ÚĨÛģ": 7216,
      "ĠPar": 7217,
      "ĠÙĦÚ©ÚĳÛĮ": 7218,
      "ĠÚ©Ø§Øª": 7219,
      "Ú¯ÛĮÙĦ": 7220,
      "ĠÙħØ·Ø§ÙĦØ¨Ø§Øª": 7221,
      "ĠÙħÛĮÙ¹": 7222,
      "ĠØ³ÙģÙĦÛĮ": 7223,
      "ĠÛĮÚº": 7224,
      "Ø¬Ú©": 7225,
      "ĠØ¸ÛģÙĪØ±": 7226,
      "ĠØ§Ø¨ÙĦØ§Øº": 7227,
      "Ù¹Ø±Ø§": 7228,
      "ĠØ§ÛĮØ³ÚĪ": 7229,
      "Ø²ÛĮÙĨ": 7230,
      "ĠÚĪØ§Ø¤ÙĨ": 7231,
      "ĠØ¨Ø±ÙĨ": 7232,
      "ĠØµØ¯ÛĮÙĪÚº": 7233,
      "ĠÚ¯Ø±ÙĪÙ¾ÙĪÚº": 7234,
      "ĠØ¹Ø¬Ø§Ø¦Ø¨": 7235,
      "ÚĪÛĴ": 7236,
      "ĠÙĪÛĮØ¦Ø±": 7237,
      "ens": 7238,
      "ĠLa": 7239,
      "ĠØ¯ÛĮØ¯ÛĮØ§": 7240,
      "ĠØ§Ø³ØªÙģØ§Ø¯Ûģ": 7241,
      "ĠÛģØ§Ø¦": 7242,
      "Ø§ÛĮØ±Ø§ÙĨÛĮ": 7243,
      "à¤°": 7244,
      "ĠØ´Ø§ÙģØ¹ÛĮ": 7245,
      "ĠÚĪÙĪØ±": 7246,
      "Ġ66": 7247,
      "Ø¬ÛĮØ¨": 7248,
      "ural": 7249,
      "ĠÚ¯ÙĪØ¦ÛĮ": 7250,
      "ĠØ§Ø±ÙĪ": 7251,
      "ÙħÙĦÚ©ÛĮ": 7252,
      "Ø¯Ø§Ø±ÙĪÚº": 7253,
      "ĠÙĪÙĨÚ¯": 7254,
      "Ù¦": 7255,
      "Ø¢ÙĦ": 7256,
      "Ø§ÙĪÛĮØ²ÛĮ": 7257,
      "ĠØ¬ÙħØ¹ÛĮØª": 7258,
      "ĠØ²ÛĮØ§Ø±Øª": 7259,
      "ØŃÙĤÛĮ": 7260,
      "ĠØŃØ±ÛĮÙģ": 7261,
      "ĠØµØŃØ§Ø¨ÛĮ": 7262,
      "ĠØ±ÙĪÛĮÛģ": 7263,
      "ĠÙħØ´Ø±ÙĪ": 7264,
      "ĠÙħÛĮØ±ÛĮÙĦÛĮØ¨ÙĪÙĨ": 7265,
      "ĠÚ©Ø§ÙħÙĦ": 7266,
      "Ø±ØªÚ¾Ø±": 7267,
      "ĠØªÙħÚ¾Ø§Ø±ÛĴ": 7268,
      "ĠØ¨ÛĮÙĨÚĪ": 7269,
      "Ø¨Ø§Ø¦ÛĮ": 7270,
      "ÚĳÚ¾ÛĮ": 7271,
      "ĠÚ¯Ø±ÙħØ§": 7272,
      "ĠØ³Ø§Ú©": 7273,
      "ĠÙħÛĮÚ¯Ø²ÛĮÙĨ": 7274,
      "ĠØ¹ÙĦÛĮØŃØ¯Ú¯ÛĮ": 7275,
      "ĠØ¹ÙħÙĪÙħÛĮ": 7276,
      "ĠØ³Ø¹ÙĪØ¯": 7277,
      "ĠØ¬ÙĪÙĨØ²": 7278,
      "ĠØ¨Ø³Øª": 7279,
      "Ø§Ø³ÙĦØ§ÙħÛĮ": 7280,
      "ĠØ¬ÙħØ§Ø¹ØªÛĮÚº": 7281,
      "ĠØ³Ø§ØªÙĪÛĮÚº": 7282,
      "ĠØ¹ÙĦÙħØ§Ø¦ÛĴ": 7283,
      "ĠÙħØ¹Ø§ÙĪÙĨØª": 7284,
      "Ú©ÙħÛĮ": 7285,
      "ĠØ¨Ú¾ÙĪÙĦ": 7286,
      "ĠÛģØ³Ù¾Ø§ÙĨÛĮÛģ": 7287,
      "Ø±ÛĮÚ©Ù¹": 7288,
      "ĠØ¹ÙĤÛĮØ¯Ûģ": 7289,
      "ĠÙĨØŃ": 7290,
      "ĠØ±Ø§ÙĨ": 7291,
      "The": 7292,
      "Ø³ÙĦØ·": 7293,
      "ĠØ³Ø±Ú¯ÙĪØ¯Ú¾Ø§": 7294,
      "ĠÛģÙ¹Ø§": 7295,
      "ĠØ±Ø§Ø²": 7296,
      "ĠØ§ÙģØº": 7297,
      "ĠØªØŃÙĦÛĮÙĦ": 7298,
      "ĠØ¯Ø³ØªÛĴ": 7299,
      "Ø§Ø²ÙĨ": 7300,
      "ÛĮØ´": 7301,
      "ĠØ¹Ø¸Ùħ": 7302,
      "ÙĨÚ¯Ø§Ø¦ÛĮ": 7303,
      "ĠØ¬ÙĪÚĳÛĴ": 7304,
      "istory": 7305,
      "ĠØ¨Ø±Ø¢ÙħØ¯Ø§Øª": 7306,
      "ĠØ³Ù¾ÙĪØ±Ù¹Ø³": 7307,
      "ĠÙ¾ÚĳÚ¾Ø§": 7308,
      "ØªØ±ØªÛĮØ¨": 7309,
      "ĠÙĪÚ©": 7310,
      "ĠØ´ÙĪÙ¹": 7311,
      "ĠØ¬ÙĨØª": 7312,
      "ĠØ§Ø³ØªÙĨØ¨ÙĪÙĦ": 7313,
      "ĠØ±ÙĪÚ©Ø§": 7314,
      "ÙĤØ±Ø¢ÙĨ": 7315,
      "ĠÙĲ": 7316,
      "ĠÙħÛĮÙĨÛĮ": 7317,
      "Ø§ÙĦÛĮÙĨ": 7318,
      "ĠÚĨØ§Ø±Ø¬": 7319,
      "ĠÙħÙĪÙĦÙĪÛĮ": 7320,
      "ĠÙħØŃØ¨ÙĪØ¨": 7321,
      "ÙĪÙĦØ³": 7322,
      "ĠØ¨Ø§ÙĨØ¯": 7323,
      "ĠØ§Ø¬Ø§Ú¯Ø±": 7324,
      "ĠÙĪÛĮÙħÙĨØ²": 7325,
      "Ø§ØµÛģ": 7326,
      "Ġ74": 7327,
      "ĠØªØ¬Ø§ÙĪÛĮØ²": 7328,
      "ĠØ´Ø±Ø·": 7329,
      "ĠÚ©Ø«Ø±Øª": 7330,
      "ĠØ¬Ø§Ø¦ÛĮÚ¯ÛĮ": 7331,
      "ĠÙĦÙĦ": 7332,
      "Ġ67": 7333,
      "ØªØ§Ø¬": 7334,
      "ĠÙĨÚ©ÙĦØ§": 7335,
      "ĠØ§ÛĮÙĨÛĮ": 7336,
      "ĠÙħØ´ØªØ§ÙĤ": 7337,
      "erv": 7338,
      "ĠÚ©ÛĮÙĨÛĮØ§": 7339,
      "ĠØ§ÙĦØŃØ±Ø§Ùħ": 7340,
      "2006": 7341,
      "ĠÙĨÚ©Ø§ØŃ": 7342,
      "ĠÙĨØ¯ÛĮÙħ": 7343,
      "ĠØ¬Ø¨Ø±": 7344,
      "Ø§Ø¦ÛĮÚĪØ±": 7345,
      "ĠÙħÙĦØ²": 7346,
      "ĠØ¨ÚĨØ§": 7347,
      "ĠÙĤØ±Ø§Ø¡": 7348,
      "ĠÙĪÙģØ§Ø¯": 7349,
      "ÙĪØ§ÙĨÚ¯": 7350,
      "ivers": 7351,
      "ĠØ¹Ø±ÙģØ§ÙĨ": 7352,
      "istan": 7353,
      "ĠØ³ØªØ±Ûģ": 7354,
      "ĠØ³ÙĪÛĮÚĪÙĨ": 7355,
      "ĠØ·Ø§ÙĦØ¨Ø§Øª": 7356,
      "Ø¨Ø¹Ø¶": 7357,
      "ĠÙĨÙĪØ§ØŃ": 7358,
      "ĠØ®Ø±ÛĮ": 7359,
      "ĠØ¨Ú¾Ù¹ÛĮ": 7360,
      "ĠÙħØ§Ø±Ù¹ÙĨ": 7361,
      "ĠÙĨØ´ÛĮÙĨ": 7362,
      "ĠÙĤØ·Ø¨": 7363,
      "ĠØ¨Ø±Ù¹Ø´": 7364,
      "ĠØ¡ÙħÛĮÚº": 7365,
      "Ġline": 7366,
      "Ø§ÙĦÙĪ": 7367,
      "ÙĪØ¯Ø§Ø±": 7368,
      "Ø§Ø¨Ú¾": 7369,
      "fo": 7370,
      "Ø·Ùģ": 7371,
      "ÙĪÙĪÚ©ÛĮÙ¹": 7372,
      "Ð¾": 7373,
      "ĠÙĦØ§Ø¦ÙĨØ²": 7374,
      "Ø§Ø¦Ø³ÙĨØ³": 7375,
      "ĠØ¬ÙĦØ³Ûģ": 7376,
      "Ø³ØªÚ¾Ø§ÙĨ": 7377,
      "Ġ1936": 7378,
      "ĠÚ©Ø´ÛĮØ¯Ú¯ÛĮ": 7379,
      "ĠÚ¯Ø±ÛĮØ²": 7380,
      "Ø§Ø®ØªÛĮ": 7381,
      "ĠÚĪÚ¾Ø§ÙĨÚĨÛĴ": 7382,
      "ĠÙħØŃÛĮØ·": 7383,
      "ÙĦÙĪÚ¯": 7384,
      "ĠØªØŃØ±ÛĮØ±ÛĮ": 7385,
      "rit": 7386,
      "Ø±ÛĮÙĪÚº": 7387,
      "ĠÚ©Ú¾Ø§": 7388,
      "ĠØ°ÛĮ": 7389,
      "ĠÚ¯ÙĨØ¨Ø¯": 7390,
      "ĠØŃØ±Ø§Ùħ": 7391,
      "Ø³Ø±Ú©Ø§Ø±ÛĮ": 7392,
      "ĠÙĪÙĦØ§": 7393,
      "ĠÙħØ°Ø§ÛģØ¨": 7394,
      "Ø§Ø±ÙĪ": 7395,
      "ĠØ¯Ø³ØªØ§ÙĪÛĮØ²ÛĮ": 7396,
      "ĠÙ¹Ø§Ø¦ÙħØ²": 7397,
      "ĠÙĦØ§ÙĨÚ¯": 7398,
      "Ø³ÛĮØ§Ø³ÛĮ": 7399,
      "ĠØ´ÛĮÙĪ": 7400,
      "ĠØ³Ø±Ú¯Ø±ÙħÛĮØ§Úº": 7401,
      "ĠÙ¾ÛģØ§ÚĳÙĪÚº": 7402,
      "ĠØ´Ø±Ø§Ø¦Ø·": 7403,
      "ĠØªÛĮÙĦÚ¯ÙĪ": 7404,
      "Ġ1914": 7405,
      "ĠÙĨÙĪÚ©Ø±ÛĮ": 7406,
      "Ġ92": 7407,
      "une": 7408,
      "ĠØ¬Ø°Ø¨": 7409,
      "ĠØ´Ø¹ÙĪØ±": 7410,
      "ĠStat": 7411,
      "ĠØ§ÛĮØ´ÛĮÙĨ": 7412,
      "ÙĪØ±Ø²": 7413,
      "ĠØ¬ÙĦÙĪØ³": 7414,
      "ĠØ³ÛĮØ±Øª": 7415,
      "ĠØ¯ÛĮØ´ÛĮ": 7416,
      "ĠÙħÛĮÙ¹Ø±Ú©": 7417,
      "ĠÙĤØ¯ÛĮÙħÛģ": 7418,
      "ĠØ¹Ø°": 7419,
      "ĠÙ¹Ø±ÛĮÚ©": 7420,
      "ØªÚ¾Ø§": 7421,
      "Ø·Ø±Ùģ": 7422,
      "Ú©ÛĮØ§Úº": 7423,
      "ĠØ®Ø±ÛĮØ¯Ø§Ø±ÛĮ": 7424,
      "ĠØªØ±Ø¯ÛĮØ¯": 7425,
      "ĠÙĦÙĨÚ©ÙĨ": 7426,
      "ĠÚ©Ø±ÙĪØ§Ø¦ÛĮ": 7427,
      "ĠÙ¹Ø±Ø§ÙĨØ³Ù¾ÙĪØ±Ù¹": 7428,
      "ĠØ³Ú©ÙĪÙĦÙĪÚº": 7429,
      "ĠØ°Ø®ÛĮØ±Ûģ": 7430,
      "ĠÚ©ÙĨÚ¯Ø²": 7431,
      "Ø¹Ø²ÛĮØ²": 7432,
      "150": 7433,
      "ĠØ¯Ø±Ø¬ÛĤ": 7434,
      "ÙĪØ§Ø¨": 7435,
      "ĠØ´ÛģØ¯Ø§Ø¡": 7436,
      "ØŃØ§ÙģØ¸": 7437,
      "ĠØ·Ø±ÛĮÙĤÙĪÚº": 7438,
      "ĠØ¨ÛĮÙħØ§Ø±": 7439,
      "Ø§ÙĨÛģÛĮÚº": 7440,
      "ĠÚ©Ù¾ÚĳÛĴ": 7441,
      "ĠØ¹Ø¯Ø¯ÛĮ": 7442,
      "ÙģØ±Ø§ÙĨØ³ÛĮØ³ÛĮ": 7443,
      "Ø¨ÛĮØ³": 7444,
      "ĠÚĨÛģØ±ÛĴ": 7445,
      "Ø¹Ø§Øª": 7446,
      "ĠÛģÙĪÚ¯Ø¦ÛĮÚº": 7447,
      "ĠÙħÚ©ÛĮ": 7448,
      "alb": 7449,
      "ĠØ¯Ú¾Ø±ÙĨØ§": 7450,
      "ØºØ±Ø§ÙģÛĮØ§Ø¦ÛĮ": 7451,
      "Ġ&": 7452,
      "ĠØ¨Ø§Ø²ÙĪÚº": 7453,
      "ĠÚ¯ÙĪÙĨ": 7454,
      "ĠØ¨Ø§Ø¦": 7455,
      "Ø³ÛĮØ§Ø±": 7456,
      "2017": 7457,
      "ĠÙĦØ·ÛĮÙģ": 7458,
      "ĠØ¬Ø¬Ø²": 7459,
      "ĠØ§ÙĨÚ©ÛĮ": 7460,
      "ĠØ§ØªÙĨÛĴ": 7461,
      "ĠÙģØ±ÛĮØ¯": 7462,
      "Ø¢Ø³Ù¹Ø±ÛĮÙĦÛĮØ§": 7463,
      "ĠØ§ÙĪØ±ÛĮ": 7464,
      "Ġ93": 7465,
      "ĠØ®ÙĦÙģ": 7466,
      "ĠÚĪÙĪÙĨ": 7467,
      "ĠØ®ÛĮØ¨Ø±Ù¾Ø®ØªÙĪÙĨØ®ÙĪØ§": 7468,
      "Ø§Ø²Ø¹Ûģ": 7469,
      "ĠØ§Ø±Ø´Ø¯": 7470,
      "ĠØ¯Ø§Øº": 7471,
      "ĠÙħÛĮÙĨØ§Ø±": 7472,
      "ĠPublish": 7473,
      "ĠÙ¾Ø±ÙĪÙ¹": 7474,
      "Ġ1937": 7475,
      "ĠØ®ØµÙĪØµÛĮØª": 7476,
      "ĠØ³ÙĨÙ¹Ø±ÙĦ": 7477,
      "ĠØ§ÙĪØ¨Ø§ÙħØ§": 7478,
      "Ø§ÙĦÙĨ": 7479,
      "ĠØ§ÙĨÚ©ÙĪ": 7480,
      "ĠØ³ÙģÛĮØ§ÙĨ": 7481,
      "ĠØªØ¹ÙħÛĮØ±Ø§ØªÛĮ": 7482,
      "Ø±Ø¬Ùħ": 7483,
      "ĠØ«ÙĨØ§Ø¡": 7484,
      "ÛģÙħØ§Ø±ÛĴ": 7485,
      "ĠÙħØ±ÙħØª": 7486,
      "Ú¯Ø§Ø¤Úº": 7487,
      "ĠÙĦÚ¯Ø§Ø¦ÛĮ": 7488,
      "ĠAs": 7489,
      "ĠÙĨØ¸Ø§ÙħÙĪÚº": 7490,
      "ÙħØ²ÛĮØ¯": 7491,
      "ĠØ§ÙĨØŃØµØ§Ø±": 7492,
      "ĠÙ¾Ø§Ø¤": 7493,
      "ÚĪØ§ÙĨ": 7494,
      "ĠÙħÛĮØ¦Ø±": 7495,
      "ĠØ¨ÛĮÚĪ": 7496,
      "ĠØ±ÛĮÙĦÛĮÙģ": 7497,
      "ĠAug": 7498,
      "ĠØ§ÛĮÚĪÛĮÙĦÛĮÚĪ": 7499,
      "are": 7500,
      "ĠØ®Ø·Ûģ": 7501,
      "ÙĨÙĪØ§ÙĨÛĮ": 7502,
      "ĠØ³Ù¾ÙĦØ§Ø¦ÛĮ": 7503,
      "ĠÚĪÙĪÙħ": 7504,
      "ĠØ¹Ø´ÙĤ": 7505,
      "ÙħØ«": 7506,
      "ĠØ§Ø¨Ú¾Ø±": 7507,
      "ÙĩÙħ": 7508,
      "ĠÙĨÙĤØ§Ø¨": 7509,
      "ĠÚ¯Ø§ÚĳÛĮØ§Úº": 7510,
      "ĠÙ¾ÙĦØ§ÙĨÙ¹": 7511,
      "Ú¯Ø±ÙģØªØ§Ø±": 7512,
      "ĠØ®Ø¯Ø´Ûģ": 7513,
      "ĠØ¨Ø§ÙĦØ®ØµÙĪØµ": 7514,
      "Ú¯Ø±ÛĮÙ¹": 7515,
      "Ø§ÙĨØªÙĤØ§ÙĦ": 7516,
      "ĠØ¯Ø´ÙħÙĨÛĮ": 7517,
      "Ù¹ÙĨÚ¯Ú¾Ùħ": 7518,
      "ĠØŃÙģØ§Ø¸ØªÛĮ": 7519,
      "ÙĪÛĮØ§": 7520,
      "ĠÚ©ÙĦÙħ": 7521,
      "ĠÙģÙĨÛĮ": 7522,
      "ĠÚĨØ§ÙĨØ³": 7523,
      "ĠÙ¹Ø±ÛĮÙĨÙĨÚ¯": 7524,
      "ĠØ§Ø³Ù¹Ø§Ùģ": 7525,
      "ĠØµÙĪØªÛĮ": 7526,
      "ĠÚ¯Ú¾ÙĨÙ¹ÙĪÚº": 7527,
      "ĠÚ©ÙĪØ§ÙĦÛĮÙģØ§Ø¦ÛĮ": 7528,
      "ĠÙ¾ÙĨÚĪ": 7529,
      "ĠØ§Ø¨ÙĪØ¨Ú©Ø±": 7530,
      "ĠØ¹ÛĮÙĨ": 7531,
      "ĠÙģØªÙĪ": 7532,
      "Ø§ÙĦÙĪÚº": 7533,
      "Ø§Ø³Ú©Ø§": 7534,
      "Ġ1938": 7535,
      "ĠØ§ØŃÚ©Ø§Ùħ": 7536,
      "ĠØ¯Ø§Ùħ": 7537,
      "olog": 7538,
      "ĠÙħØ¸Ø§ÛģØ±ÛĴ": 7539,
      "ĠØ§ÙĨÚ©ÛĴ": 7540,
      "ÙĪÛĮØ³ÛĮ": 7541,
      "ĠÚ¯Ø±ÙħÛĮ": 7542,
      "ĠÙĦØ§Ø¦Ø³ÙĨØ³": 7543,
      "ĠÚ©Ø±Ø¨ÙĦØ§": 7544,
      "ĠÙ¾Ø±ÙģØ§Ø±ÙħÙĨØ³": 7545,
      "ĠØ¬Ø§ÙĨØ¨Ø¯": 7546,
      "Ġ73": 7547,
      "ĠØ¯Ø±Ø¬ÙĨÙĪÚº": 7548,
      "ĠÚ¯Ú¾Ø±Ø§ÙĨÛĴ": 7549,
      "Ú©Ø±Ø²": 7550,
      "ÙĪØ§Ù¹": 7551,
      "ĠÙ¾ÙĪÙĨ": 7552,
      "ĠØ¯Ø±Ú©Ø§Ø±": 7553,
      "ĠÙħÙĤØª": 7554,
      "ĠØ±Ø³ÙħÛĮ": 7555,
      "ision": 7556,
      "ĠØ´ÙĪØ§ÛģØ¯": 7557,
      "ĠÙħØŃØ³ÙĨ": 7558,
      "ÙĩØ¯": 7559,
      "ÚĪÚ¾": 7560,
      "ĠJohn": 7561,
      "ĠÙ¾Ø±Ø§Ø¬ÛĮÚ©Ù¹": 7562,
      "ĠÚ©ÛĮÙĦÛĮ": 7563,
      "ÙħÛĮÚĨ": 7564,
      "Ø·Ø§ÙĦ": 7565,
      "ĠÙĪÛĮØ²": 7566,
      "ĠØ¬Ú¾ÙĪÙ¹": 7567,
      "ĠØ¨Ø§Ø·": 7568,
      "ĠØ¨ÚĨÙĨÛĴ": 7569,
      "ĠØ§ÛĮØ³ÛĮÚ©Ø³": 7570,
      "ĠÙĪÙĤÙģÛĴ": 7571,
      "ĠÚ©Ø³Ø§ÙĨ": 7572,
      "Ø¨ÙĦØ§ÙĪÙĦ": 7573,
      "ĠÛĮÙĪÚ©Ø±ÛĮÙĨ": 7574,
      "ĠØ¯Ø±Ø§ÙĨÛĮ": 7575,
      "ĠØ³ÙĨÙĨÛĴ": 7576,
      "ĠÚĪÛĮÙħÙĪÚ©Ø±ÛĮ": 7577,
      "ĠÙ¹Ø§ÙĨÚ¯": 7578,
      "ÙħØªÙĪÙģÛĮ": 7579,
      "ĠÚĨÙĪÙ¹": 7580,
      "Ú©Ú¾ÙĦØ§": 7581,
      "ĠÙħØ±ÚĨ": 7582,
      "ĠØ´Ø±Ú©Ø§Ø¡": 7583,
      "ÙĦÙ¹ÙĨ": 7584,
      "ĠÚĨÚ©ÙĪØ§ÙĦ": 7585,
      "ĠÙĨØ¸Ø§ÙħÛĮ": 7586,
      "shi": 7587,
      "ĠØ¯ÙĪÚĨØ§Ø±": 7588,
      "Ø´Ø§Øª": 7589,
      "ĠÚ¯Ø²Ø±ÙĨÛĴ": 7590,
      "ĠØ¨ØµØ±Ûģ": 7591,
      "Ġ82": 7592,
      "ĠØªØ¬Ø±Ø¨Ø§Øª": 7593,
      "Ø¹ÙĦØ§ÙħÛģ": 7594,
      "Ø¯Ø§ÙĨÙĪÚº": 7595,
      "ĠØ´Ø±ÙĪØ¹Ø§Øª": 7596,
      "ĠÚ©Ø±Ú©Ù¹Ø±Ø²": 7597,
      "Ø³Ù¹ÙĦ": 7598,
      "ĠÚ©Ø±ÙĨØ§Ù¹Ú©": 7599,
      "Ú©Ù¹ÛĮ": 7600,
      "ĠÚ©ÙĪÙĦÙħØ¨ÛĮØ§": 7601,
      "2005": 7602,
      "ĠÙĤØ±ÛĮØ´": 7603,
      "ïº®": 7604,
      "ĠÙħÙĦÙ¹Ø±ÛĮ": 7605,
      "ĠØºØ±Ø¶": 7606,
      "Ġïºį": 7607,
      "Ø§ÙĨÙ¹Ø±": 7608,
      "ĠØ®ÙĦØ§": 7609,
      "ĠØ±ÙĪØ§ÙĨ": 7610,
      "ĠÚ¯Ø¬Ø±": 7611,
      "ĠÚĪÙĪÙħÛĮ": 7612,
      "Ġ81": 7613,
      "ĠÙĪØ§Ø±Ø«": 7614,
      "ĠØ³Ù¹Ø§Ø±": 7615,
      "ĠØ¨ØªØ§Ø¦ÛĮ": 7616,
      "Ú¯Ø³": 7617,
      "ĠÙĪØ±Ø«Ûģ": 7618,
      "ĠÙħØ·Ø¨ÙĪØ¹Ûģ": 7619,
      "ĠØ¢Ø¯Ùħ": 7620,
      "ĠÙħØ±Ø§ØŃÙĦ": 7621,
      "ĠÙ¾Ø±ÛĮÙħ": 7622,
      "ock": 7623,
      "Ù¾Øª": 7624,
      "ĠØ¨ÛĮØ¬": 7625,
      "ĠØ¨ÛĮØ§Ø¶": 7626,
      "ĠØ²Ø¨Ø§ÙĨÛĮÚº": 7627,
      "ĠÚĪÛĮÙĨÚ¯ÛĮ": 7628,
      "ĠØ³Ø¨Ú¾Ø§": 7629,
      "ĠÙĦÚĳÚ©ÛĴ": 7630,
      "ÙĪØ´ÙĦÙħ": 7631,
      "ĠØ¢Ø²Ùħ": 7632,
      "ĠØ§Ø³ÙħØªÚ¾": 7633,
      "ĠÙħØ®Ø§ÙĦÙģÛĮÙĨ": 7634,
      "ĠØ§Ø°": 7635,
      "Ø³Ø±Ø¯Ø§Ø±": 7636,
      "ĠØ§ØµÙģÛģ": 7637,
      "ĠØ§Ø²Ø¨Ú©": 7638,
      "ee": 7639,
      "ÙĦÙħÛĮ": 7640,
      "ĠØ¯ÙĪÚº": 7641,
      "ĠØ²Ø¯Ûģ": 7642,
      "Ø¸Ûģ": 7643,
      "Ġ95": 7644,
      "ĠÚ¯ÙĨØ§": 7645,
      "Ù¹ÛĮÙĪÙĦ": 7646,
      "ĠØªØ¬Ø§ÙĪØ²": 7647,
      "ĠTrans": 7648,
      "ĠÙ¹Ú¾Ú©": 7649,
      "ĠØ±Ø§ÛģØ¯": 7650,
      "ĠØ³Ù¾ÙĪØ±Ù¹": 7651,
      "ĠÚĪÛĮÚĳÚ¾": 7652,
      "ĠÚ©ÛĮÙ¾Ù¹ÙĨ": 7653,
      "ĠØ¨Ø§ØºÛĮÙĪÚº": 7654,
      "ÙĪØ²ÛĮ": 7655,
      "ØŃØ³ÛĮÙĨ": 7656,
      "ĠÛģÛĮØ±ÛĮ": 7657,
      "edo": 7658,
      "ĠÚ©Ø§Ø¸": 7659,
      "ĠØ§ÛĮÙĨÙ¹": 7660,
      "ĠÚĨÛģØ§Ø±": 7661,
      "ley": 7662,
      "ĠØ§ÙĪÙĦÙħÙ¾Ú©Ø³": 7663,
      "Ø±ÙĤ": 7664,
      "ĠØ³Ø§Ø±Ø§": 7665,
      "ÙĦÙĪØ§Ø±": 7666,
      "Ø§ØªØ§Ø±": 7667,
      "Ġ59": 7668,
      "ĠÚĨØ§ÙĪÙĦ": 7669,
      "ĠØ¢Ù¹Ú¾ÙĪÛĮÚº": 7670,
      "Ø±ÙģÛĮ": 7671,
      "ĠØ®Ø·Ø±Ø§Øª": 7672,
      "Ġ1919": 7673,
      "ĠÛģÙģØªÙĪÚº": 7674,
      "ĠÙħØªÙģÙĤÛģ": 7675,
      "ĠØ¨ÚĳÚ¾ÙĨÛĴ": 7676,
      "ĠØ¬ÙĦØ³ÛĴ": 7677,
      "reated": 7678,
      "Ø§Ø©": 7679,
      "Ø³ØªØ§ÙĨÛģ": 7680,
      "ĠØ¬ÛģÙĦÙħ": 7681,
      "ĠØ¯ÛģØ§Ø¦ÛĮÙĪÚº": 7682,
      "ĠØ±Ø§Ø³ØªÙĪÚº": 7683,
      "ĠØ§ÙĪÙĦÙħÙ¾Ú©": 7684,
      "Ú©ÙĪÛģ": 7685,
      "orld": 7686,
      "ĠØ±ØŃÛĮÙħ": 7687,
      "ĠØ¨ÛĮÙĪØ±ÙĪ": 7688,
      "ĠÙħØ¹Ø²ÙĪÙĦ": 7689,
      "ĠØ¢Ø±ØªÚ¾": 7690,
      "Ġr": 7691,
      "ĠÚ©Ø±ÚĨ": 7692,
      "Ġ87": 7693,
      "ĠØŃØ§Ø¶Ø±ÛĮ": 7694,
      "Ù¹ÙĪÙĨ": 7695,
      "ĠØ§ÙĪØ±ÙĨÚ¯": 7696,
      "ĠÙĤØµÙĪØ±": 7697,
      "ÚĨÙĪ": 7698,
      "Ġ78": 7699,
      "ĠØ¨ØŃØ±ÛĮÙĨ": 7700,
      "Ø¹ÙĪØ§ÙħÛĮ": 7701,
      "ĠØ¢Ø¨ÛĮ": 7702,
      "Ø³ØªØ§": 7703,
      "ĠØ¨Ø¯ÙĦÛĴ": 7704,
      "Ù¾ÛģÙĦÛĮ": 7705,
      "ÙĪÛĮÙĦÛĮ": 7706,
      "ĠÙ¾ÛĮØ³Ûģ": 7707,
      "Ø§Ø¬Ø§": 7708,
      "ĠØ³Ø±ÙģÛģØ±Ø³Øª": 7709,
      "eng": 7710,
      "Ø§ÙĪØ§Øª": 7711,
      "ĠÙħÛĮØ³Ø§ÚĨ": 7712,
      "ĠÙ¾Ø±ØªÚ¾": 7713,
      "Ù¹ÛĮÙħ": 7714,
      "ĠØµØŃØ§ÙģØª": 7715,
      "ĠØ³Ú©ÛĮÙħ": 7716,
      "Ġ1931": 7717,
      "ĠÚ©ÛĮÙģÛĮØª": 7718,
      "Ø¨ÙĨØ¯": 7719,
      "pan": 7720,
      "ĠÙĪÛĮÚĪÛĮÙĪØ²": 7721,
      "ĠÙĪØ´": 7722,
      "ÙĦØ³ÙĨ": 7723,
      "ĠØ£Ø¨ÙĪ": 7724,
      "ĠØªØ§Ø±Ú©": 7725,
      "ĠØ¨Ú¾Ø¬ÙĪ": 7726,
      "ĠÙĨØ¸Ø±ÛĮØ§ØªÛĮ": 7727,
      "ĠØ¬Ø§Ú¯ÛĮØ±": 7728,
      "ĠÚ©Ø±Ø±ÛģØ§": 7729,
      "ĠÙ¾Ø±Ø§Ø¦ÛĮÙĪÛĮÙ¹": 7730,
      "ĠØ¢ÙħÛĮØ²": 7731,
      "ÙħØ¬Ú¾ÛĴ": 7732,
      "ØµØ¨": 7733,
      "ĠØ®Ø±Ø§Ø¨ÛĮ": 7734,
      "ĠØ¯Ú¾ÙħØ§Ú©Ø§": 7735,
      "ĠÙĪØ¯": 7736,
      "Ù¾Ø§Ø±ÙĦÛĮÙħ": 7737,
      "ĠØ±Ø¨ÛĮØ¹": 7738,
      "ĠØ¨Ø±Ø§Ø¤ÙĨ": 7739,
      "ĠÙħÛģÛĮÙĨÙĪÚº": 7740,
      "Ġ1933": 7741,
      "ĠÚ©ÙĨÛĮØª": 7742,
      "ĠÙģØ¶Ø§": 7743,
      "ĠÙģÛĮØ´ÙĨ": 7744,
      "ĠØ¨ÙħØ¨Ø¦ÛĮ": 7745,
      "ĠØ¨Ø¯ØªØ±ÛĮÙĨ": 7746,
      "ĠÚĪÚ©ÙĪÙ¹Ø§": 7747,
      "ĠÚĪÚĨ": 7748,
      "ĠÙĪØŃ": 7749,
      "ĠØ¯Ø§Ø³ØªØ§ÙĨ": 7750,
      "ĠÙħÚĨ": 7751,
      "Ø¦ÙĨØ²": 7752,
      "ÙĪØ²Ûģ": 7753,
      "ĠÙħÛĮØ³Ø§ÚĨÙĪØ³Ù¹Ø³": 7754,
      "ĠÙĨÙħÚ©": 7755,
      "ĠÙħØ§ÛĮÙĪØ³": 7756,
      "ly": 7757,
      "ĠÙ¾Ø§Ø¯Ø±ÛĮ": 7758,
      "Ø§Ø±Ø§ÙĨ": 7759,
      "Ġ86": 7760,
      "Ġ1944": 7761,
      "ĠØ´Ú©Ø±ÛĮÛģ": 7762,
      "ÙħÛĮÙĨØ§ÙĨ": 7763,
      "ĠØ§ÛĮØ¨Ù¹": 7764,
      "Ø·ÙĦØ¨": 7765,
      "ann": 7766,
      "ĠÙ¹Ø±Ùħ": 7767,
      "Ø³ÙħÛģ": 7768,
      "ĠÙĪÚ©ÙĦØ§": 7769,
      "ĠØ¬Ú¾Ú©": 7770,
      "ĠÙħØ±Ø§Ú©Ø´": 7771,
      "Ø¬ÙĦØ¯": 7772,
      "ĠÙ¾Ø±ÙĨØ³Ù¾ÙĦ": 7773,
      "ĠØ±Ù¾ÙĪØ±Ù¹Ø³": 7774,
      "ĠØŃÙģÛĮØ¸": 7775,
      "ĠØ¯Ø±Ø§Ø²": 7776,
      "ĠÛģÙĦØ§Ú©ØªÙĪÚº": 7777,
      "Ð¸": 7778,
      "ĠØ³Ø¯Ú¾": 7779,
      "ĠÙĨØ§Ø²ÙĦ": 7780,
      "Ø¹ÙĦØ§ÙĤ": 7781,
      "ĠÙĪØ±ÚĺÙĨ": 7782,
      "Ġ77": 7783,
      "ĠÚ©Ø³Ø§ÙĨÙĪÚº": 7784,
      "ĠÛ±": 7785,
      "ĠÙ¾ÛĮØºÙħØ¨Ø±": 7786,
      "ĠØ¬ÙħÛĮÙĦ": 7787,
      "Ø§Ø¦ÙĨØ³": 7788,
      "ĠÙħÚ©Øª": 7789,
      "Ġ1918": 7790,
      "ĠÚĨÙĦØ§Ø¦ÛĮ": 7791,
      "ĠØ§ÛĮÚĪÙĪÙĪÚ©ÛĮÙ¹": 7792,
      "Ú©Ø±Øª": 7793,
      "ĠØºØ±Ø¨ÛĮ": 7794,
      "Ġ400": 7795,
      "ĠÚĨØªØ±Ø§ÙĦ": 7796,
      "ĠÙħØ±Ø¶ÛĮ": 7797,
      "ÙĪÙĦÛĮØ§ØªÛĮ": 7798,
      "ĠÙ¾Ø±ÛĮÙģÛĮÚ©ÚĨØ±": 7799,
      "ĠØ¹ØµØ±": 7800,
      "ĠÙĨÚ©ÙĦÛĴ": 7801,
      "Ø±Ø§ÙĨØ§": 7802,
      "ÙħÛĮØ±Ø§": 7803,
      "ĠÙģÛĮØ³Ù¹ÛĮÙĪÙĦ": 7804,
      "ĠÙħÚĨÚ¾ÙĦÛĮ": 7805,
      "ĠÙ¾Ø®Øª": 7806,
      "att": 7807,
      "Ġ76": 7808,
      "ĠØ¯ÛĮÚ©Ú¾ÛĮÚº": 7809,
      "ĠØ®ÙĪØ´ØŃØ§ÙĦÛĮ": 7810,
      "ĠÛģØ³Ù¾ØªØ§ÙĦÙĪÚº": 7811,
      "ĠØªØµÙĪÙģ": 7812,
      "ĠØ³ÙħØ¬Ú¾ÙĨÛĴ": 7813,
      "ĠØ¬Ø°Ø¨Ûģ": 7814,
      "Ø§Ø¢": 7815,
      "ĠØ¹ÙĦÙĪÛĮ": 7816,
      "ĠØ¨ÙĪÙ¹": 7817,
      "ĠÚ¯Ø±ÛĮÙĨÚĪ": 7818,
      "ĠØªÚ¾Ø±ÛĮ": 7819,
      "Ġ71": 7820,
      "Ġ83": 7821,
      "ĠCounty": 7822,
      "ail": 7823,
      "ĠØ§ÛĮÚ©Úĳ": 7824,
      "ÙĪÙ¹Ú¾": 7825,
      "ÙĤÛĮÙĤ": 7826,
      "Ø¨ÛĮØ§ÙĨ": 7827,
      "ĠØ§ÛĮØ¬Ø§Ø¯": 7828,
      "Ġ1941": 7829,
      "ĠØ±Ø³ÙĪØ®": 7830,
      "ĠJul": 7831,
      "ĠÙħØªÙĨØ§Ø²Ø¹": 7832,
      "ral": 7833,
      "Ġ84": 7834,
      "ĠÙħÙģØ§ÛģÙħ": 7835,
      "ĠÚ¯Ø§Ø¦ÛĴ": 7836,
      "ĠÙģÚ©Ø´ÙĨ": 7837,
      "ĠÙĪØ§Ú©": 7838,
      "Ġ88": 7839,
      "ĠØ³ÛĮÙħÛĮÙĨ": 7840,
      "ĠØ§ÙĦÛĮÚ©Ù¹Ø±Ú©": 7841,
      "ĠØ±Ø§Ø¦Ø¬": 7842,
      "ØªÙģØ³ÛĮØ±": 7843,
      "ĠÙħØ¹ÙĦÙħ": 7844,
      "bert": 7845,
      "ÙħØ´Øª": 7846,
      "Ġ69": 7847,
      "Ø±ÛĮØ¬": 7848,
      "Ù¾ÛĮÙ¹": 7849,
      "ĠØ±Ø§ÛģØ¯Ø§Ø±ÛĮ": 7850,
      "ĠÚĪÛĮÙģ": 7851,
      "Ġ1934": 7852,
      "ĠÛ²Û°Û±": 7853,
      "ĠØ±ÙĪÛģ": 7854,
      "ĠÚ©ÛģÙĦØ§ØªØ§": 7855,
      "ĠÙĪÛĮØ¯": 7856,
      "Ġ1929": 7857,
      "ĠÙĨÚ©Ø§ÙĦØ§": 7858,
      "ĠÙħÙĤØ¨Ø±Ûģ": 7859,
      "ĠØ¨ÙĦÛĮÙĨ": 7860,
      "ĠÙĪØ±Ùħ": 7861,
      "ĠØ¨ÙĦØŃØ§Ø¸": 7862,
      "ĠØ¬Ú¯ÛģÙĪÚº": 7863,
      "ĠÙħØ²Ø¯ÙĪØ±": 7864,
      "Ù¹ÛĮÙĦ": 7865,
      "ĠØ·ÙĪØ±Ù¾Ø±": 7866,
      "ĠØªÚ©ÙĨÛĮÚ©ÛĮ": 7867,
      "ĠÙ¾Ù¹Ø±ÙĪÙĦÛĮÙħ": 7868,
      "ĠÙħÙĨØµÙģ": 7869,
      "ĠØ¸Ø§Ûģ": 7870,
      "ÛĮØ±ÙĨ": 7871,
      "ĠÙģØ±ÙĨÙ¹": 7872,
      "ĠØ¬ÙĨÚ¯ÙĪÚº": 7873,
      "ĠØ·Ø¨ÙĤØ§Øª": 7874,
      "ĠØ§ØºÙĪØ§Ø¡": 7875,
      "ĠØ¬ÙĨÛģÛĮÚº": 7876,
      "ĠØªØ¹Ø²ÛĮØª": 7877,
      "ĠÚ¯Ø±Ø§Ùģ": 7878,
      "ĠÙĦÛĮØ¨ÛĮØ§": 7879,
      "ĠØ¬ÙĨÚ¯ÙĦØ§Øª": 7880,
      "ĠØ¹Ø³": 7881,
      "ĠØ¯Ø§ÙĨÙĪÚº": 7882,
      "ĠØ±Ø§ÙĨÛĮ": 7883,
      "ĠÚĪÛĮÙĪØ³": 7884,
      "ĠÚ©Ø±Ø³Ú©ØªØ§": 7885,
      "Ú©Ø´ÙħÛĮ": 7886,
      "ĠØ·Ø¨Ø¹": 7887,
      "ĠØ¶Ø§Ø¦Ø¹": 7888,
      "ĠÙĨÙħÙĪØ¯Ø§Ø±": 7889,
      "ÛĮØ²": 7890,
      "ĠØµÙĦØŃ": 7891,
      "ĠØ¨ÛĮÙ¹ÙĪÚº": 7892,
      "Ø§Ø¨ØªØ¯Ø§Ø¦ÛĮ": 7893,
      "Ø¯Ø¨": 7894,
      "ĠØ¨ÛģØ¨ÙĪØ¯": 7895,
      "ĠÙĨØµÛĮØ±": 7896,
      "ĠØ±ÛĮÙ¹Ø§Ø¦Ø±ÚĪ": 7897,
      "ĠØ¬ÛģØ§Ø²ÙĪÚº": 7898,
      "ĠØ´ÛĮÙĦÚĪ": 7899,
      "ure": 7900,
      "ĠØ§Ø³Ù¾Ø§Ø¦ÛĮÚĪØ±": 7901,
      "ĠÛģÙĨÚ¯Ø±ÛĮ": 7902,
      "ĠØªØ§ØŃØ§ÙĦ": 7903,
      "ood": 7904,
      "Ø§Ø±ÛĮÙĪ": 7905,
      "Ġ1942": 7906,
      "ĠØ±Ø§Ø¬Ù¾ÙĪØª": 7907,
      "ĠØ¨ÙĨØªØ§": 7908,
      "und": 7909,
      "Ú©ÙħÙ¾": 7910,
      "Ú¯ÙĨÛĮ": 7911,
      "âĢĶ": 7912,
      "ĠÙħØªØ±Ø¬Ùħ": 7913,
      "ÙģØ§Ø±ÙħÛĮØ´ÙĨ": 7914,
      "¡Ù": 7915,
      "ĠØŃØªÛĮ": 7916,
      "Ġ1928": 7917,
      "ĠØ±ÙĪØ§Ø¬": 7918,
      "ĠØ¨Ø§ØºÛĮ": 7919,
      "ĠÙħØŃØ§ØµØ±Ûģ": 7920,
      "ÙĤÙĨØ¯": 7921,
      "ĠØ±ÙĪÙħØ§ÙĨÛĮÛģ": 7922,
      "ĠØ®Ùħ": 7923,
      "ett": 7924,
      "ĠØ¨Ø§Ø´ÙĨØ¯ÛĴ": 7925,
      "ĠØ§ÛĮÙħØ±Ø¬ÙĨØ³ÛĮ": 7926,
      "ÙĪØ°": 7927,
      "ĠØŃÛĮØ±Ø§ÙĨ": 7928,
      "Ø¬ÛĮØª": 7929,
      "ĠÙģØ§Ø±ÙĪ": 7930,
      "ÙĤØ§Ûģ": 7931,
      "ore": 7932,
      "ĠØ¨Ø§Ø¯Ø´Ø§ÛģØª": 7933,
      "Ø¨Ø§Ø³": 7934,
      "ĠÚ©ÙĨÙĪÙĨ": 7935,
      "albedo": 7936,
      "Ù¹ÙĦØ±": 7937,
      "ĠØ³Ø¬Ø§Ø¯": 7938,
      "Ùª": 7939,
      "Ø§ØŃÙĤÛĮÙĨ": 7940,
      "ĠJan": 7941,
      "ĠÙĨÚ¯Ø§Ûģ": 7942,
      "ĠØ´ÛĮÙĦ": 7943,
      "ĠØ§ÙħÙĪØ§Øª": 7944,
      "ĠÙħØ¹Ø§ÙĪ": 7945,
      "Ø§Ø®Ø§Øª": 7946,
      "ĠÙĨÚ©ÙĦÙĨÛĴ": 7947,
      "ĠØªØ¨ØµØ±Ûģ": 7948,
      "ĠÚ¯ÛĮØ±ÛĮ": 7949,
      "ĠØ§ÙĦØµÙģ": 7950,
      "ÛĮÙħÛģ": 7951,
      "ÛĮØ³Ù¹Ø±": 7952,
      "ĠÙħØ¬Ø§ÛģØ¯": 7953,
      "mer": 7954,
      "ĠØ¹Ø§ÙħÛģ": 7955,
      "ear": 7956,
      "ĠØ§ÙĦÙħØ¨Ø§Ø±Ú©": 7957,
      "ĠÙĨÛĮÙ¹ÙĪ": 7958,
      "ĠÙĪØ±Ø§Ø«": 7959,
      "ĠÙ¾Ø±Ø§Ø³": 7960,
      "ĠØºØ§ÙĦØ¨Ø§": 7961,
      "ĠÙĨØ¨ÙĪØª": 7962,
      "ĠÚĨÙĪØ¨": 7963,
      "Ġplay": 7964,
      "uc": 7965,
      "ĠÚ©ÛĮÙ¹": 7966,
      "ÙĪÙĨÙĦ": 7967,
      "ĠØ¨ÛģØ§ÙĪÙĦÙ¾ÙĪØ±": 7968,
      "ĠØ¨ÛģØ§Ø¤": 7969,
      "ĠØ§Ø·ÙħÛĮÙĨØ§ÙĨ": 7970,
      "ĠÙĦØ§Ø·ÛĮÙĨÛĮ": 7971,
      "ĠÚĪÙĪÙħÛĮØ³Ù¹Ú©": 7972,
      "ĠØªØ¨ÙĦÛĮØº": 7973,
      "Ú©Ø´ÛĮ": 7974,
      "ĠÙħÙĨÛĮØ±": 7975,
      "ĠÙĨØ§Ù¹ÙĨÚ¯Ú¾Ùħ": 7976,
      "ĠÙħØ§Ø¦ÛĮÚ©": 7977,
      "ĠÙĨÚ¯Ø§Ø±ÛĮ": 7978,
      "Ú¾ÙĨ": 7979,
      "ĠÚ©Ø§ÙĦÛĮ": 7980,
      "ĠÙĦÛĮØªÛĮ": 7981,
      "Ø±Ø§Ø¡": 7982,
      "Ø¶Ø§Ø¡": 7983,
      "ĠØŃØ¶Ø±Ø§Øª": 7984,
      "ÙĨÛģÙĪÚº": 7985,
      "ÙħÙĤØ§ÙħÛĮ": 7986,
      "ĠAugust": 7987,
      "ĠÙĪØ§Ø±ÙĨ": 7988,
      "ĠØ³Ø±ØŃØ¯ÙĪÚº": 7989,
      "ĠÙ¾ÛĴ": 7990,
      "Ø¹ÛĮØ¯": 7991,
      "ĠØªÛģÙĪØ§Ø±": 7992,
      "ĠØ±Ú¯Ø¨ÛĮ": 7993,
      "ĠÛĮÚ©Ø³Ø§Úº": 7994,
      "ÙĤÙĪÙĦ": 7995,
      "ĠØ±ÛĮÚ¯": 7996,
      "Ø§ØŃÙĤ": 7997,
      "ĠØ¢Ø±Ú¯ÙĨ": 7998,
      "ĠÙĦÙħØ¨ÛĮ": 7999,
      "ĠØ¹Ú©Ø§Ø³ÛĮ": 8000,
      "Ø¨ÙĨØ¯ÛĮ": 8001,
      "ĠÙħÙĤØµ": 8002,
      "Ø¢Ø®": 8003,
      "ĠØ³ÙħØ§Ø¬": 8004,
      "ĠÙĦÙĨÚ©": 8005,
      "ham": 8006,
      "ĠØªÙħØºØ§": 8007,
      "ĠÚĪØ§ÙĨ": 8008,
      "her": 8009,
      "ĠØ¨Ø±ÛĮÚĪ": 8010,
      "ĠÙ¹ÛĮÙĨÚ©": 8011,
      "Ø±ÙħÛĮÚº": 8012,
      "ĠÙĨÙĤØ´Ûģ": 8013,
      "ĠØ·Ø¨ÙĤÛģ": 8014,
      "ĠØ²ÙĦØ²ÙĦÛģ": 8015,
      "ept": 8016,
      "ÙĦÙĨØ¯ÙĨ": 8017,
      "ĠØ±Ø§Ø¬Ø³ØªÚ¾Ø§ÙĨ": 8018,
      "ĠØ¨Ø§Ø¦ÛĮÚ©Ø§Ù¹": 8019,
      "ĠØ§ÙĦØ¹ÙĦÙħ": 8020,
      "ĠÙĨØ§ÙĤØµ": 8021,
      "Ú©Ù¾ØªØ§ÙĨ": 8022,
      "ĠØ¹Ø¨ÙĪØ±ÛĮ": 8023,
      "ĠØ³ØªØ§Ø±": 8024,
      "Ø¨ÙĨÚ¯ÙĦÛģ": 8025,
      "ĠÙħØ±Ûģ": 8026,
      "ĠÙħØŃØªØ±ÙħÛģ": 8027,
      "ÛĮÙĪÙĨÛĮ": 8028,
      "ĠÚ©ÛĮÙĪØ§": 8029,
      "ĠÙ¾ÙĨØ¬": 8030,
      "Ø§ÛģÙĦÛĮ": 8031,
      "ĠÚĨÛĮØ²ÙĪÚº": 8032,
      "ĠÙģÚ©Ø³": 8033,
      "ĠÙĤØ²": 8034,
      "Ø§Ú©Ø§Ø±": 8035,
      "ĠÙģÛĮØµÙĦÙĪÚº": 8036,
      "ĠÙħØ±ÙĨÛĴ": 8037,
      "ĠØŃÙħØ²Ûģ": 8038,
      "Ðµ": 8039,
      "ĠÚ¯Ø§ÙĨØ§": 8040,
      "ĠÛĮØ±ÙĪØ´ÙĦÙħ": 8041,
      "ĠÙħØ´Ø§ÛģØ¯": 8042,
      "ĠØ¬ØºØ±Ø§ÙģÛĮØ§Ø¦ÛĮ": 8043,
      "ĠØŃØ¬Ùħ": 8044,
      "ĠÛĮØ³": 8045,
      "ĠØ¨Ø±Ø§ÚĪ": 8046,
      "ĠÙĪØ¶Ø¹": 8047,
      "ĠÙ¾Ù¹ÛĮÙĦ": 8048,
      "Ø§ÙĨØµ": 8049,
      "ĠÙĨØ¹Øª": 8050,
      "Ø³Ù¹Ø§Ø¦ÙĦ": 8051,
      "ĠÚ©Ú¾ÛĮÙĦØªÛĮ": 8052,
      "Ġâ": 8053,
      "ÛģØ³Ù¾": 8054,
      "ĠÙ¾ÙĦÛĮ": 8055,
      "ĠØ§ÙĦÛģÛĮ": 8056,
      "ØªÛĮÙħ": 8057,
      "Ø§Ø³Ø±Ø§Ø¦ÛĮ": 8058,
      "ĠØ¨Ø±Ú©": 8059,
      "ĠØ¹Ø¬ÛĮØ¨": 8060,
      "2000": 8061,
      "ĠØªØ¨Ø§Ø¯ÙĦÛĴ": 8062,
      "ÙĪØ±Ø§Øª": 8063,
      "ÛĶ(": 8064,
      "ØªØ¨": 8065,
      "Ø¸ÛĮ": 8066,
      "ĠØ³ÙĨØ¬ÛĮØ¯Ûģ": 8067,
      "Ø¯Ú¾Ùħ": 8068,
      "ĠØ¬Ø²ÙĪÛĮ": 8069,
      "ĠØ³Ø±Ù¾Ø±Ø³ØªÛĮ": 8070,
      "cy": 8071,
      "ĠÚĨÙĪÛģ": 8072,
      "Ø¬ÛĮÙ¹ÙĦ": 8073,
      "ĠÙģØ±ÙħØ§Ø¦ÛĮ": 8074,
      "ĠÙħØ§Ø®Ø°": 8075,
      "Ø®Ø§ÙĨÛģ": 8076,
      "ĠØ§ØŃØ³Ø§ÙĨ": 8077,
      "Ġre": 8078,
      "Ø§Ø³Ø¯": 8079,
      "ĠÙģÙĨÙĪÙĨ": 8080,
      "ĠØ¹ØµÙħØª": 8081,
      "ĠØ¨Ú¾ÛĮØ¬ÛĴ": 8082,
      "ĠÙĪØ±ÙĨÛģ": 8083,
      "ĠÛģØ§Ø¦ÛĮÚĪØ±ÙĪ": 8084,
      "ÙħÙĤØ¯Ùħ": 8085,
      "ĠØ±Ø§Ø¦Ù¹Ø±": 8086,
      "ĠØ¬Ø§ÙĨÚĨ": 8087,
      "Ġ1932": 8088,
      "ĠØŃØ¬Ø§Ø¬": 8089,
      "ØŃÛĮØ¯Ø±": 8090,
      "ĠØ§ÙĪÛĮØ³": 8091,
      "ĠÙħÙĤØ±Ø±Ûģ": 8092,
      "ĠÙħÛĮØ³Ø±": 8093,
      "Ø³ØªÚ¯ÛĮ": 8094,
      "âģ": 8095,
      "Ġ#": 8096,
      "ĠØ¹ÙħØ±ÛĮ": 8097,
      "ĠØ³ÙħØ¬Ú¾ÛĴ": 8098,
      "ĠØ¯ÛĮÙĪØªØ§": 8099,
      "ĠÚ¯Ø§Ùħ": 8100,
      "ĠÙħÙĨØ§ÙĨÛĴ": 8101,
      "ĠØ§Ø¯ÙĪØ§Ø±": 8102,
      "ĠÚ©ÙĦØ§Ø³ÛĮÚ©ÛĮ": 8103,
      "ĠØ¢Ø±ÙħÛĮÙĨÛĮ": 8104,
      "ĠÙħØ®Ø¯ÙĪÙħ": 8105,
      "ĠGro": 8106,
      "ĠÙĪØ§Ø±ÚĪ": 8107,
      "Ø±ÛĮØ§Ø³ØªÛģØ§Ø¦ÛĴ": 8108,
      "ĠÙģØ±Ø²ÙĨØ¯": 8109,
      "ĠØ´ÛģØ±Ø³ØªØ§ÙĨ": 8110,
      "Ġ1921": 8111,
      "ĠØºØ°": 8112,
      "ĠØ¨Ø§ÙĦØªØ±ØªÛĮØ¨": 8113,
      "ĠØ§Ú¯ÙĦÛĮ": 8114,
      "ÙĪÚĨ": 8115,
      "ĠÙĪÛĮÙħÙĨ": 8116,
      "ĠÛĮÙĨÚ¯": 8117,
      "ĠØ´ÛģØ¨Ø§Ø²Ø´Ø±ÛĮÙģ": 8118,
      "ÙĦØ§ÙĦ": 8119,
      "Ú©ÛĮÛģ": 8120,
      "ĠÙĦÚ¯ØªÛĴ": 8121,
      "2019": 8122,
      "ĠØ§ÙĦÙħÙĤ": 8123,
      "ĠÙ¹Ø±Ø³Ù¹": 8124,
      "ĠÙģÛĮÙħÙĦÛĮ": 8125,
      "ĠÛ±Û": 8126,
      "ĠØ±ÙĪØ¯": 8127,
      "ĠÚĨÚ¾ÛĮ": 8128,
      "ĠÙĤØ§Ø¯Ø±": 8129,
      "ĠÙħØ´Ú©ÙĪÚ©": 8130,
      "ĠØ¨Ø±ØªØ±ÛĮ": 8131,
      "enn": 8132,
      "ÙħÙĦØªØ§ÙĨ": 8133,
      "Ġ79": 8134,
      "Ġ99": 8135,
      "ĠØ¬ÙĪØ²Ùģ": 8136,
      "ĠÚĨÙĪÙĨ": 8137,
      "outh": 8138,
      "ĠØ²ÛģØ±ÛĮ": 8139,
      "ÙħÛĮØ±ÛĴ": 8140,
      "Ø±ÙĨ": 8141,
      "ĠÚ©Ø§Ø±Ú©ÙĨØ§ÙĨ": 8142,
      "ĠÙħÚĪ": 8143,
      "ĠÚ©Ú¾ÙĦÛĮ": 8144,
      "ĠØ¨ÛĮÙĨØ¸ÛĮØ±": 8145,
      "ĠØ¢Ø±Ù¹ÛĮÚ©ÙĦ": 8146,
      "iversity": 8147,
      "ĠÚ©Ø§ÙħØ±Ø§ÙĨ": 8148,
      "Ø«ÛĮÙĤ": 8149,
      "Ú¯Ø±ÛĮÙĨ": 8150,
      "ĠØ¹ÙĤÙĦ": 8151,
      "ĠÙĤÛĮØ³": 8152,
      "ĠØ¨Ø§Ø²ÙĨ": 8153,
      "ĠÙħØ±Ø¨ÙĪØ·": 8154,
      "ĠÚĪØ±Ø§ÙħÙĪÚº": 8155,
      "ĠØ´Ø§Ø±Ø¬Ûģ": 8156,
      "Ù¹ÛĮÚ©": 8157,
      "ĠÙħÛģÙĨÚ¯Ø§Ø¦ÛĮ": 8158,
      "ĠÚĪÛĮÙ¾Ø§Ø±Ù¹ÙħÙĨÙ¹": 8159,
      "ĠÚĪØ±Ø§ÙħÛģ": 8160,
      "ØŃÙĤÛĮÙĤØª": 8161,
      "ĠØ§Ø±Ø¬ÙĨÙ¹": 8162,
      "ĠØ³Ø§ØŃÙĦÛĮ": 8163,
      "ÚĳÛĮÙĪÚº": 8164,
      "ĠØ®Ø±Ùħ": 8165,
      "ĠÚ©ÛģØ§ÙĨÛĮØ§Úº": 8166,
      "ĠØ§ÙĦØ±Ø´ÛĮØ¯": 8167,
      "ĠÙ¾Ø§ÙĨØ§ÙħØ§": 8168,
      "Ø§Ø¹Ø¯Ú¯ÛĮ": 8169,
      "Ø§ØªÙĪ": 8170,
      "Ú©ÛģØ§": 8171,
      "ĠÙĦØ§Ø´ÛĮÚº": 8172,
      "ĠÙħÙĪØ§ØµÙĦØ§Øª": 8173,
      "ĠÙħØ´ÙĤ": 8174,
      "ĠØ¨ÚĨÙĨ": 8175,
      "ĠÙĤØ¯ÙħÛĮ": 8176,
      "ĠÙħØ§Ø¦Ø¹": 8177,
      "ĠØ±ÙĪØ²ÙĨØ§ÙħÛģ": 8178,
      "ÙĨØ§Ø¯": 8179,
      "ĠÚ¯ÛģØ±Ø§": 8180,
      "ÙħÛĮÙħÛĮ": 8181,
      "ĠÙħØµÙĨÙģÛĮÙĨ": 8182,
      "ĠÙĨØ±Ùħ": 8183,
      "ĠØ·Ø§ÙĤØªÙĪÚº": 8184,
      "ĠÙĪØ§ÙĤÙģ": 8185,
      "ĠØ§Ø¸ÛģØ±": 8186,
      "ĠÙĦÙĪØ§ØŃÙĤÛĮÙĨ": 8187,
      "ĠØªÙĨØ§Ø³Ø¨": 8188,
      "ĠØ¢Ú¯Ø¦ÛĴ": 8189,
      "ÙħØ³Øª": 8190,
      "Ġ89": 8191,
      "ĠÛģØ§Ø´Ùħ": 8192,
      "ality": 8193,
      "ĠØ¨Ø±ÙĪØ²": 8194,
      "ĠØ¯ÛĮÛģØ§Øª": 8195,
      "ĠÙħØ§ØŃÙĪÙĦÛĮØ§ØªÛĮ": 8196,
      "Ø³Ø±Ø§Ø¬": 8197,
      "ĠØ³ÙĨØ¨Ú¾Ø§ÙĦØ§": 8198,
      "ĠØ¹Ø§Ø¯ÙĦ": 8199,
      "ile": 8200,
      "ĠÚ¯ÙĪØ§Ûģ": 8201,
      "Ù¾ÙĪØ§Ø¦ÙĨÙ¹": 8202,
      "Ø¨Ø¹Ø©": 8203,
      "ĠØŃØ±Ùħ": 8204,
      "ÙĪØªÛģ": 8205,
      "ĠÙĦØ§Ø¦Ùģ": 8206,
      "Ø§ÙĤÙĪØ§Ùħ": 8207,
      "ĠØ§Ø´ÙģØ§ÙĤ": 8208,
      "ÙĨÙĪØ±": 8209,
      "ĠÙ¹Ø§ÙĪØ±": 8210,
      "ĠØ¬Ø§ÙĨØªØ§": 8211,
      "ĠØ´Ø¹Ø±Ø§": 8212,
      "ĠØ´ÛĮÚĪÙĨÚ¯": 8213,
      "ÙħØ®ØªÙĦÙģ": 8214,
      "ĠÚ¯ÙĪØ¬Ø±Ø§ÙĨÙĪØ§ÙĦÛģ": 8215,
      "ĠØ§ÛĮÚĪÙħÙĨ": 8216,
      "ĠØ´Ú©Ø§ÛĮØ§Øª": 8217,
      "ĠØ¨ÙħØ·Ø§Ø¨ÙĤ": 8218,
      "Ø³Ù¹ÛĮÙĨ": 8219,
      "ĠÙ¾Ø±ÙĪØ¬ÛĮÚ©Ù¹": 8220,
      "ĠØªØ§Ø±Ú©ÛĮÙĨ": 8221,
      "Ø¢Ø¨": 8222,
      "ĠØºÛĮØ±Øª": 8223,
      "ĠØ³Ú©Ú¾Ø±": 8224,
      "ĠÚ¯ÛģØ±": 8225,
      "ĠØªÙĪØ«ÛĮÙĤ": 8226,
      "ins": 8227,
      "ĠØ§ÙĨÙģØ§Ø±ÙħÛĮØ´ÙĨ": 8228,
      "ÛĮÙĨÛĮØ³ÛĮ": 8229,
      "ĠØ§ÙĦÙĤÙĪÛĮ": 8230,
      "ÛģÛĮÚº": 8231,
      "ĠÚĨÙĪÙ¾": 8232,
      "ĠØ§ÙĦÙĤØ§Ø¯Ø±": 8233,
      "ĠØ¢Ø±ØªÚ¾ÙĪÚĪ": 8234,
      "ĠÙģØµ": 8235,
      "ĠØ§ÙĦÙħØº": 8236,
      "ĠÛģÙĪØ¬Ø§ØªØ§": 8237,
      "ĠÙ¾ÛĮÚĨÛĮØ¯Ûģ": 8238,
      "Ø±ÛĮÙĨØ¯Ø±": 8239,
      "Ø·Ø±ÙģÛģ": 8240,
      "ĠØ§ÛĮØ±ÛĮØ§": 8241,
      "ĠÚĪÚ¾Ø§ÙĨ": 8242,
      "ï¯½": 8243,
      "ĠØ§ÙģØ³Ø§ÙĨÛģ": 8244,
      "ĠØªØ®ÙħÛĮÙĨÛģ": 8245,
      "ĠØ®Ø§ÙĦØµ": 8246,
      "ĠÙħÛĮØªÚ¾ÛĮ": 8247,
      "ĠÙĤÙĪØ§Ø¹Ø¯": 8248,
      "ĠØ¨Ø¯Ø¹ÙĨÙĪØ§ÙĨÛĮ": 8249,
      "iam": 8250,
      "ÙħÙĦØ§ÙĤØ§Øª": 8251,
      "ĠÙĤÙĦØª": 8252,
      "ĠØ³Ø¨Ø²ÛĮ": 8253,
      "ĠÚ©ÙĪÙĦÙħØ¨ÙĪ": 8254,
      "ĠÚĨÙħÚ©": 8255,
      "ĠÚ©ÛĮØªÚ¾ÙĪÙĦÚ©": 8256,
      "ĠÙ¾ÚĳÙĪØ³ÛĮ": 8257,
      "Ø¨Ú¾Ø§Ø±": 8258,
      "ĠÙģÙĪÚĪ": 8259,
      "ĠÙħØ³Ø§ÙĪØ§Øª": 8260,
      "ĠÙĦÚ¯ÛĮÚº": 8261,
      "ĠØ¨ÛĮÙħØ§Ø±ÛĮÙĪÚº": 8262,
      "ĠÙ¹ÙĨÚĪ": 8263,
      "Ù¾ÙĪØ±Ûģ": 8264,
      "ĠÚĨÙ¾": 8265,
      "Ø¯ÛģÛĮ": 8266,
      "ĠØ§ØµØŃØ§Ø¨": 8267,
      "ĠÚ©ÛĮÙħÙ¾Ø³": 8268,
      "ĠGm": 8269,
      "ĠØ³ÛĮØ§ØŃØª": 8270,
      "ĠÙĪÛĮÚ©ÛĮ": 8271,
      "ĠÙĪØ§Ù¾ÚĪØ§": 8272,
      "ĠÙĨØ°ÛĮØ±": 8273,
      "ĠÚ¯ÙĨÚ¯": 8274,
      "ĠØ§ÙĦØ§Ø¨": 8275,
      "ĠÙ¾Ø±ØªÚ¯Ø§ÙĦ": 8276,
      "ĠÙ¾Ø§Ø±ÙĦÛĮÙħØ§ÙĨ": 8277,
      "ĠØ¨Ø¸Ø§ÛģØ±": 8278,
      "ĠÙħØ®ØªØ§Ø±ÛĮ": 8279,
      "ĠØ¨ÙĨÚ¯ÙĦÙĪØ±": 8280,
      "ĠØ§ÙĦØ«Ø§ÙĨÛĮ": 8281,
      "ĠØ±Ø³Ø§ÙĦÛģ": 8282,
      "Ø¨ÙĪØ³": 8283,
      "ĠØŃÙĨÛĮÙģ": 8284,
      "ÙĪÙĦÛĴ": 8285,
      "ĠÚ©ÛģØªÛĮ": 8286,
      "ĠØ¨ÙħØ¨Ø§Ø±ÛĮ": 8287,
      "ĠØ¨ÙĦØ§ÙĦ": 8288,
      "ĠÙħØ¹Ø§Ø´ÛĮØ§Øª": 8289,
      "ÙĪØ±Ø§ÚĪÙĪ": 8290,
      "Ø§Ø®Ø±": 8291,
      "ĠÚ©Ø§ÙĦØ§": 8292,
      "ĠØ§ÙħÚ©Ø§ÙĨØ§Øª": 8293,
      "ĠØ³Ø±Ø¨ÛĮØ§": 8294,
      "ĠØ§ÛĮØ¯Ú¾ÛĮ": 8295,
      "ĠØ±ÙĪÙ¹ÛĮ": 8296,
      "ĠÙ¾Ú©Ø§Ø±": 8297,
      "ĠÙģØªÙĪØŃØ§Øª": 8298,
      "Ø§Ø¦ÛĮÙ¹ÚĪ": 8299,
      "ĠÚĨÚ¾ÛĮÙĨ": 8300,
      "ÙħØ¨ÙĦ": 8301,
      "ÚĺÙĪ": 8302,
      "ĠÙĨÚ¯Ø±Ø§ÙĨ": 8303,
      "ĠØªÙĨÙĪÛĮØ±": 8304,
      "ĠÙ¾Ø§Ùħ": 8305,
      "ĠØµØ¨Ø±": 8306,
      "ĠØ¨Ø§ÙĦØ§Ø¦ÛĮ": 8307,
      "ĠØªØ¹ÛĮÙĨØ§ØªÛĮ": 8308,
      "ĠÙĨØ´Ø³ØªÙĪÚº": 8309,
      "ĠÚ¯Ú¾Ø§": 8310,
      "ara": 8311,
      "ĠØ§Ù¾ÙĨØ§ÛĮØ§": 8312,
      "Ġ112": 8313,
      "ĠÚ©ÙĦØ±": 8314,
      "Øĳ": 8315,
      "ĠÙĪØ§Ø¦": 8316,
      "ĠÚ©Ø§Ú©": 8317,
      "ĠØ¹ÙĦØ§ØŃ": 8318,
      "ØŃÚ©ÙħØ±": 8319,
      "ĠØŃÙħØ¯": 8320,
      "Ø§ÛĮØ´": 8321,
      "Ú©ÙĪÙģ": 8322,
      "ĠØ¬ÛĮÙĪ": 8323,
      "ĠØ§ÙĦØ¹Ø±Ø¨ÛĮ": 8324,
      "ĠÙ¾ÙĦÛĮØ¦Ø±": 8325,
      "ĠØ¯ÛĮÚ©Ú¾ÙĨØ§": 8326,
      "ĠØ§Ø±Ø§Ø¶ÛĮ": 8327,
      "ÙĦØ§Ø·ÛĮÙĨÛĮ": 8328,
      "ÙĪÙĨØ²": 8329,
      "ÛģÙħÛĮÚº": 8330,
      "ÙĪØ·ÙĨÛĮ": 8331,
      "ØŃÛĮØŃ": 8332,
      "ĠØŃØ³Ø¨": 8333,
      "ĠÛģÙĪÙĨÛĮÙĪØ§ÙĦÛĴ": 8334,
      "ĠØ±ÙĪÙ¹": 8335,
      "ĠØ¯ÛĮÚ©Ú¾ÛĴ": 8336,
      "ĠÙģØ±ÛĮÙĨÚ©": 8337,
      "Ø®ÙĪØ±": 8338,
      ")|": 8339,
      "ÙĨØ¨ÛĮ": 8340,
      "ÚĨÛĮÙĨÛĮ": 8341,
      "ÛĮÙĨØ¯Ø±": 8342,
      "ĠÙ¹Ú©ÚĳÛĴ": 8343,
      "ĠØ§Ø´ØªØ±Ø§Ú©": 8344,
      "Ù¾Ø§ÙĨÚĨ": 8345,
      "ØŃÛĴ": 8346,
      "Ú©ÛĮÙĪÙĨÚ©Ûģ": 8347,
      "ĠÙĨØ§ÚĪÙĪ": 8348,
      "ĠØ®Ø§Ø±": 8349,
      "ĠÚĨÛĮØ²ÛĮÚº": 8350,
      "ĠGmina": 8351,
      "Ø³Ù¹ÙĪ": 8352,
      "ĠØªØŃÙģØ¸Ø§Øª": 8353,
      "ĠÙ¾Ø§Ø¦Ù¾": 8354,
      "ÛĮØ³Ø§": 8355,
      "Ø¯Ø±Ûģ": 8356,
      "ÛĮÙģ": 8357,
      "Ø³ÙĨÛĮ": 8358,
      "ĠØ±Ø¨Ø§ÙĨÛĮ": 8359,
      "ĠØ·ÙĪ": 8360,
      "ÛĮÙĦÛģ": 8361,
      "ĠØ¬ÙĨÛĮ": 8362,
      "ĠÙħÙĪÛģÙĨ": 8363,
      "ĠØ¨Ø±ÙĪÙĤØª": 8364,
      "ĠÙĤÙħ": 8365,
      "info": 8366,
      "ĠØ³ÛĮÚ©Ø±Ù¹Ø±ÛĮÙ¹": 8367,
      "Ú¯Ø²ÛĮÙĨÚĪØ±": 8368,
      "ĠÚ©ÛĮÙĪØ§ÛĮÙħ": 8369,
      "ans": 8370,
      "eh": 8371,
      "ĠÙģÙĦÙĪØ±": 8372,
      "ĠØ¹Ø¸ÙħØª": 8373,
      "Ø§ÛĮØ§ÙĨ": 8374,
      "ĠØ§ÙĦØŃØ§ÙĤ": 8375,
      "ĠØ¯ÙĦÚĨØ³Ù¾": 8376,
      "ĠØ¢Ø±Ú©ÙĨØ³Ø§Ø³": 8377,
      "ĠÚĨÙĪÙ¹ÛĮ": 8378,
      "ĠØºÙģ": 8379,
      "ĠØ³ÙĪÙĦÙĪ": 8380,
      "Ø¯ÛģØ´ØªÚ¯": 8381,
      "ĠÙĨØ§Ø¨": 8382,
      "ĠÙħØ§ÙĦÚ©Ø§ÙĨ": 8383,
      "Ø¯Ø§Ùģ": 8384,
      "ĠÙħØµÙĪØ±": 8385,
      "unic": 8386,
      "ĠØ¯ÛĮÙĪØ¨ÙĨØ¯": 8387,
      "ĠÙģÙĦÛĮ": 8388,
      "ĠØ¨Ø±ØªÙĨ": 8389,
      "ĠØ¯Ú©ÙĨ": 8390,
      "Ġ110": 8391,
      "ĠØ§ÙħÙĪÛĮ": 8392,
      "Ø³ÙĦØ§ÙħÛĮ": 8393,
      "ĠØ¨ÛĮØ¬ÙĨÚ¯": 8394,
      "Ø§ØŃØ«": 8395,
      "ĠØ§ÛĮÚĪÛĮØ´ÙĨÙĦ": 8396,
      "Ø³Ø§ÙĨØŃÛģ": 8397,
      "ĠØªØ¹Ø§Ø±Ùģ": 8398,
      "atch": 8399,
      "ĠØ±ÙĪÙħÙĨ": 8400,
      "ĠØ¢Ú¯Ø§ÛģÛĮ": 8401,
      "ĠØŃØ±Ùģ": 8402,
      "Ġ91": 8403,
      "Ø·ÛĮÙĦ": 8404,
      "ĠØ¨ÙĨØ§ØªØ§": 8405,
[...]
